{
  "version": "1.0",
  "truncation": null,
  "padding": null,
  "added_tokens": [
    {
      "id": 0,
      "content": "<unk>",
      "single_word": false,
      "lstrip": false,
      "rstrip": false,
      "normalized": false,
      "special": true
    },
    {
      "id": 1,
      "content": "<pad>",
      "single_word": false,
      "lstrip": false,
      "rstrip": false,
      "normalized": false,
      "special": true
    },
    {
      "id": 2,
      "content": "<bos>",
      "single_word": false,
      "lstrip": false,
      "rstrip": false,
      "normalized": false,
      "special": true
    },
    {
      "id": 3,
      "content": "<eos>",
      "single_word": false,
      "lstrip": false,
      "rstrip": false,
      "normalized": false,
      "special": true
    }
  ],
  "normalizer": null,
  "pre_tokenizer": {
    "type": "ByteLevel",
    "add_prefix_space": false,
    "trim_offsets": true,
    "use_regex": true
  },
  "post_processor": null,
  "decoder": {
    "type": "ByteLevel",
    "add_prefix_space": true,
    "trim_offsets": true,
    "use_regex": true
  },
  "model": {
    "type": "BPE",
    "dropout": null,
    "unk_token": "<unk>",
    "continuing_subword_prefix": null,
    "end_of_word_suffix": null,
    "fuse_unk": false,
    "byte_fallback": false,
    "ignore_merges": false,
    "vocab": {
      "<unk>": 0,
      "<pad>": 1,
      "<bos>": 2,
      "<eos>": 3,
      "!": 4,
      "\"": 5,
      "#": 6,
      "$": 7,
      "%": 8,
      "&": 9,
      "'": 10,
      "(": 11,
      ")": 12,
      "*": 13,
      "+": 14,
      ",": 15,
      "-": 16,
      ".": 17,
      "/": 18,
      "0": 19,
      "1": 20,
      "2": 21,
      "3": 22,
      "4": 23,
      "5": 24,
      "6": 25,
      "7": 26,
      "8": 27,
      "9": 28,
      ":": 29,
      ";": 30,
      "<": 31,
      "=": 32,
      ">": 33,
      "?": 34,
      "@": 35,
      "A": 36,
      "B": 37,
      "C": 38,
      "D": 39,
      "E": 40,
      "F": 41,
      "G": 42,
      "H": 43,
      "I": 44,
      "J": 45,
      "K": 46,
      "L": 47,
      "M": 48,
      "N": 49,
      "O": 50,
      "P": 51,
      "Q": 52,
      "R": 53,
      "S": 54,
      "T": 55,
      "U": 56,
      "V": 57,
      "W": 58,
      "X": 59,
      "Y": 60,
      "Z": 61,
      "[": 62,
      "]": 63,
      "_": 64,
      "a": 65,
      "b": 66,
      "c": 67,
      "d": 68,
      "e": 69,
      "f": 70,
      "g": 71,
      "h": 72,
      "i": 73,
      "j": 74,
      "k": 75,
      "l": 76,
      "m": 77,
      "n": 78,
      "o": 79,
      "p": 80,
      "q": 81,
      "r": 82,
      "s": 83,
      "t": 84,
      "u": 85,
      "v": 86,
      "w": 87,
      "x": 88,
      "y": 89,
      "z": 90,
      "¡": 91,
      "¢": 92,
      "£": 93,
      "¤": 94,
      "¥": 95,
      "¦": 96,
      "§": 97,
      "¨": 98,
      "©": 99,
      "ª": 100,
      "«": 101,
      "¬": 102,
      "®": 103,
      "¯": 104,
      "°": 105,
      "±": 106,
      "²": 107,
      "³": 108,
      "´": 109,
      "µ": 110,
      "¶": 111,
      "·": 112,
      "¸": 113,
      "¹": 114,
      "º": 115,
      "»": 116,
      "¼": 117,
      "½": 118,
      "¾": 119,
      "¿": 120,
      "Â": 121,
      "Ã": 122,
      "Ä": 123,
      "Å": 124,
      "Æ": 125,
      "Ç": 126,
      "È": 127,
      "Ê": 128,
      "Ì": 129,
      "Î": 130,
      "Ñ": 131,
      "á": 132,
      "â": 133,
      "ã": 134,
      "å": 135,
      "æ": 136,
      "ç": 137,
      "è": 138,
      "é": 139,
      "ï": 140,
      "Ċ": 141,
      "Ġ": 142,
      "Ģ": 143,
      "ģ": 144,
      "Ĥ": 145,
      "ĥ": 146,
      "Ħ": 147,
      "ħ": 148,
      "Ĩ": 149,
      "ĩ": 150,
      "Ī": 151,
      "ī": 152,
      "ĭ": 153,
      "Į": 154,
      "į": 155,
      "İ": 156,
      "ı": 157,
      "Ĳ": 158,
      "ĳ": 159,
      "Ĵ": 160,
      "ĵ": 161,
      "Ķ": 162,
      "ķ": 163,
      "ĸ": 164,
      "Ĺ": 165,
      "ĺ": 166,
      "Ļ": 167,
      "ļ": 168,
      "Ľ": 169,
      "ľ": 170,
      "Ŀ": 171,
      "ŀ": 172,
      "Ł": 173,
      "ł": 174,
      "Ń": 175,
      "á»": 176,
      "Ġt": 177,
      "ng": 178,
      "áº": 179,
      "Ġc": 180,
      "Ġth": 181,
      "ĠÄ": 182,
      "ĠÄĳ": 183,
      "Ġa": 184,
      "Ġb": 185,
      "Ġn": 186,
      "Ãł": 187,
      "Ġs": 188,
      "Ġv": 189,
      "Ġh": 190,
      "er": 191,
      "in": 192,
      "Ġl": 193,
      "Æ°": 194,
      "Ġthe": 195,
      "Ã¡": 196,
      "Ġm": 197,
      "on": 198,
      "Ġp": 199,
      "an": 200,
      "re": 201,
      "Ġch": 202,
      "Ġtr": 203,
      "en": 204,
      "ed": 205,
      "Æ°á»": 206,
      "at": 207,
      "Ġk": 208,
      "Ġw": 209,
      "Ġd": 210,
      "á»Ļ": 211,
      "iá»": 212,
      "or": 213,
      "Ġo": 214,
      "Ġg": 215,
      "nh": 216,
      "Ã´": 217,
      "Ġnh": 218,
      "áº¿": 219,
      "is": 220,
      "ar": 221,
      "es": 222,
      "al": 223,
      "it": 224,
      "Ġf": 225,
      "á»§": 226,
      "áº£": 227,
      "ing": 228,
      "Ġin": 229,
      "Ġto": 230,
      "áº¡": 231,
      "Ġkh": 232,
      "Ã³": 233,
      "Ġng": 234,
      "Ãª": 235,
      "Ġof": 236,
      "ĠvÃł": 237,
      "as": 238,
      "Ġan": 239,
      "á»ĳ": 240,
      "Ġph": 241,
      "Ġr": 242,
      "ic": 243,
      "ou": 244,
      "Ã£": 245,
      "Ã´ng": 246,
      "Ã¡c": 247,
      "áº¥": 248,
      "á»§a": 249,
      "Ġcá»§a": 250,
      "Ãªn": 251,
      "Ġvá»": 252,
      "ion": 253,
      "iá»ĩ": 254,
      "il": 255,
      "Ġand": 256,
      "qu": 257,
      "ĠÄĳÃ£": 258,
      "Ã¢": 259,
      "om": 260,
      "á»Ļt": 261,
      "ay": 262,
      "el": 263,
      "ĠC": 264,
      "ent": 265,
      "ĠS": 266,
      "Ġqu": 267,
      "Th": 268,
      "á»ĭ": 269,
      "Æ°á»Ŀ": 270,
      "ĠM": 271,
      "áºŃ": 272,
      "Æ°á»£": 273,
      "Ġmá»Ļt": 274,
      "iáº¿": 275,
      "ong": 276,
      "áº§": 277,
      "id": 278,
      "Ġre": 279,
      "ch": 280,
      "ĠA": 281,
      "á»©": 282,
      "ÃŃ": 283,
      "am": 284,
      "á»±": 285,
      "ĠB": 286,
      "Ã¬": 287,
      "ĠlÃł": 288,
      "Æ¡": 289,
      "Ľi": 290,
      "ĠcÃ¡c": 291,
      "Ġgi": 292,
      "Æ°á»£c": 293,
      "st": 294,
      "le": 295,
      "ĠÄĳÆ°á»£c": 296,
      "Ġtá»": 297,
      "ad": 298,
      "á»Ł": 299,
      "Äĥ": 300,
      "áº¡i": 301,
      "Ġ\"": 302,
      "ol": 303,
      "Æ°á»Ŀi": 304,
      "ot": 305,
      "Ġbe": 306,
      "ĠÄĳá»": 307,
      "á»¯": 308,
      "Ġtrong": 309,
      "ĠP": 310,
      "iÃªn": 311,
      "ter": 312,
      "ur": 313,
      "00": 314,
      "The": 315,
      "ĠN": 316,
      "Ãły": 317,
      "Ġcho": 318,
      "im": 319,
      "ĠT": 320,
      "Ġe": 321,
      "Ġhá»": 322,
      "ĠcÃ³": 323,
      "ĠH": 324,
      "ve": 325,
      "áº¥t": 326,
      "Ġx": 327,
      "ĠngÆ°á»Ŀi": 328,
      "uy": 329,
      "Ġthat": 330,
      "ir": 331,
      "ct": 332,
      "th": 333,
      "Ã¢n": 334,
      "Ġ1": 335,
      "áº±": 336,
      "Ġon": 337,
      "Ġ2": 338,
      "ro": 339,
      "Ġsa": 340,
      "Ġfor": 341,
      "ce": 342,
      "us": 343,
      "á»¯ng": 344,
      "ĠI": 345,
      "Ãº": 346,
      "ation": 347,
      "ig": 348,
      "ver": 349,
      ".\"": 350,
      "áº±ng": 351,
      "áº¯": 352,
      "ut": 353,
      "et": 354,
      "Ġwh": 355,
      "ow": 356,
      "ang": 357,
      "ĠL": 358,
      "ly": 359,
      "Ġvá»Ľi": 360,
      "un": 361,
      "Ġnhá»¯ng": 362,
      "Ġha": 363,
      "Ġst": 364,
      "ĠG": 365,
      "Ġis": 366,
      "Ã¬nh": 367,
      "áº§u": 368,
      "ill": 369,
      "Ġwas": 370,
      "iá»ĩn": 371,
      "and": 372,
      "Ã¡o": 373,
      "ia": 374,
      "Æ°á»Ľ": 375,
      "ĠkhÃ´ng": 376,
      "Ġráº±ng": 377,
      "Ġcon": 378,
      "ĠR": 379,
      "ĠD": 380,
      "Ãłnh": 381,
      "ra": 382,
      "Ġthá»": 383,
      "ĠÄĳá»Ļ": 384,
      "Äĥm": 385,
      "iá»ģ": 386,
      "em": 387,
      "Ġá»Ł": 388,
      "Ġbá»ĭ": 389,
      "ĠvÃło": 390,
      "ith": 391,
      "ĠnÃły": 392,
      "áºŃn": 393,
      "'s": 394,
      "os": 395,
      "áº§n": 396,
      "Ġra": 397,
      "ers": 398,
      "ew": 399,
      "Ġat": 400,
      "ĠnÃ³": 401,
      "Ġcu": 402,
      "ere": 403,
      "ĠF": 404,
      "á»¥": 405,
      "ĠW": 406,
      "Ã²": 407,
      "á»Ļc": 408,
      "Æ°á»Ľc": 409,
      "Ġwith": 410,
      "Ã¡t": 411,
      "ÃŃnh": 412,
      "oun": 413,
      "áº·": 414,
      "áº£i": 415,
      "áº½": 416,
      "Ġal": 417,
      "iá»ĥ": 418,
      "est": 419,
      "Ġkhi": 420,
      "op": 421,
      "ul": 422,
      "Ġhá»į": 423,
      "Ġas": 424,
      "ĠK": 425,
      "á»Ń": 426,
      "ĠnÄĥm": 427,
      "iá»ģu": 428,
      "á»ĳc": 429,
      "Ġngh": 430,
      "áº¿t": 431,
      "á»©c": 432,
      "áº¿n": 433,
      "Æ°Æ¡": 434,
      "ist": 435,
      "á»ķ": 436,
      "Ġsáº½": 437,
      "Ġby": 438,
      "Ġtá»«": 439,
      "ĠU": 440,
      "ĠJ": 441,
      "iáº¿t": 442,
      "Ã¹": 443,
      "ck": 444,
      "iá»ĩc": 445,
      "á»ĳi": 446,
      "ak": 447,
      "ĠcÃ´ng": 448,
      "ment": 449,
      "res": 450,
      "Ġgiá»": 451,
      "Ġde": 452,
      "Ġy": 453,
      "Ãłn": 454,
      "ort": 455,
      "Ġ(": 456,
      "Ã´i": 457,
      "Ġvá»ģ": 458,
      "ld": 459,
      "Ġlá»": 460,
      "ain": 461,
      "ĠnhÆ°": 462,
      "Æ°Æ¡ng": 463,
      "ear": 464,
      "ag": 465,
      "rom": 466,
      "Ġviá»ĩc": 467,
      "Ġit": 468,
      "ĠÄĳá»ĥ": 469,
      "ĠnÃ³i": 470,
      "Ã¡ng": 471,
      "ĠÃ´ng": 472,
      "Ġsá»±": 473,
      "iáº¿n": 474,
      "ĠÄĳÃ³": 475,
      "Ã¢y": 476,
      "Ġtáº¡i": 477,
      "á»ĳng": 478,
      "ĠÄĳáº¿n": 479,
      "ĠE": 480,
      "Æ°á»Ŀng": 481,
      "ri": 482,
      "pp": 483,
      "Ġhave": 484,
      "Ġcáº£": 485,
      "Ġhas": 486,
      "Å©": 487,
      "Ġ200": 488,
      "Ġfrom": 489,
      "á»±c": 490,
      "ect": 491,
      "Ġare": 492,
      "Ġsaid": 493,
      "Ġthá»ĥ": 494,
      "Ġho": 495,
      "ĠCh": 496,
      "Ġsu": 497,
      "ate": 498,
      "if": 499,
      "áºŃt": 500,
      "ore": 501,
      "Ġcom": 502,
      "á»Ļi": 503,
      "áº£n": 504,
      "igh": 505,
      "ao": 506,
      "Ãłi": 507,
      "á»į": 508,
      "Ãºng": 509,
      "ĠviÃªn": 510,
      "Ġcuá»Ļc": 511,
      "Ġse": 512,
      "Ġhe": 513,
      "art": 514,
      "áº£ng": 515,
      "Ġdo": 516,
      "ian": 517,
      "inh": 518,
      "ĠÄĳáº§u": 519,
      "ich": 520,
      "ĠO": 521,
      "Ŀi": 522,
      "ity": 523,
      "Ġsh": 524,
      "ĠnhÃł": 525,
      "ast": 526,
      "Ġpro": 527,
      "um": 528,
      "Ã¡n": 529,
      "ai": 530,
      "á»ģ": 531,
      "our": 532,
      "áº¥n": 533,
      "Ġex": 534,
      "á»ı": 535,
      "Ġwere": 536,
      "Æ¡n": 537,
      "Ġnot": 538,
      "gh": 539,
      "áºŃp": 540,
      "ud": 541,
      "ĠchÃŃnh": 542,
      "ung": 543,
      "ĠbÃ¡o": 544,
      "cc": 545,
      "ĠÄĳá»ĭ": 546,
      "Äĥng": 547,
      "ard": 548,
      "ĠÄĳang": 549,
      "Ġquan": 550,
      "Ġsau": 551,
      "Ġsá»ĳ": 552,
      "la": 553,
      "se": 554,
      "ĠÄĲ": 555,
      "ial": 556,
      "ĠTh": 557,
      "od": 558,
      "ord": 559,
      "ies": 560,
      "Ġle": 561,
      "ĠÄĳá»Ļng": 562,
      "Ġlo": 563,
      "Ġquy": 564,
      "ĠngÃły": 565,
      "áº¡n": 566,
      "Ãłng": 567,
      "ĠthÃłnh": 568,
      "Å©ng": 569,
      "ust": 570,
      "ab": 571,
      "á»ī": 572,
      "Ġthá»©": 573,
      "ĠtrÃªn": 574,
      "ĠV": 575,
      "ess": 576,
      "Ġbeen": 577,
      "á»ģn": 578,
      "Ã©": 579,
      "Ġthu": 580,
      "Ġwe": 581,
      "á»ĵ": 582,
      "anh": 583,
      "Ġvá»¥": 584,
      "ber": 585,
      "ĠnhÃ¢n": 586,
      "Ã½": 587,
      "ĠcÅ©ng": 588,
      "so": 589,
      "ĠtÃ´i": 590,
      "ĠthÃ¡ng": 591,
      "ant": 592,
      "Ġun": 593,
      "ĠSt": 594,
      "Ġhiá»ĩn": 595,
      "ap": 596,
      "Ġhis": 597,
      "áº¥y": 598,
      "ice": 599,
      "Ã¹ng": 600,
      "Æ°a": 601,
      "Ġgia": 602,
      "Ġwill": 603,
      "all": 604,
      "Ġláº¡i": 605,
      "iv": 606,
      "Ġhai": 607,
      "ould": 608,
      "áº«": 609,
      "Ġbiáº¿t": 610,
      "hi": 611,
      "port": 612,
      "Ã¡i": 613,
      "ĠlÃłm": 614,
      "end": 615,
      "ight": 616,
      "á»ĩ": 617,
      "ĠkhÃ¡c": 618,
      "day": 619,
      "á»¹": 620,
      "ine": 621,
      "Ġres": 622,
      "Ġ3": 623,
      "Ġbá»ĳ": 624,
      "ff": 625,
      "Qu": 626,
      "ĠhÃłnh": 627,
      "ĠthÃ´ng": 628,
      "Ġgo": 629,
      "Ġsp": 630,
      "áº¡t": 631,
      "ĠphÃ¡t": 632,
      "áº¯t": 633,
      "Ã¡p": 634,
      "ĠÄĳiá»ģu": 635,
      "ated": 636,
      "red": 637,
      "ack": 638,
      "ell": 639,
      "ik": 640,
      "ĠnÆ°á»Ľc": 641,
      "up": 642,
      "ep": 643,
      "iá»ĩu": 644,
      "ident": 645,
      "Ġpháº£i": 646,
      "á»Łi": 647,
      "ive": 648,
      "Ä©": 649,
      "ĠtrÆ°á»Ľc": 650,
      "ok": 651,
      "iá»ĥm": 652,
      "ound": 653,
      "áº«n": 654,
      "uyÃªn": 655,
      "ary": 656,
      "Ãªu": 657,
      "Ġhad": 658,
      "á»©ng": 659,
      "Ġ19": 660,
      "ish": 661,
      "ther": 662,
      "Æ°á»Ł": 663,
      "ĠhÆ¡n": 664,
      "ĠQu": 665,
      "Ġbu": 666,
      "Ġchá»©c": 667,
      "Ġtiáº¿": 668,
      "Ãło": 669,
      "Æ°á»Łng": 670,
      "ĠNew": 671,
      "ĠchÃºng": 672,
      "ide": 673,
      "Ġlu": 674,
      "Ġchá»ī": 675,
      "ÃŃch": 676,
      "fter": 677,
      "Ġwhich": 678,
      "ĠIn": 679,
      "áº¡o": 680,
      "Ġnháº¥t": 681,
      "Æ°á»£ng": 682,
      "áº¥p": 683,
      "Ġor": 684,
      "áº©": 685,
      "ren": 686,
      "Ġbá»Łi": 687,
      "out": 688,
      "ork": 689,
      "Ġkho": 690,
      "Ġoff": 691,
      "ĠÄĳá»ĵ": 692,
      "Ġag": 693,
      "áº·c": 694,
      "Ch": 695,
      "ime": 696,
      "áº£o": 697,
      "ĠÄĳá»ģ": 698,
      "Ġthis": 699,
      "Ġqua": 700,
      "á»¥c": 701,
      "ĠÄĳá»ĭnh": 702,
      "ÄĲ": 703,
      "lo": 704,
      "ub": 705,
      "Ġj": 706,
      "ĠcÃ¡o": 707,
      "ĠÄĳá»Ļi": 708,
      "Ã¡nh": 709,
      "Ġtheir": 710,
      "ome": 711,
      "ĠnháºŃn": 712,
      "Ġcá»Ń": 713,
      "ry": 714,
      "ĠmÃł": 715,
      "Ġta": 716,
      "áº¥u": 717,
      "ions": 718,
      "á»ĭch": 719,
      "Ġwho": 720,
      "Ġdá»±": 721,
      "á»ķi": 722,
      "Ġ4": 723,
      "Ã²ng": 724,
      "ount": 725,
      "ond": 726,
      "Ġpe": 727,
      "Ġtin": 728,
      "Ġar": 729,
      "á»ĥ": 730,
      "ie": 731,
      "Ġ5": 732,
      "Ġab": 733,
      "ĠMá»¹": 734,
      "Ã³ng": 735,
      "ous": 736,
      "iá»ĩt": 737,
      "ĠsÃ¡t": 738,
      ",\"": 739,
      "av": 740,
      "Ġalso": 741,
      "au": 742,
      "Ìģ": 743,
      "Ġinc": 744,
      "Ġquá»ĳc": 745,
      "Ġtu": 746,
      "ĠvÃ¬": 747,
      "Ġnhiá»ģu": 748,
      "ĠÄĳá»ĳi": 749,
      "land": 750,
      "Ġso": 751,
      "Ġmá»": 752,
      "Ġcont": 753,
      "Ġbut": 754,
      "Ã¢m": 755,
      "Ġafter": 756,
      "Ġkáº¿t": 757,
      "ge": 758,
      "Ġthey": 759,
      "Ġxu": 760,
      "Ã´n": 761,
      "Ġyear": 762,
      "ĠnhÆ°ng": 763,
      "Ġexp": 764,
      "Ã¡y": 765,
      "Tr": 766,
      "Æ¡i": 767,
      "000": 768,
      "ip": 769,
      "ec": 770,
      "wo": 771,
      "ople": 772,
      "Ġbáº¯t": 773,
      "ue": 774,
      "Ġtheo": 775,
      "áº¯c": 776,
      "ĠUn": 777,
      "ĠÄĳá»ĵng": 778,
      "mer": 779,
      "ran": 780,
      "Ġpl": 781,
      "ough": 782,
      "Ġcá»©": 783,
      "ire": 784,
      "ence": 785,
      "og": 786,
      "Ġcomp": 787,
      "ĠY": 788,
      "ĠhÃłng": 789,
      "ib": 790,
      "áº¡ng": 791,
      "ath": 792,
      "ĠÄĳÆ°a": 793,
      "Ġpol": 794,
      "vern": 795,
      "ark": 796,
      "ations": 797,
      "Ã¢u": 798,
      "ost": 799,
      "ĠÄĳo": 800,
      "Ã¡ch": 801,
      "ĠdÃ¢n": 802,
      "Ġad": 803,
      "Ã´m": 804,
      "Ġtá»ķ": 805,
      "ĠÃ": 806,
      "man": 807,
      "âĢ": 808,
      "Ġatt": 809,
      "Ã²a": 810,
      "iá»ĥu": 811,
      "Ġreport": 812,
      "CÃ¡c": 813,
      "ign": 814,
      "Ġpeople": 815,
      "Nh": 816,
      "Ġgiá»¯": 817,
      "Ġdá»¥": 818,
      "áº·t": 819,
      "Ġthá»ĳng": 820,
      "ĠTr": 821,
      "áº£y": 822,
      "ational": 823,
      "Ġla": 824,
      "Ġkhu": 825,
      "Ġphá»§": 826,
      "iá»ĩp": 827,
      "ame": 828,
      "ĠtrÆ°á»Ŀng": 829,
      "ited": 830,
      "Ġsá»Ń": 831,
      "£p": 832,
      "ile": 833,
      "ates": 834,
      "ac": 835,
      "own": 836,
      "Ì£": 837,
      "Ġhá»Ļi": 838,
      "Ãªm": 839,
      "Ġout": 840,
      "Ġtáº¿": 841,
      "Ġtháº¥y": 842,
      "Ãºc": 843,
      "Ġint": 844,
      "ĠIs": 845,
      "áº¯ng": 846,
      "ure": 847,
      "oth": 848,
      "Ġdá»¥ng": 849,
      "Ġthá»±c": 850,
      "ĠQuá»ĳc": 851,
      "ach": 852,
      "Ġover": 853,
      "Ġdis": 854,
      "tern": 855,
      "Ġchiáº¿n": 856,
      "Ġhá»įc": 857,
      "ts": 858,
      "Ġgiáº£i": 859,
      "Ġnay": 860,
      "ĠliÃªn": 861,
      "vernment": 862,
      "áº»": 863,
      "Ġus": 864,
      "Ġtiáº¿p": 865,
      "Má»Ļt": 866,
      "one": 867,
      "ĠÄĳi": 868,
      "ĠlÃªn": 869,
      "Ġpr": 870,
      "ress": 871,
      "ÌĢ": 872,
      "In": 873,
      "ens": 874,
      "ass": 875,
      "der": 876,
      "Ã¡m": 877,
      "Ġchá»§": 878,
      "ĠhÃ´m": 879,
      "ne": 880,
      "Ġacc": 881,
      "Ġcáº§u": 882,
      "Ġpart": 883,
      "ced": 884,
      "Ġquyá»ģn": 885,
      "iz": 886,
      "ĠZ": 887,
      "ical": 888,
      "Ġlá»Ľ": 889,
      "ĠAl": 890,
      "Ġwould": 891,
      "Ġbay": 892,
      "Ġchuy": 893,
      "iá»ħ": 894,
      "Ġtwo": 895,
      "Ġsay": 896,
      "Ġhá»£p": 897,
      "Ġba": 898,
      "Ġall": 899,
      "ĠmÃ¬nh": 900,
      "ĠtrÃ¬nh": 901,
      "age": 902,
      "ĠcÃ¡ch": 903,
      "iá»ĥn": 904,
      "Äĥn": 905,
      "ict": 906,
      "rit": 907,
      "Ġne": 908,
      "Ġlá»±c": 909,
      "Ġnew": 910,
      "ĠtoÃłn": 911,
      "Ġthá»§": 912,
      "Ġcáº£nh": 913,
      "iá»ĩm": 914,
      "Ġtra": 915,
      "Ġthá»Ŀi": 916,
      "Ġtháº¿": 917,
      "á»£": 918,
      "Ġgiá»Ľi": 919,
      "ru": 920,
      "ĠÄĳiá»ĥm": 921,
      "Ġcá»©u": 922,
      "ree": 923,
      "ral": 924,
      "Ġman": 925,
      "Ġ20": 926,
      "ĠtÃ¬nh": 927,
      "ake": 928,
      "á»įi": 929,
      "Ġone": 930,
      "iáº¿u": 931,
      "áº¡m": 932,
      "ĠlÆ°á»£ng": 933,
      "ĠquÃ¢n": 934,
      "ition": 935,
      "Ġrec": 936,
      "irst": 937,
      "Ġlá»Ľn": 938,
      "ely": 939,
      "Ġits": 940,
      "Ġup": 941,
      "ĠmÃ¡y": 942,
      "ite": 943,
      "ail": 944,
      "á»Ļng": 945,
      "ĠPh": 946,
      "Ġ7": 947,
      "are": 948,
      "ton": 949,
      "Ġ6": 950,
      "Ġcáº¥p": 951,
      "eal": 952,
      "ase": 953,
      "á»³": 954,
      "ĠhÃ¬nh": 955,
      "Ġváº¥n": 956,
      "Ġgovernment": 957,
      "ĠphÃ¡p": 958,
      "áº£m": 959,
      "Ġtá»Ľi": 960,
      "ĠcÃ¹ng": 961,
      "Ġapp": 962,
      "Ġim": 963,
      "Ġngo": 964,
      "ĠAnh": 965,
      "Ġgáº§n": 966,
      "ah": 967,
      "áº£nh": 968,
      "Ġmu": 969,
      "Ġvá»±": 970,
      "ied": 971,
      "Ġban": 972,
      "ven": 973,
      "Ġvá»±c": 974,
      "du": 975,
      "ĠcÆ¡": 976,
      "ĠÄĳáº¥u": 977,
      "Ġbáº±ng": 978,
      "orm": 979,
      "ĠÄĳÃ¢y": 980,
      "Ġmá»Ľi": 981,
      "ĠtuyÃªn": 982,
      "ans": 983,
      "Ġpháº§n": 984,
      "áº¯n": 985,
      "Ġbá»ı": 986,
      "ft": 987,
      "ved": 988,
      "ĠÄĳá»ķ": 989,
      "Ġte": 990,
      "old": 991,
      "Ġgiá»Ŀ": 992,
      "Ġbá»Ļ": 993,
      "Ã²n": 994,
      "ĠphÃŃ": 995,
      "Ġvi": 996,
      "ĠtráºŃn": 997,
      "per": 998,
      "ĠÃ¡n": 999,
      "Ġco": 1000,
      "iss": 1001,
      "Ġfirst": 1002,
      "aus": 1003,
      "ose": 1004,
      "Ġxuáº¥t": 1005,
      "Ġcao": 1006,
      "ters": 1007,
      "ater": 1008,
      "istan": 1009,
      "Ġtá»±": 1010,
      "Ġtáº¥n": 1011,
      "Ķng": 1012,
      "Ġsec": 1013,
      "oh": 1014,
      "ĠUnited": 1015,
      "ĠlÃ½": 1016,
      "ĠÄĳÆ°á»Ŀng": 1017,
      "Ġxe": 1018,
      "ons": 1019,
      "ick": 1020,
      "oll": 1021,
      "rael": 1022,
      "Ġcount": 1023,
      "ording": 1024,
      "ĠtiÃªn": 1025,
      "ning": 1026,
      "Ãºt": 1027,
      "uyá»ģn": 1028,
      "raq": 1029,
      "ĠtrÆ°á»Łng": 1030,
      "Ġabout": 1031,
      "ÃĶng": 1032,
      "ind": 1033,
      "á»ĳn": 1034,
      "iá»ħn": 1035,
      "Ġmore": 1036,
      "ult": 1037,
      "He": 1038,
      "Ġinv": 1039,
      "resident": 1040,
      "Ġquyáº¿t": 1041,
      "Ġná»¯": 1042,
      "Ġtime": 1043,
      "enc": 1044,
      "á»§ng": 1045,
      "Trong": 1046,
      "ade": 1047,
      "ubl": 1048,
      "Ġel": 1049,
      "Ġcl": 1050,
      "ĠNh": 1051,
      "Ġ8": 1052,
      "Ġchiáº¿": 1053,
      "Ġme": 1054,
      "ash": 1055,
      "ustral": 1056,
      "Ġláº§n": 1057,
      "ĠIraq": 1058,
      "amp": 1059,
      "ors": 1060,
      "ĠluáºŃt": 1061,
      "ĠnÃło": 1062,
      "ĠláºŃp": 1063,
      "Ġvá»ĭ": 1064,
      "ĠCan": 1065,
      "ace": 1066,
      "wn": 1067,
      "ĠcÃ²n": 1068,
      "áº¿u": 1069,
      "Ġbáº¥t": 1070,
      "Ġpre": 1071,
      "Ġváº«n": 1072,
      "Ġráº¥t": 1073,
      "Ġkhoáº£ng": 1074,
      "az": 1075,
      "we": 1076,
      "arg": 1077,
      "Ġoffic": 1078,
      "Ġother": 1079,
      "ĠSh": 1080,
      "\",": 1081,
      "pt": 1082,
      "Ġ-": 1083,
      "Ġty": 1084,
      "Ġact": 1085,
      "Ġgr": 1086,
      "Ġmin": 1087,
      "ev": 1088,
      "iá»ģn": 1089,
      "ĠÄĳÃ¡nh": 1090,
      "Ġbáº£n": 1091,
      "Ġcan": 1092,
      "ĠthÆ°Æ¡ng": 1093,
      "Ġbiá»ĥu": 1094,
      "Ġtuy": 1095,
      "ild": 1096,
      "ĠIsrael": 1097,
      "ĠnhiÃªn": 1098,
      "ci": 1099,
      "Ġper": 1100,
      "orld": 1101,
      "Ġwhen": 1102,
      "Ng": 1103,
      "Ã¡u": 1104,
      "ek": 1105,
      "ĠtÄĥng": 1106,
      "Ġbao": 1107,
      "Æ°á»Ľng": 1108,
      "ĠtÃŃnh": 1109,
      "Ġcháº¿t": 1110,
      "ĠAn": 1111,
      "Ġser": 1112,
      "Ġtrá»Ł": 1113,
      "Ġbáº§u": 1114,
      "ince": 1115,
      "ister": 1116,
      "á»ĩnh": 1117,
      "Ġdáº«n": 1118,
      "It": 1119,
      "Ġmáº·t": 1120,
      "ĠAustral": 1121,
      "ected": 1122,
      "Ġinto": 1123,
      "Ġthere": 1124,
      "ally": 1125,
      "ased": 1126,
      "act": 1127,
      "lud": 1128,
      "ob": 1129,
      "Ġtá»¥": 1130,
      "vi": 1131,
      "Ġtranh": 1132,
      "Ġdec": 1133,
      "á»«": 1134,
      "á»ĥn": 1135,
      "Ã¬m": 1136,
      "Ġlá»Ŀi": 1137,
      "Ġagain": 1138,
      "te": 1139,
      "ua": 1140,
      "Ġwork": 1141,
      "Ġanh": 1142,
      "Ġviá»ĩn": 1143,
      "Ġbec": 1144,
      "ement": 1145,
      "Ġquáº£": 1146,
      "ĠsÄ©": 1147,
      "á»ĳt": 1148,
      "Ġhá»Ļ": 1149,
      "ĠnÄĥng": 1150,
      "ĠtÃłi": 1151,
      "ĠÄĳáº¡o": 1152,
      "ĠgiÃ¡o": 1153,
      "Ġdá»ĭch": 1154,
      "ĠMin": 1155,
      "Ġthan": 1156,
      "iÃªu": 1157,
      "Ġno": 1158,
      "Ġtrá»ĭ": 1159,
      "oup": 1160,
      "oc": 1161,
      "Ġtrá»£": 1162,
      "oin": 1163,
      "Ġsome": 1164,
      "ĠÄĳáº¥t": 1165,
      "Ġtuá»ķi": 1166,
      "á»ĵm": 1167,
      "eld": 1168,
      "ĠUS": 1169,
      "Ġbom": 1170,
      "Ġbeing": 1171,
      "ĠCanad": 1172,
      "ĠÃ½": 1173,
      "illion": 1174,
      "Ġbang": 1175,
      "rent": 1176,
      "Ãłu": 1177,
      "Ġem": 1178,
      "Ġlead": 1179,
      "Ġbuá»Ļc": 1180,
      "arl": 1181,
      "á»ķng": 1182,
      "Nhá»¯ng": 1183,
      "ier": 1184,
      "á»Ŀ": 1185,
      "Ġ10": 1186,
      "ush": 1187,
      "ublic": 1188,
      "),": 1189,
      "ĠtÃ¢m": 1190,
      "Ġgá»ĵm": 1191,
      "Ã³m": 1192,
      "aw": 1193,
      "Ĺi": 1194,
      "ĠphÆ°Æ¡ng": 1195,
      "Theo": 1196,
      "ĠtÃ¬m": 1197,
      "Ġkhá»ı": 1198,
      "Ġbáº£o": 1199,
      "ĠgÃ¬": 1200,
      "ĠtÃªn": 1201,
      "Ġmil": 1202,
      "ory": 1203,
      "Ġtháº¯ng": 1204,
      "reat": 1205,
      "áº©n": 1206,
      "ĠLe": 1207,
      "Ã©p": 1208,
      "ĠÄĳá»ĭa": 1209,
      "Ġind": 1210,
      "Ġunder": 1211,
      "Ġdiá»ħn": 1212,
      "vers": 1213,
      "Ġrep": 1214,
      "ĠthÃªm": 1215,
      "Ġinclud": 1216,
      "áº¡c": 1217,
      "ĠHo": 1218,
      "Ġbá»ĩnh": 1219,
      "Ìī": 1220,
      "Ġtham": 1221,
      "Ġev": 1222,
      "Ġcomm": 1223,
      "oss": 1224,
      "Ġmáº¡ng": 1225,
      "edia": 1226,
      "Ġchiáº¿c": 1227,
      "Ġtá»¥c": 1228,
      "Ġher": 1229,
      "Ġliá»ĩu": 1230,
      "ĠgÃ¢y": 1231,
      "uring": 1232,
      "ces": 1233,
      "Ġsinh": 1234,
      "ays": 1235,
      "Ġ9": 1236,
      "Ġtrá»į": 1237,
      "Ġsupp": 1238,
      "ĠÄĳÃ´": 1239,
      "Ġxáº£y": 1240,
      "Ġkiá»ĩn": 1241,
      "son": 1242,
      "ĠphÃ²ng": 1243,
      "Ġattack": 1244,
      "Ġro": 1245,
      "Ġcuá»ĳi": 1246,
      "Ġtrá»įng": 1247,
      "ĠphÃŃa": 1248,
      "Ġnáº¡n": 1249,
      "med": 1250,
      "Ġhoáº¡t": 1251,
      "Ġlast": 1252,
      "Ġkill": 1253,
      "ned": 1254,
      "Ġthem": 1255,
      "Ġnghá»ĭ": 1256,
      "Ã©t": 1257,
      "ļc": 1258,
      "áº¡ch": 1259,
      "Ġnghi": 1260,
      "áº¡nh": 1261,
      "Ġphá»ĳ": 1262,
      "ĠWik": 1263,
      "ĠInd": 1264,
      "gan": 1265,
      "ĠnÆ¡i": 1266,
      "Ġann": 1267,
      "ĠTrung": 1268,
      "ĠÄĳá»ķi": 1269,
      "Ġá»©ng": 1270,
      "ever": 1271,
      "Ġtruyá»ģn": 1272,
      "Ġyears": 1273,
      "eral": 1274,
      "Ġany": 1275,
      "áº©m": 1276,
      "Ġtá»Ļi": 1277,
      "Ġtrang": 1278,
      "uss": 1279,
      "Ġconf": 1280,
      "á»ĵi": 1281,
      "Ġrem": 1282,
      "ov": 1283,
      "Ġchá»©ng": 1284,
      "ating": 1285,
      "able": 1286,
      "ĠyÃªu": 1287,
      "ĠbÃ¬nh": 1288,
      "ĠÃļc": 1289,
      "Ġtiáº¿n": 1290,
      "ĠluáºŃn": 1291,
      "Ġfin": 1292,
      "Ġofficial": 1293,
      "ĠsÃ¡ch": 1294,
      "Ġreg": 1295,
      "fore": 1296,
      "Ġhay": 1297,
      "Ġcá»ĳ": 1298,
      "Ġonly": 1299,
      "Ġam": 1300,
      "á»Ńa": 1301,
      "ĠNg": 1302,
      "ĠkhÃŃ": 1303,
      "outh": 1304,
      "ĠAf": 1305,
      "ĠgiÃ¡": 1306,
      "ĠÄĲáº£ng": 1307,
      "io": 1308,
      "ĠÄĳáº¡i": 1309,
      "Ġtáº¥t": 1310,
      "ĠtrÃŃ": 1311,
      "rough": 1312,
      "Ġáº£nh": 1313,
      "Ġsáº£n": 1314,
      "Ġagainst": 1315,
      "Ġpolice": 1316,
      "Ġthay": 1317,
      "Ġinf": 1318,
      "ĠÄĳoÃłn": 1319,
      "Ġgá»įi": 1320,
      "Ġloc": 1321,
      "ĠtÆ°": 1322,
      "Ġsc": 1323,
      "ama": 1324,
      "ealand": 1325,
      "ĠtÃ²a": 1326,
      "ĠtÃłu": 1327,
      "Ġthree": 1328,
      "ont": 1329,
      "Ġgiáº£m": 1330,
      "ĠZealand": 1331,
      "ause": 1332,
      "ĠlÃ£": 1333,
      "Ġtriá»ĩu": 1334,
      "ĠxÃ¡c": 1335,
      "Ġcar": 1336,
      "ision": 1337,
      "lin": 1338,
      "This": 1339,
      "ove": 1340,
      "Ġadd": 1341,
      "Ġcould": 1342,
      "ĠthÆ°á»Ŀng": 1343,
      "ĠnghÄ©": 1344,
      "Ġen": 1345,
      "Ġtrung": 1346,
      "Ġinter": 1347,
      "Ġgian": 1348,
      "Ġhoáº·c": 1349,
      "Ġreported": 1350,
      "Ġcáº§n": 1351,
      "Ġphiáº¿u": 1352,
      "ĠbÃ³ng": 1353,
      "ĠchÃŃ": 1354,
      "Ġtiá»ģn": 1355,
      "Ġthiáº¿t": 1356,
      "olog": 1357,
      "Ġhá»ĩ": 1358,
      "ina": 1359,
      "orn": 1360,
      "ĠAr": 1361,
      "ĠMc": 1362,
      "ĠMar": 1363,
      "air": 1364,
      "ered": 1365,
      "omm": 1366,
      "ĠBá»Ļ": 1367,
      "Ãµ": 1368,
      "Ġghi": 1369,
      "ĠStates": 1370,
      "Ġgiá»¯a": 1371,
      "Ġteam": 1372,
      "ists": 1373,
      "vel": 1374,
      "Ġair": 1375,
      "ĠJoh": 1376,
      "Ġ199": 1377,
      "Ġbet": 1378,
      "ĠchÆ°a": 1379,
      "Ġlá»ĩ": 1380,
      "Ġkáº¿": 1381,
      "Ġtá»Ń": 1382,
      "bs": 1383,
      "ĠcÃ´": 1384,
      "Ġcr": 1385,
      "Ġbo": 1386,
      "Ġresp": 1387,
      "Ġthá»©c": 1388,
      "Ġpháº¡m": 1389,
      "ĠKá»³": 1390,
      "Ġ201": 1391,
      "ph": 1392,
      ").": 1393,
      "ĠÄĳiá»ĩn": 1394,
      "Ġmem": 1395,
      "Ġchá»ĳng": 1396,
      "ChÃºng": 1397,
      "laim": 1398,
      "ternational": 1399,
      "ric": 1400,
      "Ġdes": 1401,
      "ĠsÃ¡ng": 1402,
      "áº§m": 1403,
      "ope": 1404,
      "ÃŃt": 1405,
      "Ġelect": 1406,
      "Ġhá»ı": 1407,
      "\".": 1408,
      "Ġcall": 1409,
      "Ġnghiá»ĩp": 1410,
      "Ġtáº¡o": 1411,
      "Ġbiá»ĩt": 1412,
      "ĠnhÃ³m": 1413,
      "aj": 1414,
      "Ġná»ķ": 1415,
      "ities": 1416,
      "Ġtá»ķng": 1417,
      "other": 1418,
      "ings": 1419,
      "Ġtuáº§n": 1420,
      "ĠchÆ°Æ¡ng": 1421,
      "áºŃy": 1422,
      "eb": 1423,
      "ke": 1424,
      "á»ĩn": 1425,
      "ital": 1426,
      "orth": 1427,
      "Ġclaim": 1428,
      "he": 1429,
      "Ġkiáº¿n": 1430,
      "Ġpháº£n": 1431,
      "ĠLiÃªn": 1432,
      "ane": 1433,
      "Ġbefore": 1434,
      "Ġcons": 1435,
      "Ġmade": 1436,
      "ĠngoÃłi": 1437,
      "ĠCanada": 1438,
      "Ġnhiá»ĩm": 1439,
      "Acc": 1440,
      "cot": 1441,
      "Ġáº¥y": 1442,
      "Ġthá»ĭ": 1443,
      "Ġfl": 1444,
      "Ġrele": 1445,
      "Ġ15": 1446,
      "Ġkhá»ıi": 1447,
      "ĠJohn": 1448,
      "We": 1449,
      "ss": 1450,
      "Æ°u": 1451,
      "Ġmon": 1452,
      "ĠvÃłi": 1453,
      "ĠquÃ¡": 1454,
      "áº±m": 1455,
      "ews": 1456,
      "ted": 1457,
      "áº¹": 1458,
      "ĠthÃ¬": 1459,
      "Ġmay": 1460,
      "any": 1461,
      "Ġfound": 1462,
      "According": 1463,
      "Ġsá»ĳng": 1464,
      "Ġtráº£": 1465,
      "ĠphÃ©p": 1466,
      "ual": 1467,
      "Ġcur": 1468,
      "Ġthi": 1469,
      "ĠIran": 1470,
      "Ġchuyá»ĥn": 1471,
      "Ġmáº¥t": 1472,
      "ution": 1473,
      "eg": 1474,
      "ĠÄĳua": 1475,
      "ĠvÃ²ng": 1476,
      "Ġkinh": 1477,
      "ents": 1478,
      "Ġstat": 1479,
      "TÃ´i": 1480,
      "Ġtiáº¿ng": 1481,
      "Ġannoun": 1482,
      "ex": 1483,
      "ĠThe": 1484,
      "Ġweek": 1485,
      "ĠSp": 1486,
      "Ġcountry": 1487,
      "ix": 1488,
      "ty": 1489,
      "ĠÄĳáº£ng": 1490,
      "Ġsince": 1491,
      "ĠbÃªn": 1492,
      "á»ĵn": 1493,
      "ĠâĢ": 1494,
      "Ġhim": 1495,
      "Ġwar": 1496,
      "ĠdÃ¹": 1497,
      "Ġvá»ĩ": 1498,
      "Ġsá»Ł": 1499,
      "ĠPr": 1500,
      "ĠváºŃn": 1501,
      "Ġpla": 1502,
      "Ġkn": 1503,
      "owever": 1504,
      "ĠkhÃ¡ch": 1505,
      "ĠtiÃªu": 1506,
      "Ġlaw": 1507,
      "eor": 1508,
      "ĠÃŃt": 1509,
      "ĠthÆ°": 1510,
      "Ġká»ĥ": 1511,
      "rid": 1512,
      "Æ°á»Ľi": 1513,
      "Ġloáº¡i": 1514,
      "Ġinvest": 1515,
      "ĠnÃªn": 1516,
      "Ġnear": 1517,
      "Ġtho": 1518,
      "Ġbel": 1519,
      "ance": 1520,
      "Ġprov": 1521,
      "Ġgroup": 1522,
      "rib": 1523,
      "Ġimp": 1524,
      "su": 1525,
      "ug": 1526,
      "Ġthiá»ĩt": 1527,
      "ween": 1528,
      "ood": 1529,
      "Ġhigh": 1530,
      "ĠtáºŃp": 1531,
      "ĠÄĳÃ¬nh": 1532,
      "ise": 1533,
      "ale": 1534,
      "ction": 1535,
      "ĠlÃ£nh": 1536,
      "iam": 1537,
      "Ġmillion": 1538,
      "ency": 1539,
      "ving": 1540,
      "meric": 1541,
      "very": 1542,
      "Ġwhile": 1543,
      "Ġdef": 1544,
      "Ġmuá»ĳn": 1545,
      "ink": 1546,
      "Ġphá»¥": 1547,
      "aking": 1548,
      "Ġkilled": 1549,
      "Ġchu": 1550,
      "Ġcung": 1551,
      "ĠHoa": 1552,
      "ĠMinister": 1553,
      "Ġkiá»ĥm": 1554,
      "Ġgiao": 1555,
      "ĠGi": 1556,
      "ĠYork": 1557,
      "Ġ$": 1558,
      "bers": 1559,
      "ike": 1560,
      "á»Ŀi": 1561,
      "ĠmÆ°á»Ŀi": 1562,
      "Ġbetween": 1563,
      "Ġá»§ng": 1564,
      "á»Ĺ": 1565,
      "Ġduring": 1566,
      "ouse": 1567,
      "Ġhá»ĵ": 1568,
      "Ġ12": 1569,
      "Ġmilit": 1570,
      "Ph": 1571,
      "Ġhiá»ĩu": 1572,
      "erson": 1573,
      "á»«ng": 1574,
      "Ġxem": 1575,
      "'t": 1576,
      "Ġwhere": 1577,
      "Ġtriá»ĥn": 1578,
      "ĠngÃ´n": 1579,
      "BC": 1580,
      "ward": 1581,
      "ĠtÃ¡c": 1582,
      "ery": 1583,
      "Ġeff": 1584,
      "ĠPal": 1585,
      "ern": 1586,
      "Ãºp": 1587,
      "Ġmá»©c": 1588,
      "Ġ11": 1589,
      "Ġspok": 1590,
      "Ġprot": 1591,
      "á»Ľ": 1592,
      "ĠhÃ²a": 1593,
      "Ġminh": 1594,
      "ĠphÃ¡": 1595,
      "ĠRo": 1596,
      "Ġshow": 1597,
      "Ġsecond": 1598,
      "Ġthrough": 1599,
      "Ġfour": 1600,
      "Ġif": 1601,
      "ĠvÃ¹ng": 1602,
      "Ġfe": 1603,
      "ney": 1604,
      "ĠÄĳá»ĳc": 1605,
      "Ġchi": 1606,
      "Ġsur": 1607,
      "ret": 1608,
      "Ġjust": 1609,
      "ool": 1610,
      "Ġtoday": 1611,
      "«a": 1612,
      "Ġvot": 1613,
      "ĠKh": 1614,
      "Ġbiá»ĥn": 1615,
      "urn": 1616,
      "oot": 1617,
      "leg": 1618,
      "Ġtá»ī": 1619,
      "Ġdown": 1620,
      "Ã³a": 1621,
      "Ġ2006": 1622,
      "áºŃu": 1623,
      "Ġwhat": 1624,
      "Ġstate": 1625,
      "á»įn": 1626,
      "ible": 1627,
      "An": 1628,
      "fer": 1629,
      "Ġtay": 1630,
      "ĠvÅ©": 1631,
      "Ġrel": 1632,
      "amil": 1633,
      "ĠhoÃłn": 1634,
      "Ġaround": 1635,
      "ĠAmeric": 1636,
      "lear": 1637,
      "resent": 1638,
      "ĠxÃ©t": 1639,
      "áº·p": 1640,
      "ĠAustralia": 1641,
      "ĠnghiÃªn": 1642,
      "atch": 1643,
      "Ġká»³": 1644,
      "Ġend": 1645,
      "Ġcap": 1646,
      "ollow": 1647,
      "Ġter": 1648,
      "áº¥m": 1649,
      "Ġstart": 1650,
      "Ġ2007": 1651,
      "ĠtÆ°Æ¡ng": 1652,
      "Ġnam": 1653,
      "Ġmost": 1654,
      "ĠScot": 1655,
      "ĠFran": 1656,
      "ĠÄĳá»ģu": 1657,
      "Ġcurrent": 1658,
      "ĠtÆ°á»Ľng": 1659,
      "á»§y": 1660,
      "ĠCal": 1661,
      "Ġconc": 1662,
      "Ġdeath": 1663,
      "áº³": 1664,
      "Ġhel": 1665,
      "Ġdáº§u": 1666,
      "ĠDe": 1667,
      "ific": 1668,
      "Ġbecause": 1669,
      "co": 1670,
      "ĠtrÃ¡ch": 1671,
      "Ġwell": 1672,
      "ourt": 1673,
      "Tuy": 1674,
      "Ġmáº¡nh": 1675,
      "Ġplay": 1676,
      "Ġsupport": 1677,
      "Ġnow": 1678,
      "áº¯p": 1679,
      "ĠbÃłi": 1680,
      "und": 1681,
      "Ġsuch": 1682,
      "ĠlÃºc": 1683,
      "att": 1684,
      "Ġdid": 1685,
      "ĠTá»ķng": 1686,
      "ĠÄĳÃ³ng": 1687,
      "Ġworld": 1688,
      "ower": 1689,
      "Ġstud": 1690,
      "osed": 1691,
      "way": 1692,
      "ĠPresident": 1693,
      "row": 1694,
      "ghan": 1695,
      "yst": 1696,
      "oman": 1697,
      "Ġcháº¥t": 1698,
      "Ġrun": 1699,
      "Ġear": 1700,
      "iÃª": 1701,
      "uth": 1702,
      "Ġvide": 1703,
      "ank": 1704,
      "Ġdanh": 1705,
      "ĠAb": 1706,
      "Ġ18": 1707,
      "Ġyou": 1708,
      "Ġthuá»Ļc": 1709,
      "Ġinvestig": 1710,
      "Ġ'": 1711,
      "įng": 1712,
      "Ġlá»Ńa": 1713,
      "Ġfire": 1714,
      "ting": 1715,
      "Ġback": 1716,
      "Ġnáº¿u": 1717,
      "ĠBush": 1718,
      "Ġ2008": 1719,
      "Ġsever": 1720,
      "Ġtold": 1721,
      "ĠComm": 1722,
      "ĠBr": 1723,
      "..": 1724,
      "Al": 1725,
      "con": 1726,
      "uc": 1727,
      "Ġstatement": 1728,
      "ious": 1729,
      "sh": 1730,
      "Ġoper": 1731,
      "Ġinj": 1732,
      "Ġexpl": 1733,
      "áº³ng": 1734,
      "Ġpresident": 1735,
      "ester": 1736,
      "ics": 1737,
      "ĠGeor": 1738,
      "gr": 1739,
      "ĠsÃ¡u": 1740,
      "ĠváºŃt": 1741,
      "ony": 1742,
      "ĠGo": 1743,
      "Ġ2005": 1744,
      "Ġarea": 1745,
      "Ġhoáº¡ch": 1746,
      "ĠX": 1747,
      "Ġbáº¡n": 1748,
      "£i": 1749,
      "ĠthÃºc": 1750,
      "ĠhÆ°á»Łng": 1751,
      "ene": 1752,
      "ĠrÃµ": 1753,
      "ble": 1754,
      "bama": 1755,
      "ĠAfghan": 1756,
      "Ġmonth": 1757,
      "ner": 1758,
      "Ġcá»Ļng": 1759,
      "ines": 1760,
      "ĠphÃ³ng": 1761,
      "tain": 1762,
      "ures": 1763,
      "Ġnum": 1764,
      "Ġmá»¥c": 1765,
      "Æ°á»£t": 1766,
      "earch": 1767,
      "Ġmany": 1768,
      "30": 1769,
      "Ġboth": 1770,
      "ĠphÃ¡n": 1771,
      "ments": 1772,
      "irect": 1773,
      "ĠÄĳáº·c": 1774,
      "Ġsch": 1775,
      "ised": 1776,
      "ĠbÃ¡n": 1777,
      "ĠgiÃºp": 1778,
      "Ġcá»Ńa": 1779,
      "Ġxuá»ĳng": 1780,
      "ured": 1781,
      "Ġtiáº¿t": 1782,
      "Ã£o": 1783,
      "Ġmá»įi": 1784,
      "ones": 1785,
      "Ã¹a": 1786,
      "ondon": 1787,
      "ee": 1788,
      "les": 1789,
      "erv": 1790,
      "ley": 1791,
      "Ġincluding": 1792,
      "ĠváºŃy": 1793,
      "rew": 1794,
      "akistan": 1795,
      "uá»ĵn": 1796,
      "ĠsÆ°": 1797,
      "ĠAir": 1798,
      "xt": 1799,
      "Ġtá»ĳt": 1800,
      "ĠÄĳÃłn": 1801,
      "rest": 1802,
      "Ġvá»įng": 1803,
      "áº·ng": 1804,
      "Ġplace": 1805,
      "Ġtake": 1806,
      "Ġfollow": 1807,
      "ĠBrit": 1808,
      "ĠÃĤ": 1809,
      "ĠsÃ¢n": 1810,
      "Ġngay": 1811,
      "ices": 1812,
      "ĠSy": 1813,
      "ĠNam": 1814,
      "Ġ25": 1815,
      "Ġleg": 1816,
      "Ġcontin": 1817,
      "ajor": 1818,
      "Ġbelie": 1819,
      "ative": 1820,
      "alk": 1821,
      "ĠCol": 1822,
      "Ġbá»ĳn": 1823,
      "Ġná»¯a": 1824,
      "ÃŃn": 1825,
      "NgÆ°á»Ŀi": 1826,
      "Ġannounced": 1827,
      "Ġac": 1828,
      "ather": 1829,
      "ms": 1830,
      "Ġocc": 1831,
      "Ġcáº£m": 1832,
      "ĠtÃŃch": 1833,
      "Ġsign": 1834,
      "Ġmang": 1835,
      "ĠdÃłi": 1836,
      "Ġour": 1837,
      "ility": 1838,
      "Ġ2004": 1839,
      "Ġlocal": 1840,
      "Ġháº¡n": 1841,
      "Ġthen": 1842,
      "Ġnguy": 1843,
      "ets": 1844,
      "Ġleast": 1845,
      "ives": 1846,
      "Ġtráº»": 1847,
      "Ġday": 1848,
      "Ġkháº£": 1849,
      "Ġshe": 1850,
      "Wh": 1851,
      "ave": 1852,
      "ĠbÃł": 1853,
      "ĠvÃ´": 1854,
      "Ġpublic": 1855,
      "Ġright": 1856,
      "urity": 1857,
      "Ġ14": 1858,
      "ĠEur": 1859,
      "Sau": 1860,
      "led": 1861,
      "inews": 1862,
      "ivers": 1863,
      "ries": 1864,
      "cu": 1865,
      "Ġent": 1866,
      "ĠÄĳÆ¡n": 1867,
      "ĠWorld": 1868,
      "á»·": 1869,
      "Ġwin": 1870,
      "Ġgiáº¿t": 1871,
      "esday": 1872,
      "Ġnguá»ĵn": 1873,
      "Ġrece": 1874,
      "ĠLondon": 1875,
      "Ġass": 1876,
      "Ġofficials": 1877,
      "ĠPalest": 1878,
      "Ġspokes": 1879,
      "mp": 1880,
      "Ġpoin": 1881,
      "Ġcháº¿": 1882,
      "ĠphÃ¢n": 1883,
      "line": 1884,
      "Ġduy": 1885,
      "Ġdiá»ĩn": 1886,
      "ĠdÆ°á»Ľi": 1887,
      "Ġkhá»§ng": 1888,
      "ĠSouth": 1889,
      "iáº¿m": 1890,
      "á»©a": 1891,
      "ĠBa": 1892,
      "ĠBar": 1893,
      "ey": 1894,
      "ĠÄĳá»©ng": 1895,
      "ĠchÃ¢u": 1896,
      "Ġdet": 1897,
      "ĠphÃºt": 1898,
      "ĠhÃ£": 1899,
      "Ġtai": 1900,
      "Ġgáº·p": 1901,
      "áº¡y": 1902,
      "ians": 1903,
      "Ìĥ": 1904,
      "Ġnhau": 1905,
      "Ġhá»Ĺ": 1906,
      "ĠthuáºŃt": 1907,
      "Ġ30": 1908,
      "Ġtá»ĳi": 1909,
      "ĠcÃ¡i": 1910,
      "Ġsm": 1911,
      "Ġown": 1912,
      "ĠGr": 1913,
      "Ġdep": 1914,
      "Kh": 1915,
      "min": 1916,
      "Ã¨": 1917,
      "ĠPakistan": 1918,
      "Ġnghiá»ĩm": 1919,
      "order": 1920,
      "Ġthuá»ĳc": 1921,
      "ĠÄĳáº·t": 1922,
      "Ġtráº¡ng": 1923,
      "Ġdue": 1924,
      "ĠCo": 1925,
      "Ġret": 1926,
      "ames": 1927,
      "ĠTÃ¢y": 1928,
      "Ġaccording": 1929,
      "Ġsays": 1930,
      "ful": 1931,
      "Ġkhai": 1932,
      "Ġphá»¥c": 1933,
      "ison": 1934,
      "ales": 1935,
      "Ġins": 1936,
      "ĠObama": 1937,
      "hip": 1938,
      "Ġcompany": 1939,
      "Ġsaying": 1940,
      "Ġva": 1941,
      "anc": 1942,
      "Ġrequ": 1943,
      "imes": 1944,
      "Ġ100": 1945,
      "ange": 1946,
      "Ġplan": 1947,
      "ission": 1948,
      "Ġmilitary": 1949,
      "Ġvideo": 1950,
      "On": 1951,
      "ĠmÃ¹a": 1952,
      "ĠMich": 1953,
      "osition": 1954,
      "Ġhead": 1955,
      "Ġappro": 1956,
      "ĠÃĤu": 1957,
      "ĠÄĳa": 1958,
      "ife": 1959,
      "read": 1960,
      "ĠdÃ¹ng": 1961,
      "Ġdied": 1962,
      "They": 1963,
      "Ġtrá»±c": 1964,
      "ĠBáº¯c": 1965,
      "Ġnews": 1966,
      "ĠgiÃłnh": 1967,
      "ross": 1968,
      "rat": 1969,
      "vent": 1970,
      "Ġbáº¯n": 1971,
      "Ġset": 1972,
      "Ġmáº·c": 1973,
      "ĠkÃ½": 1974,
      "elf": 1975,
      "ĠRep": 1976,
      "ĠRuss": 1977,
      "Ġweb": 1978,
      "Ġincre": 1979,
      "Ġreports": 1980,
      "Ġháº¡t": 1981,
      "ĠNational": 1982,
      "Ġstated": 1983,
      "Ġmá»Ĺi": 1984,
      "Ġserv": 1985,
      "ystem": 1986,
      "by": 1987,
      "ute": 1988,
      "ĠLu": 1989,
      "Ġthose": 1990,
      "ĠBe": 1991,
      "ety": 1992,
      "ĠNga": 1993,
      "ĠtÃ¹": 1994,
      "Ġ50": 1995,
      "Ġchild": 1996,
      "Ġmembers": 1997,
      "Ġkáº»": 1998,
      "ĠnguyÃªn": 1999,
      "ĠAd": 2000,
      "Ġneed": 2001,
      "Ġtá»ĭch": 2002,
      "Ġhiá»ĩp": 2003,
      "ĠnháºŃp": 2004,
      "Ã£i": 2005,
      "Ġused": 2006,
      "Ġseveral": 2007,
      "eh": 2008,
      "ĠÄĳÃ¡ng": 2009,
      "ately": 2010,
      "Ġop": 2011,
      "Ġget": 2012,
      "ĠGu": 2013,
      "Ġprodu": 2014,
      "ĠPhÃ¡p": 2015,
      "Ġreleased": 2016,
      "Ġchuáº©n": 2017,
      "ĠAfghanistan": 2018,
      "Ġbl": 2019,
      "Ġhour": 2020,
      "ĠcÃ¢u": 2021,
      "Ġdi": 2022,
      "ism": 2023,
      "Ġsub": 2024,
      "ael": 2025,
      "Ġáº": 2026,
      "ĠcÃº": 2027,
      "Ġháº¡i": 2028,
      "ĠmÃ´": 2029,
      "alf": 2030,
      "als": 2031,
      "ason": 2032,
      "af": 2033,
      "gg": 2034,
      "ĠPe": 2035,
      "Ġxá»Ń": 2036,
      "ants": 2037,
      "Ġposs": 2038,
      "ĠSun": 2039,
      "Ġshould": 2040,
      "ished": 2041,
      "Ġnext": 2042,
      "uthor": 2043,
      "Ġháº¿t": 2044,
      "stit": 2045,
      "áº·n": 2046,
      "Ġbuá»ķi": 2047,
      "ĠAustralian": 2048,
      "Ġremain": 2049,
      "Ġbr": 2050,
      "Ġchá»ĭ": 2051,
      "eneral": 2052,
      "icro": 2053,
      "usp": 2054,
      "ract": 2055,
      "istr": 2056,
      "arty": 2057,
      "Ġlong": 2058,
      "ĠtrÃŃch": 2059,
      "Ġoil": 2060,
      "Ġfive": 2061,
      "Ġcond": 2062,
      "emoc": 2063,
      "Ġext": 2064,
      "ĠÄĳoáº¡n": 2065,
      "ject": 2066,
      "ĠgiÃ¡m": 2067,
      "unch": 2068,
      "Ġchuyáº¿n": 2069,
      "Ġsusp": 2070,
      "ĠAs": 2071,
      "ĠÄĳá»Ļc": 2072,
      "Ġrecent": 2073,
      "Ġcalled": 2074,
      "Ġcol": 2075,
      "ĠthÃŃch": 2076,
      "omen": 2077,
      "Ã¬n": 2078,
      "Ġ13": 2079,
      "ĠNews": 2080,
      "ield": 2081,
      "Ġcamp": 2082,
      "Ġná»Ĺ": 2083,
      "Ġsystem": 2084,
      "ĠSch": 2085,
      "Ġbuild": 2086,
      "Ġincident": 2087,
      "ĠEurope": 2088,
      "50": 2089,
      "Ġcaus": 2090,
      "Ġmajor": 2091,
      "arge": 2092,
      "Ġinform": 2093,
      "ology": 2094,
      "ĠbÄĥng": 2095,
      "Ġmá»Ł": 2096,
      "Ġchung": 2097,
      "Ġopp": 2098,
      "bert": 2099,
      "ived": 2100,
      "Ġspec": 2101,
      "Ġallow": 2102,
      "ling": 2103,
      "ĠsÃºng": 2104,
      "loy": 2105,
      "Ġexpected": 2106,
      "VÃło": 2107,
      "Ġtháº©m": 2108,
      "Ġbáº£y": 2109,
      "enn": 2110,
      "Ġgame": 2111,
      "ĠCon": 2112,
      "Ġref": 2113,
      "á»±u": 2114,
      "Ġstill": 2115,
      "osp": 2116,
      "Ġtá»«ng": 2117,
      "Ġresult": 2118,
      "Ġ198": 2119,
      "Ġná»ķi": 2120,
      "Ġdel": 2121,
      "Ġfore": 2122,
      "Ġformer": 2123,
      "ĠnghÄ©a": 2124,
      "Há»į": 2125,
      "ared": 2126,
      "ock": 2127,
      "ĠhÆ°á»Ľng": 2128,
      "Ġthese": 2129,
      "Ġcháº¥p": 2130,
      "Ġpolit": 2131,
      "Ġhá»ıi": 2132,
      "mber": 2133,
      "Äĳ": 2134,
      "ann": 2135,
      "Ġnumber": 2136,
      "ĠÄĳáº£o": 2137,
      "Ġdirect": 2138,
      "ĠLan": 2139,
      "ĠEng": 2140,
      "ĠNháºŃt": 2141,
      "vious": 2142,
      "ij": 2143,
      "tal": 2144,
      "Ġtest": 2145,
      "Ġcity": 2146,
      "Ġbus": 2147,
      "Ġheld": 2148,
      "Ġdif": 2149,
      "Ġdá»±ng": 2150,
      "Ġhelp": 2151,
      "However": 2152,
      "ĠÄĳáº¡t": 2153,
      "Ġinternational": 2154,
      "Ġanother": 2155,
      "ird": 2156,
      "á»Ńi": 2157,
      "ĠChr": 2158,
      "uman": 2159,
      "Ġorgan": 2160,
      "Ġhá»ĵi": 2161,
      "kh": 2162,
      "Ġcent": 2163,
      "ĠbÃłn": 2164,
      "Ġalleg": 2165,
      "oy": 2166,
      "uel": 2167,
      "Ġbáº¡i": 2168,
      "Æ°ng": 2169,
      "ĠDav": 2170,
      "ipedia": 2171,
      "TC": 2172,
      "ness": 2173,
      "Ġvery": 2174,
      "ins": 2175,
      "Ġfamil": 2176,
      "Ġ17": 2177,
      "ular": 2178,
      "Ġchá»ĭu": 2179,
      "ĠbÃ£o": 2180,
      "ened": 2181,
      "ator": 2182,
      "There": 2183,
      "iforn": 2184,
      "á»ĩt": 2185,
      "Ġtak": 2186,
      "ĠcÆ¡n": 2187,
      "Ġninh": 2188,
      "ĠvÄĥn": 2189,
      "Ġcháº·n": 2190,
      "Ġpháº¡t": 2191,
      "ourn": 2192,
      "Ġkhoa": 2193,
      "view": 2194,
      "ifornia": 2195,
      "At": 2196,
      "ired": 2197,
      "Ġsix": 2198,
      "Ġmark": 2199,
      "Ġmake": 2200,
      "Ġtook": 2201,
      "ĠMÆ°á»Ŀi": 2202,
      "Ġ24": 2203,
      "ands": 2204,
      "ĠcÃ¡": 2205,
      "Ġvict": 2206,
      "Ġgá»Ńi": 2207,
      "ĠkhÃ³": 2208,
      "urs": 2209,
      "Ġlá»£i": 2210,
      "ĠScotland": 2211,
      "ospital": 2212,
      "Ġdays": 2213,
      "ĠSec": 2214,
      "ĠPar": 2215,
      "á»ĵng": 2216,
      "ĠÃ¡p": 2217,
      "Ġsit": 2218,
      "Ġdá»į": 2219,
      "Ġevery": 2220,
      "cient": 2221,
      "its": 2222,
      "ĠxÃ¢y": 2223,
      "Ġcountries": 2224,
      "Ġdam": 2225,
      "Ġgiáº£": 2226,
      "ĠÄĲáº¡i": 2227,
      "ĠMcC": 2228,
      "Ġlá»ĩnh": 2229,
      "Ġmain": 2230,
      "Ġperson": 2231,
      "Ġwater": 2232,
      "Ġnháº±m": 2233,
      "Ġrecord": 2234,
      "Ġ[": 2235,
      "ĠÄĳÃ´ng": 2236,
      "Ġlike": 2237,
      "Ġtá»Ŀ": 2238,
      "ĠHá»Ļi": 2239,
      "ternet": 2240,
      "Ġelection": 2241,
      "Cu": 2242,
      "ĠhÃ³a": 2243,
      "Ġpress": 2244,
      "Ġtá»·": 2245,
      "Ġ16": 2246,
      "Ġissu": 2247,
      "ĠRe": 2248,
      "Ġhá»įp": 2249,
      "ages": 2250,
      "ĠCalifornia": 2251,
      "pe": 2252,
      "Ġlá»ĭch": 2253,
      "ĠCent": 2254,
      "Ġsao": 2255,
      "ull": 2256,
      "Ġuse": 2257,
      "Ġtá»ĳ": 2258,
      "Ġtinh": 2259,
      "Ġca": 2260,
      "Ġná»Ļi": 2261,
      "Ġwon": 2262,
      "Ġdri": 2263,
      "Ġstr": 2264,
      "Ġarrest": 2265,
      "Ġattem": 2266,
      "ized": 2267,
      "bo": 2268,
      "bia": 2269,
      "ror": 2270,
      "year": 2271,
      "á»¯u": 2272,
      "Ġ2003": 2273,
      "Ġinvol": 2274,
      "ĠPrime": 2275,
      "Ġtháº£o": 2276,
      "Ġsent": 2277,
      "Ġláº¡c": 2278,
      "ĠCl": 2279,
      "ĠMr": 2280,
      "ĠHouse": 2281,
      "ĠthuáºŃn": 2282,
      "ournal": 2283,
      "yan": 2284,
      "Ġhá»¯u": 2285,
      "Ġmá»ı": 2286,
      "ĠkÃ©": 2287,
      "Ġdá»¥c": 2288,
      "ĠAm": 2289,
      "ĠNÄĥm": 2290,
      "riday": 2291,
      "Ġmá»ĳi": 2292,
      "ĠchÃ¡y": 2293,
      "Ġgáº¯ng": 2294,
      "Ġnhá»ı": 2295,
      "ĠCá»Ļng": 2296,
      "Ġdevel": 2297,
      "apan": 2298,
      "ÄĲÃ¢y": 2299,
      "âĢĻ": 2300,
      "Ġmeet": 2301,
      "ĠAnd": 2302,
      "Ġdevelop": 2303,
      "gency": 2304,
      "Ġsá»©c": 2305,
      "ĠchÆ¡i": 2306,
      "uyáº¿t": 2307,
      "ĠDÃ¢n": 2308,
      "Ġviol": 2309,
      "ria": 2310,
      "uck": 2311,
      "Ġhu": 2312,
      "Ġpri": 2313,
      "atur": 2314,
      "ĠHai": 2315,
      "ĠngÄĥn": 2316,
      "Ġphim": 2317,
      "ĠhÃ£ng": 2318,
      "Ġmy": 2319,
      "ington": 2320,
      "ĠTÆ°": 2321,
      "Ġcontr": 2322,
      "esterday": 2323,
      "Ġpass": 2324,
      "Ġfil": 2325,
      "ĠHá»ĵi": 2326,
      "ified": 2327,
      "ĠsoÃ¡t": 2328,
      "emocrat": 2329,
      "ipp": 2330,
      "Ġcrit": 2331,
      "ĠsÃ³ng": 2332,
      "ĠkÃªu": 2333,
      "ĠMon": 2334,
      "ĠFriday": 2335,
      "Ġlaunch": 2336,
      "gy": 2337,
      "work": 2338,
      "Ġthanh": 2339,
      "Ġhá»§y": 2340,
      "Ġhalf": 2341,
      "Ġrá»Ļng": 2342,
      "ĠBBC": 2343,
      "ĠParty": 2344,
      "artment": 2345,
      "ĠAmerican": 2346,
      "Ġcourt": 2347,
      "Ġcháº¡y": 2348,
      "Ġwant": 2349,
      "Ġnháº¡c": 2350,
      "Ġeven": 2351,
      "used": 2352,
      "ĠÄĲá»©c": 2353,
      "ody": 2354,
      "Ġparty": 2355,
      "Ġbro": 2356,
      "ert": 2357,
      "Ġpower": 2358,
      "Ġrest": 2359,
      "ĠChá»§": 2360,
      "20": 2361,
      "áº¡p": 2362,
      "Ġpháº©m": 2363,
      "áº¯m": 2364,
      "ĠEl": 2365,
      "ĠWikipedia": 2366,
      "Ġoccur": 2367,
      "ĠgÃ³": 2368,
      "Ġkhiáº¿n": 2369,
      "ĠSen": 2370,
      "ĠSÃ¡u": 2371,
      "áº§y": 2372,
      "ided": 2373,
      "ief": 2374,
      "arlier": 2375,
      "aign": 2376,
      "Ġtá»©c": 2377,
      "Ġai": 2378,
      "Ġsame": 2379,
      "Ġput": 2380,
      "Ġkiáº¿m": 2381,
      "áºŃm": 2382,
      "urther": 2383,
      "the": 2384,
      "Ġdoanh": 2385,
      "thern": 2386,
      "iversity": 2387,
      "Ġthiáº¿u": 2388,
      "Ġblo": 2389,
      "Ġlá»Ļ": 2390,
      "ĠlÆ°u": 2391,
      "Ġdem": 2392,
      "Ġknown": 2393,
      "¦y": 2394,
      "á»¦y": 2395,
      "Ġnational": 2396,
      "á»ıng": 2397,
      "ended": 2398,
      "Ġconfir": 2399,
      "Ġtaken": 2400,
      "SA": 2401,
      "iver": 2402,
      "ys": 2403,
      "ĠlÃŃnh": 2404,
      "ĠtrÄĥm": 2405,
      "Ġphá»ıng": 2406,
      "ĠInternational": 2407,
      "ĠnghiÃªm": 2408,
      "ĠIndones": 2409,
      "pr": 2410,
      "Ġauthor": 2411,
      "erman": 2412,
      "ĠdÃłnh": 2413,
      "Ġask": 2414,
      "ept": 2415,
      "Ġprevious": 2416,
      "ĠBritish": 2417,
      "ani": 2418,
      "idence": 2419,
      "ĠNorth": 2420,
      "Ġngoáº¡i": 2421,
      "ĠsÆ¡": 2422,
      "Ġviáº¿t": 2423,
      "Ġlater": 2424,
      "rem": 2425,
      "Ġtry": 2426,
      "ese": 2427,
      "omp": 2428,
      "olice": 2429,
      "ained": 2430,
      "soft": 2431,
      "Ġsecurity": 2432,
      "ĠÄĳe": 2433,
      "ĠbiÃªn": 2434,
      "ĠkÃŃch": 2435,
      "els": 2436,
      "chn": 2437,
      "ĠchÃº": 2438,
      "Ġwomen": 2439,
      "ĠMan": 2440,
      "urch": 2441,
      "ĠUN": 2442,
      "ĠThá»§": 2443,
      "gin": 2444,
      "ĠbÃ©": 2445,
      "Ġquay": 2446,
      "Ġadv": 2447,
      "gram": 2448,
      "Ġinformation": 2449,
      "til": 2450,
      "Ġcase": 2451,
      "Ġaff": 2452,
      "orning": 2453,
      "arm": 2454,
      "ĠngÃ´i": 2455,
      "ection": 2456,
      "Ġ40": 2457,
      "As": 2458,
      "ĠÄĳÃ¡": 2459,
      "Ġhome": 2460,
      "ense": 2461,
      "ases": 2462,
      "Ġquáº£n": 2463,
      "ĠPro": 2464,
      "áº·m": 2465,
      "ops": 2466,
      "Ġyáº¿u": 2467,
      "Ġkhoáº£n": 2468,
      "icrosoft": 2469,
      "Ġed": 2470,
      "Ġcáº¥m": 2471,
      "Ġhy": 2472,
      "Ġpop": 2473,
      "Ġcharg": 2474,
      "ĠtrÃ¡i": 2475,
      "Ġdáº·m": 2476,
      "Ġgu": 2477,
      "ĠPa": 2478,
      "urg": 2479,
      "ĠNgh": 2480,
      "ought": 2481,
      "Ġchuyá»ĩn": 2482,
      "ĠMichael": 2483,
      "cess": 2484,
      "Ġ0": 2485,
      "Ġest": 2486,
      "ĠcÃ¡nh": 2487,
      "ĠthÃ¢n": 2488,
      "Ġbiáº¿n": 2489,
      "Ġtrans": 2490,
      "ury": 2491,
      "raft": 2492,
      "ounc": 2493,
      "ored": 2494,
      "Ġdisc": 2495,
      "retary": 2496,
      "ĠRepublic": 2497,
      "Ġtáº£": 2498,
      "Ġmen": 2499,
      "Ġmove": 2500,
      "ĠchuyÃªn": 2501,
      "Ġfail": 2502,
      "Ġvá»«a": 2503,
      "ĠJapan": 2504,
      "ĠChÃŃnh": 2505,
      "ĠWikinews": 2506,
      "ham": 2507,
      "ıa": 2508,
      "ĠcÆ°": 2509,
      "Ġcame": 2510,
      "Ġtháº¥t": 2511,
      "Ġtháº§n": 2512,
      "Ġháº¡": 2513,
      "Ġmet": 2514,
      "ico": 2515,
      "Ġreach": 2516,
      "cept": 2517,
      "Ġnghá»ĩ": 2518,
      "Ġleft": 2519,
      "Ġpolic": 2520,
      "á»Ľm": 2521,
      "conom": 2522,
      "Ġcand": 2523,
      "ĠÄĳá»§": 2524,
      "Ġsim": 2525,
      "Ġmedia": 2526,
      "Ġchá»ĳi": 2527,
      "ĠngÃ¢n": 2528,
      "let": 2529,
      "Ġsaf": 2530,
      "utes": 2531,
      "Ġwithout": 2532,
      "aged": 2533,
      "ĠOr": 2534,
      "soci": 2535,
      "Ġsá»Ńa": 2536,
      "Ġcrash": 2537,
      "ĠDavid": 2538,
      "Ġphi": 2539,
      "ĠCÃ´ng": 2540,
      "Ġcampaign": 2541,
      "ursday": 2542,
      "Viá»ĩc": 2543,
      "Ġcá»±u": 2544,
      "Ġnhanh": 2545,
      "ĠChina": 2546,
      "Ġgoing": 2547,
      "Ġpartic": 2548,
      "aza": 2549,
      "Ġdecision": 2550,
      "arliam": 2551,
      "Ġcandid": 2552,
      "Ġtá»ĳc": 2553,
      "Ġnáº±m": 2554,
      "Ġtrá»¥": 2555,
      "Ġ21": 2556,
      "Ġ27": 2557,
      "ivil": 2558,
      "ChÃŃnh": 2559,
      "Ġbomb": 2560,
      "arliament": 2561,
      "After": 2562,
      "ior": 2563,
      "ĠÆ°á»Ľc": 2564,
      "Ġsá»Ľm": 2565,
      "Ġhospital": 2566,
      "Ġprom": 2567,
      "Ġway": 2568,
      "itions": 2569,
      "ember": 2570,
      "Ġyesterday": 2571,
      "Ġwebs": 2572,
      "ending": 2573,
      "Ġbill": 2574,
      "Ġmiss": 2575,
      "Ġká»·": 2576,
      "Ġob": 2577,
      "ĠSan": 2578,
      "ott": 2579,
      "Ġuntil": 2580,
      "Ġevent": 2581,
      "Ġcommun": 2582,
      "Ġattempt": 2583,
      "ves": 2584,
      "ĠcáºŃp": 2585,
      "Ġbáº¡o": 2586,
      "Ġpast": 2587,
      "Ġpost": 2588,
      "ĠrÃłng": 2589,
      "ĠSw": 2590,
      "ĠBáº£n": 2591,
      "Ġleader": 2592,
      "Ġfinal": 2593,
      "Ġeffect": 2594,
      "iÃªng": 2595,
      "Ġschool": 2596,
      "for": 2597,
      "lor": 2598,
      "ĠtÆ°á»£ng": 2599,
      "Ġbinh": 2600,
      "Ġnáº·ng": 2601,
      "Ġfurther": 2602,
      "igg": 2603,
      "ĠDemocrat": 2604,
      "Ġproble": 2605,
      "Ġchildren": 2606,
      "ĠbÃły": 2607,
      "ĠÄĳoÃ¡n": 2608,
      "iber": 2609,
      "¤n": 2610,
      "Ġvis": 2611,
      "Ġhear": 2612,
      "ara": 2613,
      "ĠphiÃªn": 2614,
      "Ãºi": 2615,
      "áº«u": 2616,
      "ffic": 2617,
      "Cuá»Ļc": 2618,
      "mit": 2619,
      "ĠbÃ¡c": 2620,
      "ĠlÃ¡i": 2621,
      "reen": 2622,
      "Ġtro": 2623,
      "á»¯a": 2624,
      "Ġdead": 2625,
      "ĠThursday": 2626,
      "Ġearly": 2627,
      "Ġgiam": 2628,
      "une": 2629,
      "ĠKing": 2630,
      "Ġexper": 2631,
      "Ġmua": 2632,
      "Cáº£nh": 2633,
      "Khi": 2634,
      "Ġthreat": 2635,
      "ĠrÆ¡i": 2636,
      "ĠriÃªng": 2637,
      "ĠCar": 2638,
      "ĠSe": 2639,
      "ĠNA": 2640,
      "Ġeconom": 2641,
      "ĠWh": 2642,
      "Ġ196": 2643,
      "Ġjournal": 2644,
      "ĠGeorg": 2645,
      "Ġdá»įa": 2646,
      "She": 2647,
      "Ġcá»ķ": 2648,
      "ĠÄĳáº£m": 2649,
      "ĠtrÃ²": 2650,
      "Ġkm": 2651,
      "itte": 2652,
      "Ġfact": 2653,
      "ĠÄĳá»Ŀi": 2654,
      "ĠHam": 2655,
      "Ġmuch": 2656,
      "Ġprotest": 2657,
      "Ġmonths": 2658,
      "Ġreceived": 2659,
      "Sá»±": 2660,
      "Ġtáº£i": 2661,
      "Ġnight": 2662,
      "Ġwhe": 2663,
      "Ġregion": 2664,
      "Ġ2010": 2665,
      "ĠkÃ©o": 2666,
      "CÃ³": 2667,
      "cent": 2668,
      "ĳng": 2669,
      "ĠvÆ°á»£t": 2670,
      "Ġland": 2671,
      "ĠMus": 2672,
      "ĠJan": 2673,
      "ĠThÃ¡i": 2674,
      "Ġspe": 2675,
      "uclear": 2676,
      "Ġexplos": 2677,
      "Ġcontinu": 2678,
      "oon": 2679,
      "ploy": 2680,
      "tic": 2681,
      "Ġtel": 2682,
      "Ġcáº£i": 2683,
      "Ġhiá»ĥm": 2684,
      "Ġlarge": 2685,
      "Ġpresent": 2686,
      "Ġrul": 2687,
      "ention": 2688,
      "thing": 2689,
      "ĠDep": 2690,
      "Ġprogram": 2691,
      "cial": 2692,
      "oe": 2693,
      "Ġvong": 2694,
      "Ġwithin": 2695,
      "Ġprop": 2696,
      "ĠâĢĶ": 2697,
      "ready": 2698,
      "my": 2699,
      "na": 2700,
      "ware": 2701,
      "Ġhuy": 2702,
      "ering": 2703,
      "Ġchá»įn": 2704,
      "ĠTu": 2705,
      "rown": 2706,
      "Ġpolitical": 2707,
      "Bá»Ļ": 2708,
      "lim": 2709,
      "ually": 2710,
      "Ġlarg": 2711,
      "Ġmorning": 2712,
      "orp": 2713,
      "though": 2714,
      "Ġdoes": 2715,
      "ĠOn": 2716,
      "ards": 2717,
      "ĠÄĲá»Ļ": 2718,
      "ĠÄĲÃ´ng": 2719,
      "Ġdisp": 2720,
      "Ġactiv": 2721,
      "Ġáº¤n": 2722,
      "Hai": 2723,
      "crib": 2724,
      "mark": 2725,
      "uation": 2726,
      "xim": 2727,
      "ĠtÆ°á»Łng": 2728,
      "Ġsold": 2729,
      "Ġhit": 2730,
      "Ġlife": 2731,
      "reed": 2732,
      "ederal": 2733,
      "Ġfew": 2734,
      "ĠCup": 2735,
      "á»±a": 2736,
      "ĠWales": 2737,
      "Ġlá»ħ": 2738,
      "ĠEd": 2739,
      "Ġshot": 2740,
      "oney": 2741,
      "Ġhowever": 2742,
      "ats": 2743,
      "esp": 2744,
      "Ġthoáº¡i": 2745,
      "ouncil": 2746,
      "aff": 2747,
      "com": 2748,
      "side": 2749,
      "Ġcam": 2750,
      "Ġpay": 2751,
      "Ġinst": 2752,
      "lex": 2753,
      "ĠPhi": 2754,
      "Ġforces": 2755,
      "Ġgiá»ĳng": 2756,
      "Ġcurrently": 2757,
      "Ġinvestigation": 2758,
      "Ġinjured": 2759,
      "Ġcaused": 2760,
      "ĠMonday": 2761,
      "Wik": 2762,
      "ait": 2763,
      "ĠQ": 2764,
      "ĠniÃªn": 2765,
      "inal": 2766,
      "ĠnhÃ¬n": 2767,
      "Ġrá»Ŀi": 2768,
      "ĠHiá»ĩp": 2769,
      "ĠxÃ£": 2770,
      "Ġalready": 2771,
      "duct": 2772,
      "Ġmatch": 2773,
      "ĠnháºŃt": 2774,
      "Ġfac": 2775,
      "ĠBáº£y": 2776,
      "Ġ22": 2777,
      "etwork": 2778,
      "lymp": 2779,
      "rain": 2780,
      "ĠÄĳá»ĭch": 2781,
      "ĠState": 2782,
      "Ġvote": 2783,
      "ĠEuropean": 2784,
      "ĠChrist": 2785,
      "form": 2786,
      "Ġhow": 2787,
      "era": 2788,
      "Ġpo": 2789,
      "alth": 2790,
      "Ġsugg": 2791,
      "ization": 2792,
      "ĠIsraeli": 2793,
      "Ġadded": 2794,
      "Ġconsid": 2795,
      "Ġtá»īnh": 2796,
      "Ġhours": 2797,
      "Ġsuggest": 2798,
      "Ġcá»¥": 2799,
      "Ġav": 2800,
      "Ġbá»©c": 2801,
      "Ãłm": 2802,
      "ĠtrÃ¬": 2803,
      "Ġbeh": 2804,
      "Ġ23": 2805,
      "Ġstand": 2806,
      "pped": 2807,
      "eph": 2808,
      "ĠUniversity": 2809,
      "Ġchiáº¿m": 2810,
      "Ġterror": 2811,
      "ĠPalestine": 2812,
      "ĠSunday": 2813,
      "tar": 2814,
      "Ġcá»±c": 2815,
      "Ġhuman": 2816,
      "iness": 2817,
      "Ġflo": 2818,
      "Ġfind": 2819,
      "ĠBra": 2820,
      "ĠHe": 2821,
      "raw": 2822,
      "ÄĲá»Ļi": 2823,
      "ogle": 2824,
      "ĠMarch": 2825,
      "Ġrespons": 2826,
      "Ġknow": 2827,
      "Ġbuilding": 2828,
      "ĠSant": 2829,
      "Ġquest": 2830,
      "Ġtá»ĵ": 2831,
      "olution": 2832,
      "ĠOlymp": 2833,
      "Ġquanh": 2834,
      "Ġeffort": 2835,
      "Ġoccurred": 2836,
      "ball": 2837,
      "eep": 2838,
      "mar": 2839,
      "ĠÃ¢m": 2840,
      "Ġtalk": 2841,
      "Ġthink": 2842,
      "ĠÄĳÃŃch": 2843,
      "Ġdest": 2844,
      "iron": 2845,
      "Ġsuá»ĳt": 2846,
      "Ġdescrib": 2847,
      "Ġspokesman": 2848,
      "ĠIndonesia": 2849,
      "FA": 2850,
      "ban": 2851,
      "ler": 2852,
      "ĠÄĳÃ¡m": 2853,
      "ĠsÃ³": 2854,
      "Ġháº§u": 2855,
      "ĠrÃºt": 2856,
      "que": 2857,
      "ĠGerman": 2858,
      "Ġrace": 2859,
      "lob": 2860,
      "Ġminister": 2861,
      "cast": 2862,
      "ium": 2863,
      "ĠtÃ¡m": 2864,
      "Ġthiá»ĩn": 2865,
      "ars": 2866,
      "Ġeach": 2867,
      "Ġhaving": 2868,
      "Ġalong": 2869,
      "ĠUTC": 2870,
      "rug": 2871,
      "Ġpoints": 2872,
      "Ġcre": 2873,
      "Ġhand": 2874,
      "Ġche": 2875,
      "Ġchia": 2876,
      "Ġchiá»ģu": 2877,
      "Ġtrain": 2878,
      "ĠAt": 2879,
      "ĠAng": 2880,
      "Ġemer": 2881,
      "Ġearlier": 2882,
      "illiam": 2883,
      "Ġthá»Ń": 2884,
      "lah": 2885,
      "Ġjud": 2886,
      "ĠngoÃ¡i": 2887,
      "Ġtuyá»ĥn": 2888,
      "Ġattacks": 2889,
      "Ġfollowing": 2890,
      "Ġsmall": 2891,
      "ford": 2892,
      "less": 2893,
      "Ġcáº¯t": 2894,
      "Ġbáº£ng": 2895,
      "Ġtruy": 2896,
      "edn": 2897,
      "Ġgh": 2898,
      "Ġxáº¿": 2899,
      "ĠUK": 2900,
      "aks": 2901,
      "ape": 2902,
      "áº©y": 2903,
      "ashington": 2904,
      "Ġaddition": 2905,
      "Ġarrested": 2906,
      "bour": 2907,
      "Ġnuclear": 2908,
      "ĠháºŃu": 2909,
      "ĠmÃ´n": 2910,
      "ĠkÃª": 2911,
      "ĠgÃ¡i": 2912,
      "Ġngá»Ŀ": 2913,
      "ĠMay": 2914,
      "ĠGaza": 2915,
      "ĠRoman": 2916,
      "aper": 2917,
      "ights": 2918,
      "ĠInternet": 2919,
      "ĠPhil": 2920,
      "Ġforeign": 2921,
      "Ġthird": 2922,
      "Ġbre": 2923,
      "Ġwent": 2924,
      "ask": 2925,
      "Ġxung": 2926,
      "ĠWest": 2927,
      "istry": 2928,
      "ĠJu": 2929,
      "Ġdeb": 2930,
      "Ġyet": 2931,
      "Ġlá»Ĺi": 2932,
      "Ġminutes": 2933,
      "Ġconfirmed": 2934,
      "ittee": 2935,
      "Tá»ķng": 2936,
      "Ġtreat": 2937,
      "ĠthÄĥm": 2938,
      "Ġsite": 2939,
      "Ġnhiá»ĩt": 2940,
      "Ġfoot": 2941,
      "Ġtop": 2942,
      "ĠBl": 2943,
      "Ġcomment": 2944,
      "Ġloáº¡t": 2945,
      "ession": 2946,
      "Ġgoal": 2947,
      "Ġtuyáº¿n": 2948,
      "ĠAfric": 2949,
      "wards": 2950,
      "ĠGeorge": 2951,
      "Ġalleged": 2952,
      "ednesday": 2953,
      "á»Ľi": 2954,
      "ĠtháºŃt": 2955,
      "Ġcháº¯n": 2956,
      "Ġfar": 2957,
      "Ġngáº¡i": 2958,
      "ults": 2959,
      "ĠEn": 2960,
      "Ġhealth": 2961,
      "ĠThÆ°á»£ng": 2962,
      "ÄĲiá»ģu": 2963,
      "Ġmiles": 2964,
      "Ġopen": 2965,
      "Ġfamily": 2966,
      "Ġinvolved": 2967,
      "aturday": 2968,
      "Ġwebsite": 2969,
      "Gi": 2970,
      "Máº·c": 2971,
      "NÃ³": 2972,
      "to": 2973,
      "ya": 2974,
      "Ġdon": 2975,
      "aster": 2976,
      "ĠBan": 2977,
      "Ġgiven": 2978,
      "Ġthá»ıa": 2979,
      "ĠWashington": 2980,
      "ague": 2981,
      "ĠTháº¿": 2982,
      "Ġrock": 2983,
      "Náº¿u": 2984,
      "tle": 2985,
      "za": 2986,
      "ĥn": 2987,
      "ini": 2988,
      "ĠMark": 2989,
      "amb": 2990,
      "thers": 2991,
      "roy": 2992,
      "Ġstri": 2993,
      "ĠWednesday": 2994,
      "Æ°Æ¡i": 2995,
      "Ġdeal": 2996,
      "ially": 2997,
      "Ġemploy": 2998,
      "Ġstarted": 2999,
      "Ġpossible": 3000,
      "ĠÄĥn": 3001,
      "ĠÄĳá»Ļt": 3002,
      "Ġbá»Ŀ": 3003,
      "Ġmed": 3004,
      "Ġchange": 3005,
      "ĠMicrosoft": 3006,
      "rench": 3007,
      "Ġtax": 3008,
      "Ġprison": 3009,
      "Ġhá»ıa": 3010,
      "ĠFrance": 3011,
      "ĠEngland": 3012,
      "go": 3013,
      "á»Ĺi": 3014,
      "ĠtÃŃn": 3015,
      "Ġcost": 3016,
      "Ġbiá»ĩn": 3017,
      "Ġháº¡ng": 3018,
      "ino": 3019,
      "ĠSaturday": 3020,
      "ago": 3021,
      "Ġsee": 3022,
      "Ġaccident": 3023,
      "Ġroad": 3024,
      "Ġclaimed": 3025,
      "For": 3026,
      "Vá»¥": 3027,
      "ĠtÃ´n": 3028,
      "ĠbÆ°á»Ľc": 3029,
      "Ġláº¥y": 3030,
      "ature": 3031,
      "ald": 3032,
      "Ġtown": 3033,
      "Ġ2000": 3034,
      "Ġlevel": 3035,
      "Ġlost": 3036,
      "Ġgood": 3037,
      "Ġable": 3038,
      "Ġtechn": 3039,
      "linton": 3040,
      "ead": 3041,
      "ĠtÃ¡n": 3042,
      "ĠcÄĥn": 3043,
      "Ġsl": 3044,
      "Ġluy": 3045,
      "Ġdu": 3046,
      "Ġold": 3047,
      "Ġ197": 3048,
      "Ġmember": 3049,
      "Ġcontrol": 3050,
      "viron": 3051,
      "Ġá»¦y": 3052,
      "ĠcáºŃn": 3053,
      "Ġcivil": 3054,
      "Ġaway": 3055,
      "Ġball": 3056,
      "ĠmÃ´i": 3057,
      "ari": 3058,
      "ĠHow": 3059,
      "vered": 3060,
      "Ġresearch": 3061,
      "ically": 3062,
      "Ġcapital": 3063,
      "...": 3064,
      "ĠRussian": 3065,
      "Ġasked": 3066,
      "craft": 3067,
      "iers": 3068,
      "now": 3069,
      "Ġtiá»ĥu": 3070,
      "Ġcare": 3071,
      "Ġtráº¥n": 3072,
      "Ġdáº¥u": 3073,
      "Ġbegan": 3074,
      "Ġxa": 3075,
      "cement": 3076,
      "Ġstop": 3077,
      "Ġcome": 3078,
      "Ġshort": 3079,
      "avy": 3080,
      "ĠUnion": 3081,
      "Ġcompet": 3082,
      "Ġinterview": 3083,
      "ron": 3084,
      "ris": 3085,
      "uary": 3086,
      "á»¡": 3087,
      "Ġclear": 3088,
      "ĠÄĳÄĥng": 3089,
      "ĠÄĳáº§y": 3090,
      "atter": 3091,
      "Ġothers": 3092,
      "raph": 3093,
      "ulation": 3094,
      "Ġlook": 3095,
      "ĠQue": 3096,
      "ecut": 3097,
      "Ġclaims": 3098,
      "ĠDepartment": 3099,
      "ĠTuesday": 3100,
      "vironment": 3101,
      "Mr": 3102,
      "Ġu": 3103,
      "Ġcrew": 3104,
      "ĠÄĳÃ¡p": 3105,
      "Ġbillion": 3106,
      "ĠlÃ¡": 3107,
      "ĠSer": 3108,
      "lect": 3109,
      "ĠTex": 3110,
      "Ġhapp": 3111,
      "ĠFor": 3112,
      "Ġ2009": 3113,
      "sec": 3114,
      "Ġappear": 3115,
      "oint": 3116,
      "lam": 3117,
      "yn": 3118,
      "Ġtháº¥p": 3119,
      "Ġsuy": 3120,
      "Ġvir": 3121,
      "Ġkháº³ng": 3122,
      "asse": 3123,
      "ĠMex": 3124,
      "agh": 3125,
      "ĠChÃ¢u": 3126,
      "Ġdocu": 3127,
      "epend": 3128,
      "ovember": 3129,
      "Ġstrong": 3130,
      "ĠPaul": 3131,
      "zil": 3132,
      "Ġtarg": 3133,
      "Ġmar": 3134,
      "ĠPer": 3135,
      "ĠDo": 3136,
      "ĠWilliam": 3137,
      "ĠJack": 3138,
      "KhÃ´ng": 3139,
      "ĠNghá»ĭ": 3140,
      "ĠGeorgia": 3141,
      "If": 3142,
      "lish": 3143,
      "oa": 3144,
      "par": 3145,
      "ten": 3146,
      "uch": 3147,
      "ĠcÃ£i": 3148,
      "Ġná»Ńa": 3149,
      "Ġsour": 3150,
      "ĠlÆ°Æ¡ng": 3151,
      "Ġdung": 3152,
      "Ġfree": 3153,
      "ĠCity": 3154,
      "idd": 3155,
      "ĠNovember": 3156,
      "Ġseason": 3157,
      "iving": 3158,
      "Ġservice": 3159,
      "Ġvictim": 3160,
      "Ġcritic": 3161,
      "ĠJanuary": 3162,
      "oved": 3163,
      "ront": 3164,
      "Ġthuyáº¿t": 3165,
      "Ġbá»ķ": 3166,
      "ana": 3167,
      "Ġchá»Ł": 3168,
      "ĠSal": 3169,
      "Ġread": 3170,
      "Ġtá»ı": 3171,
      "Ġsang": 3172,
      "Ġstre": 3173,
      "Ġweap": 3174,
      "Ġworking": 3175,
      "Ġrights": 3176,
      "10": 3177,
      "ĠÄĳÃªm": 3178,
      "enal": 3179,
      "Æ°á»¡": 3180,
      "Ġkháº¯p": 3181,
      "ĠngÃłnh": 3182,
      "Ġphong": 3183,
      "oud": 3184,
      "ĠMil": 3185,
      "ĠNor": 3186,
      "Ġareas": 3187,
      "Ġthuáº¿": 3188,
      "ikely": 3189,
      "Ġaction": 3190,
      "ĠchÃŃn": 3191,
      "Ġbelieved": 3192,
      "Ġbusiness": 3193,
      "ef": 3194,
      "ober": 3195,
      "Ġorder": 3196,
      "áºµ": 3197,
      "Ġcáº¡nh": 3198,
      "Ġlao": 3199,
      "ĠlÃ¢u": 3200,
      "ĠmÆ°Æ¡i": 3201,
      "onse": 3202,
      "ĠkhÄĥn": 3203,
      "ĠBel": 3204,
      "Ġstates": 3205,
      "ĠEU": 3206,
      "Ġpeace": 3207,
      "ize": 3208,
      "ĠPalestin": 3209,
      "Ġdiffer": 3210,
      "ĠBrazil": 3211,
      "men": 3212,
      "Ġless": 3213,
      "Ġma": 3214,
      "Ġcháº¯c": 3215,
      "ides": 3216,
      "Ġredu": 3217,
      "ĠKore": 3218,
      "Ġprocess": 3219,
      "Ġstudy": 3220,
      "Ġtroops": 3221,
      "áºµn": 3222,
      "Ġtre": 3223,
      "Ġthuyá»ģn": 3224,
      "reland": 3225,
      "Ġfight": 3226,
      "ĠBla": 3227,
      "urned": 3228,
      "ĠTe": 3229,
      "rop": 3230,
      "ĠRich": 3231,
      "Ġconcern": 3232,
      "ĠAssoci": 3233,
      "bab": 3234,
      "ĠtÃ¡i": 3235,
      "Ġris": 3236,
      "ĠSept": 3237,
      "ĠMed": 3238,
      "ĠAra": 3239,
      "Ġeng": 3240,
      "uyáº¿n": 3241,
      "ĠFrench": 3242,
      "Ġseven": 3243,
      "Ġusing": 3244,
      "Ġaccess": 3245,
      "iá»ħm": 3246,
      "Ġpercent": 3247,
      "Ġworkers": 3248,
      "Ġrelease": 3249,
      "attle": 3250,
      "ĠGoogle": 3251,
      "ĠMcCain": 3252,
      "cl": 3253,
      "ĠnÃ©": 3254,
      "ĠBer": 3255,
      "ĠBay": 3256,
      "Ġxin": 3257,
      "ĠWar": 3258,
      "ĠKen": 3259,
      "Ġ60": 3260,
      "evision": 3261,
      "Ġevidence": 3262,
      "stitution": 3263,
      "Ġluyá»ĩn": 3264,
      "ĠTexas": 3265,
      "200": 3266,
      "oáº¡i": 3267,
      "Ġná»ģn": 3268,
      "Ġsáºµn": 3269,
      "Ġhom": 3270,
      "Ġlet": 3271,
      "Ġtrial": 3272,
      "Ġká»¹": 3273,
      "Ġgen": 3274,
      "Ġngá»«ng": 3275,
      "ica": 3276,
      "Ã£n": 3277,
      "amo": 3278,
      "ĠPark": 3279,
      "ĠHar": 3280,
      "Ġform": 3281,
      "iger": 3282,
      "Ġthá»Ŀ": 3283,
      "Ġrepresent": 3284,
      "Ġsituation": 3285,
      "Ġxáº¿p": 3286,
      "ĠHoward": 3287,
      "ĠSeptember": 3288,
      "One": 3289,
      "Ġcut": 3290,
      "Ġtháº£i": 3291,
      "ĠÄĳÃłi": 3292,
      "Ġvu": 3293,
      "Ġhist": 3294,
      "Ġpa": 3295,
      "Ġnhiá»ħm": 3296,
      "isco": 3297,
      "Ġkháº©n": 3298,
      "ĠApp": 3299,
      "Ġstru": 3300,
      "Ġthá»ķ": 3301,
      "Ġhost": 3302,
      "Ġsuff": 3303,
      "ressed": 3304,
      "ĠSyd": 3305,
      "Ġcontinue": 3306,
      "Ġmarket": 3307,
      "Ġwhether": 3308,
      "ximately": 3309,
      "cer": 3310,
      "mith": 3311,
      "Ġident": 3312,
      "Ġtem": 3313,
      "Ġtaking": 3314,
      "Ġchá»¯a": 3315,
      "Ġtrai": 3316,
      "orters": 3317,
      "Ġkhá»Łi": 3318,
      "ĠCourt": 3319,
      "ĠSa": 3320,
      "ĠPl": 3321,
      "ĠTV": 3322,
      "ĠTel": 3323,
      "Ġprof": 3324,
      "augh": 3325,
      "Ġ80": 3326,
      "Ġbecome": 3327,
      "ĠCanadian": 3328,
      "ministr": 3329,
      "Sh": 3330,
      "ĠÄĳáº©y": 3331,
      "erry": 3332,
      "inn": 3333,
      "Ġlá»¥c": 3334,
      "Ġdist": 3335,
      "esc": 3336,
      "alib": 3337,
      "ĠClinton": 3338,
      "ĠSom": 3339,
      "ĠBáº£o": 3340,
      "anda": 3341,
      "riend": 3342,
      "ibility": 3343,
      "ĠNha": 3344,
      "Ġserious": 3345,
      "ĠGiÃ¡o": 3346,
      "ĠSyria": 3347,
      "Ġacross": 3348,
      "IA": 3349,
      "Ġtiá»ĩn": 3350,
      "Ġtháº£m": 3351,
      "Ġsáº¯p": 3352,
      "Ġmaking": 3353,
      "ccess": 3354,
      "Ġresident": 3355,
      "Ġindust": 3356,
      "lobal": 3357,
      "ĠMexico": 3358,
      "11": 3359,
      "But": 3360,
      "má»Ļt": 3361,
      "ti": 3362,
      "wh": 3363,
      "ways": 3364,
      "Ġtw": 3365,
      "Ġcáº§m": 3366,
      "ĠcáºŃu": 3367,
      "ĠÄĳÃłm": 3368,
      "Ġmáº¡i": 3369,
      "Ġchang": 3370,
      "atives": 3371,
      "Ġden": 3372,
      "Ġdá»¯": 3373,
      "ĠCount": 3374,
      "Ġequ": 3375,
      "Ġeight": 3376,
      "ctober": 3377,
      "Ġ29": 3378,
      "ows": 3379,
      "Ġmeas": 3380,
      "Ġamong": 3381,
      "Ġfeet": 3382,
      "ĠnÃ©m": 3383,
      "cel": 3384,
      "zer": 3385,
      "á»ħ": 3386,
      "ĠÄĳÃºng": 3387,
      "ĠnÃºi": 3388,
      "Ġhold": 3389,
      "ination": 3390,
      "ĠlÃ²ng": 3391,
      "Ġmust": 3392,
      "Ġcha": 3393,
      "ali": 3394,
      "Ġquáº£ng": 3395,
      "ĠPress": 3396,
      "Ġstorm": 3397,
      "Ġstaff": 3398,
      "Ġnghá»ī": 3399,
      "á»ģm": 3400,
      "ĠIsland": 3401,
      "icted": 3402,
      "Ġimport": 3403,
      "Ġclose": 3404,
      "ĠSecretary": 3405,
      "asseng": 3406,
      "ean": 3407,
      "ox": 3408,
      "Ġá»§y": 3409,
      "Ġcit": 3410,
      "ĠÄĳu": 3411,
      "Ġbáº¯c": 3412,
      "Ġsw": 3413,
      "Ġmoney": 3414,
      "Ġmá»ģm": 3415,
      "Ġtotal": 3416,
      "ily": 3417,
      "ently": 3418,
      "ots": 3419,
      "ĠTimes": 3420,
      "ĠIreland": 3421,
      "Ġhá»įa": 3422,
      "Ġnghe": 3423,
      "Ġdá»±a": 3424,
      "ruary": 3425,
      "Ġcoi": 3426,
      "Ġresponse": 3427,
      "ebruary": 3428,
      "ĠthoÃ¡t": 3429,
      "ĠGovernment": 3430,
      "Ġdirector": 3431,
      "Ġmeeting": 3432,
      "ĠOntar": 3433,
      "Ġtarget": 3434,
      "ll": 3435,
      "uk": 3436,
      "vil": 3437,
      "ĠcÃłng": 3438,
      "ĠtháºŃp": 3439,
      "Ġlist": 3440,
      "Ġlai": 3441,
      "Ġchá»©a": 3442,
      "Ġtrao": 3443,
      "elt": 3444,
      "ĠMel": 3445,
      "iáº¿p": 3446,
      "Ġconduct": 3447,
      "ĠRyan": 3448,
      "ĠOctober": 3449,
      "Ġresults": 3450,
      "Ġcompan": 3451,
      "Ġindic": 3452,
      "Ġboard": 3453,
      "Ġdamage": 3454,
      "ĠOntario": 3455,
      "ged": 3456,
      "ugh": 3457,
      "Ġten": 3458,
      "Ġmong": 3459,
      "Ġmiá»ģn": 3460,
      "Ġmáº¹": 3461,
      "Ġwind": 3462,
      "Ġdr": 3463,
      "ality": 3464,
      "ĠAug": 3465,
      "Ġ26": 3466,
      "ĠII": 3467,
      "ĠÄĲÃłi": 3468,
      "ĠViá»ĩn": 3469,
      "Ġplane": 3470,
      "ealth": 3471,
      "Ġindepend": 3472,
      "Ġrequest": 3473,
      "ehic": 3474,
      "Ġblock": 3475,
      "Ġauthorities": 3476,
      "Ġemergency": 3477,
      "ĠJuly": 3478,
      "ĠSydney": 3479,
      "field": 3480,
      "ĠsÃ¢u": 3481,
      "inc": 3482,
      "ĠmáºŃt": 3483,
      "Ġkil": 3484,
      "estern": 3485,
      "Ġfund": 3486,
      "ĠLa": 3487,
      "Ġcust": 3488,
      "Ġdev": 3489,
      "rian": 3490,
      "ify": 3491,
      "ĠSte": 3492,
      "Ġorig": 3493,
      "Ġcoast": 3494,
      "Ġprevent": 3495,
      "Ġseries": 3496,
      "Ġconfer": 3497,
      "Ġaircraft": 3498,
      "When": 3499,
      "ĠgÃ³p": 3500,
      "ministration": 3501,
      "HÃ´m": 3502,
      "ees": 3503,
      "ze": 3504,
      "Ġvehic": 3505,
      "Ġpasseng": 3506,
      "Ġtrav": 3507,
      "Ġdrug": 3508,
      "Ġfall": 3509,
      "ilar": 3510,
      "ĠSing": 3511,
      "stru": 3512,
      "ĠHill": 3513,
      "ĠGeneral": 3514,
      "ander": 3515,
      "ĠFebruary": 3516,
      "ude": 3517,
      "ivid": 3518,
      "Ġjob": 3519,
      "Ġneg": 3520,
      "ĠNhÃł": 3521,
      "Ġtuyá»ĩt": 3522,
      "Ġleaders": 3523,
      "Ġ2012": 3524,
      "aliban": 3525,
      "Ġcompanies": 3526,
      "ĠAugust": 3527,
      "CÃ´ng": 3528,
      "fic": 3529,
      "ĠcÃ¢y": 3530,
      "Ġsearch": 3531,
      "Ġcháº¡m": 3532,
      "ata": 3533,
      "Ġkeep": 3534,
      "alle": 3535,
      "ĠBen": 3536,
      "ĠTur": 3537,
      "uture": 3538,
      "Ġcomes": 3539,
      "Ġseen": 3540,
      "ively": 3541,
      "Ä©nh": 3542,
      "áº©u": 3543,
      "ĠYou": 3544,
      "Ġmanag": 3545,
      "oham": 3546,
      "ĠRomania": 3547,
      "cy": 3548,
      "gu": 3549,
      "ĠÃ´": 3550,
      "Ġhot": 3551,
      "Ġpat": 3552,
      "ators": 3553,
      "Ġthá»«a": 3554,
      "ĠWe": 3555,
      "Ġbelieve": 3556,
      "Ġpoint": 3557,
      "Ġconditions": 3558,
      "Ġissued": 3559,
      "Ġpolicy": 3560,
      "Ġsafety": 3561,
      "Ġflood": 3562,
      "ST": 3563,
      "bor": 3564,
      "lic": 3565,
      "ring": 3566,
      "á»£p": 3567,
      "Ġthought": 3568,
      "Ġbody": 3569,
      "Ġsk": 3570,
      "Ġled": 3571,
      "Ġlikely": 3572,
      "Ġface": 3573,
      "ĠNations": 3574,
      "Ġ28": 3575,
      "Ġconv": 3576,
      "Ġshoot": 3577,
      "Ġproject": 3578,
      "Ġ31": 3579,
      "ĠAll": 3580,
      "ences": 3581,
      "Ġground": 3582,
      "Ġkhá»ıe": 3583,
      "ĠIndian": 3584,
      "Ġapproximately": 3585,
      "Ġdescribed": 3586,
      "Two": 3587,
      "ax": 3588,
      "ks": 3589,
      "Ġthao": 3590,
      "Ġnation": 3591,
      "Ġpres": 3592,
      "Ġgot": 3593,
      "Ġrad": 3594,
      "ĠTony": 3595,
      "ĠEx": 3596,
      "ĠVict": 3597,
      "Ġoutside": 3598,
      "Ġinterest": 3599,
      "Ġdesign": 3600,
      "Ġcharges": 3601,
      "Ġestim": 3602,
      "Ġweapons": 3603,
      "40": 3604,
      "Con": 3605,
      "dom": 3606,
      "get": 3607,
      "gress": 3608,
      "rick": 3609,
      "Ġbased": 3610,
      "Ġsing": 3611,
      "Ġhard": 3612,
      "iáº¿c": 3613,
      "ida": 3614,
      "iding": 3615,
      "ote": 3616,
      "ĠLo": 3617,
      "iá»ģm": 3618,
      "Ġ35": 3619,
      "Ġdisco": 3620,
      "Ġtuyáº¿t": 3621,
      "ĠAmerica": 3622,
      "Ġservices": 3623,
      "iji": 3624,
      "Is": 3625,
      "Ġtimes": 3626,
      "int": 3627,
      "Ġpubl": 3628,
      "ĠphÃ³": 3629,
      "ĠTor": 3630,
      "NhÆ°ng": 3631,
      "Ġindivid": 3632,
      "Ġlargest": 3633,
      "aed": 3634,
      "sw": 3635,
      "įt": 3636,
      "Ġcer": 3637,
      "Ġcases": 3638,
      "ĠthÃ¡i": 3639,
      "ĠthÆ°á»Łng": 3640,
      "Ġthous": 3641,
      "Ġnetwork": 3642,
      "Ġwrit": 3643,
      "aly": 3644,
      "itness": 3645,
      "ĠCouncil": 3646,
      "ĠSup": 3647,
      "ĠMal": 3648,
      "ĠMá»Ļt": 3649,
      "á»©t": 3650,
      "ĠTá»±": 3651,
      "Ġsaw": 3652,
      "Ġexecut": 3653,
      "Ġ70": 3654,
      "ampions": 3655,
      "Ġregard": 3656,
      "Ġweeks": 3657,
      "khÃ´ng": 3658,
      "ĠAngel": 3659,
      "sue": 3660,
      "self": 3661,
      "Ġcause": 3662,
      "Ġniá»ĩm": 3663,
      "eration": 3664,
      "Ġnháº¥n": 3665,
      "icide": 3666,
      "urd": 3667,
      "ĠTim": 3668,
      "ĠLos": 3669,
      "Ġissue": 3670,
      "ĠThá»ķ": 3671,
      "Ġclosed": 3672,
      "istrict": 3673,
      "Ġsimilar": 3674,
      "Ġgháº¿": 3675,
      "Ġvirus": 3676,
      "St": 3677,
      "Vá»Ľi": 3678,
      "uff": 3679,
      "Ġcor": 3680,
      "ĠhÃ¡t": 3681,
      "Ġlim": 3682,
      "Ġlate": 3683,
      "ĠCÆ¡": 3684,
      "ĠAlex": 3685,
      "ami": 3686,
      "ĠPat": 3687,
      "Ġsai": 3688,
      "ĠItal": 3689,
      "Ġalthough": 3690,
      "ensive": 3691,
      "Ġsched": 3692,
      "Ġlegal": 3693,
      "ĠRussia": 3694,
      "orpor": 3695,
      "Wikinews": 3696,
      "Æ°á»¡ng": 3697,
      "Ġconference": 3698,
      "BÃł": 3699,
      "Hiá»ĩn": 3700,
      "most": 3701,
      "oz": 3702,
      "įc": 3703,
      "ĠthÄĥng": 3704,
      "Ġháº¯n": 3705,
      "Ġposition": 3706,
      "Ġpenal": 3707,
      "reg": 3708,
      "Ġgrow": 3709,
      "ĠquáºŃn": 3710,
      "ĠMat": 3711,
      "ĠTá»ķ": 3712,
      "use": 3713,
      "ĠJune": 3714,
      "Ġsuccess": 3715,
      "Ġrecently": 3716,
      "Ġopposition": 3717,
      "Ġpreviously": 3718,
      "Ġquestion": 3719,
      "cing": 3720,
      "dad": 3721,
      "ease": 3722,
      "iod": 3723,
      "person": 3724,
      "Ġá»ķ": 3725,
      "Ġháº£i": 3726,
      "Ġhiá»ĥu": 3727,
      "Ġlan": 3728,
      "Ġlow": 3729,
      "isc": 3730,
      "Ġfriend": 3731,
      "Ġfuture": 3732,
      "ĠScient": 3733,
      "ĠMah": 3734,
      "ĠBagh": 3735,
      "ĠPol": 3736,
      "ĠTai": 3737,
      "ĠTaliban": 3738,
      "Ġ500": 3739,
      "acy": 3740,
      "Ġinclude": 3741,
      "Ġnearly": 3742,
      "Ġearth": 3743,
      "Ġincrease": 3744,
      "ĠQueens": 3745,
      "Police": 3746,
      "Un": 3747,
      "ming": 3748,
      "uf": 3749,
      "Ġ.": 3750,
      "Ġord": 3751,
      "Ġaid": 3752,
      "Ġbest": 3753,
      "ĠnÃ´ng": 3754,
      "Ġváº»": 3755,
      "Ġmass": 3756,
      "ĠchÃ¢n": 3757,
      "Ġgreat": 3758,
      "Ġtoo": 3759,
      "omas": 3760,
      "á»¥p": 3761,
      "á»¥t": 3762,
      "ĠEast": 3763,
      "elling": 3764,
      "ailable": 3765,
      "medi": 3766,
      "ificant": 3767,
      "Ġstudents": 3768,
      "ĠAbb": 3769,
      "Ġhuáº¥n": 3770,
      "ĠDemocratic": 3771,
      "dam": 3772,
      "of": 3773,
      "off": 3774,
      "yal": 3775,
      "ĠbÃło": 3776,
      "Ġnorth": 3777,
      "Ġline": 3778,
      "ĠmÆ°a": 3779,
      "ising": 3780,
      "arian": 3781,
      "Ġfull": 3782,
      "Ã¢ng": 3783,
      "Ġquá»¹": 3784,
      "ĠMass": 3785,
      "usse": 3786,
      "ĠnÃ³ng": 3787,
      "uled": 3788,
      "wood": 3789,
      "Ġaccount": 3790,
      "Ġaccused": 3791,
      "ĠIndia": 3792,
      "Ġlocated": 3793,
      "Ġscored": 3794,
      "Ġimpro": 3795,
      "ĠBarack": 3796,
      "Ġdiscuss": 3797,
      "Ġcommunity": 3798,
      "Ġexperi": 3799,
      "ĠHamas": 3800,
      "ĠBaghdad": 3801,
      "Ġi": 3802,
      "ĠtÃ´": 3803,
      "Ġtháº£": 3804,
      "Ġsáº¡n": 3805,
      "ances": 3806,
      "ĠchÃ³ng": 3807,
      "Ġtráº¡i": 3808,
      "Ġgun": 3809,
      "Ġnhu": 3810,
      "Ġfederal": 3811,
      "Ġreve": 3812,
      "ĠHy": 3813,
      "Ġdeter": 3814,
      "ried": 3815,
      "ĠloÃłi": 3816,
      "Ġcontact": 3817,
      "ĠÃģ": 3818,
      "Ġdesp": 3819,
      "Ġgroups": 3820,
      "ĠScott": 3821,
      "ĠRepublican": 3822,
      "Ġfailed": 3823,
      "Ġcandidate": 3824,
      "ficult": 3825,
      "Ġindividual": 3826,
      "aeda": 3827,
      "%.": 3828,
      "'re": 3829,
      "15": 3830,
      "van": 3831,
      "ĠÄĳáº¡n": 3832,
      "Ġvai": 3833,
      "Ġmod": 3834,
      "Ġchief": 3835,
      "Ġtrá»«": 3836,
      "icago": 3837,
      "Ġvá»¡": 3838,
      "ĠMor": 3839,
      "ston": 3840,
      "ĠHá»£p": 3841,
      "cember": 3842,
      "ĠLab": 3843,
      "ĠRed": 3844,
      "ects": 3845,
      "ĠVÆ°Æ¡ng": 3846,
      "upt": 3847,
      "ĠIslam": 3848,
      "Ãµi": 3849,
      "ridge": 3850,
      "Ġprovide": 3851,
      "ĠGroup": 3852,
      "Ġcolla": 3853,
      "Ġpriv": 3854,
      "Ġproblems": 3855,
      "Ġtelevision": 3856,
      "Ġavailable": 3857,
      "TO": 3858,
      "bon": 3859,
      "bit": 3860,
      "ls": 3861,
      "Ġfif": 3862,
      "ĠgiÃ³": 3863,
      "Ġtá»ĩ": 3864,
      "ĠWal": 3865,
      "Ġship": 3866,
      "Ã½t": 3867,
      "ube": 3868,
      "Ġ45": 3869,
      "ĠNgoáº¡i": 3870,
      "Ġenvironment": 3871,
      "Ġ2011": 3872,
      "ĠCommission": 3873,
      "Ġdifficult": 3874,
      "ĠWhite": 3875,
      "Ġbehind": 3876,
      "NA": 3877,
      "sel": 3878,
      "Â£": 3879,
      "Ġ&": 3880,
      "Ġborder": 3881,
      "Ġval": 3882,
      "Ġmag": 3883,
      "Ġmáº¯c": 3884,
      "reement": 3885,
      "Ġtrá»Ŀi": 3886,
      "itch": 3887,
      "Ġtour": 3888,
      "asing": 3889,
      "Ġrate": 3890,
      "illeg": 3891,
      "ĠSud": 3892,
      "Ġbegin": 3893,
      "Ġ2001": 3894,
      "udd": 3895,
      "ĠluÃ´n": 3896,
      "Ġagency": 3897,
      "Ġsoft": 3898,
      "gether": 3899,
      "Ġcarry": 3900,
      "head": 3901,
      "Ġflight": 3902,
      "And": 3903,
      "ĠDecember": 3904,
      "eech": 3905,
      "Ġbroad": 3906,
      "pril": 3907,
      "Ġparticip": 3908,
      "ĠGermany": 3909,
      "Ġdespite": 3910,
      "Some": 3911,
      "lu": 3912,
      "not": 3913,
      "ole": 3914,
      "ration": 3915,
      "Ġbi": 3916,
      "Ġname": 3917,
      "Ġside": 3918,
      "Ġsouth": 3919,
      "Ġhiáº¿n": 3920,
      "ĠhÆ¡i": 3921,
      "ĠhÃºt": 3922,
      "Ġloss": 3923,
      "Ġmight": 3924,
      "isl": 3925,
      "aled": 3926,
      "ongress": 3927,
      "ĠBo": 3928,
      "Ġgive": 3929,
      "imate": 3930,
      "uty": 3931,
      "ĠJer": 3932,
      "ĠJames": 3933,
      "Ġsuicide": 3934,
      "udi": 3935,
      "Ġago": 3936,
      "rans": 3937,
      "Ġimmedi": 3938,
      "Ġbecame": 3939,
      "ĠMinistry": 3940,
      "ĠLeban": 3941,
      "Ġnguyá»ĩn": 3942,
      "Ġreturn": 3943,
      "ĠPeter": 3944,
      "ĠCenter": 3945,
      "ĠMuslim": 3946,
      "ĠCounty": 3947,
      "500": 3948,
      "CA": 3949,
      "uters": 3950,
      "yer": 3951,
      "Ġcour": 3952,
      "Ġnon": 3953,
      "ergy": 3954,
      "Ġdá»«ng": 3955,
      "quir": 3956,
      "ĠMart": 3957,
      "urt": 3958,
      "iff": 3959,
      "Ġage": 3960,
      "evin": 3961,
      "All": 3962,
      "Ġpresidential": 3963,
      "Ġsignificant": 3964,
      "alleng": 3965,
      "Ġscheduled": 3966,
      "ault": 3967,
      "ray": 3968,
      "ĠÃŃch": 3969,
      "Ġbar": 3970,
      "onald": 3971,
      "Ġinit": 3972,
      "ĠSo": 3973,
      "lement": 3974,
      "ador": 3975,
      "ports": 3976,
      "Ġ36": 3977,
      "ellig": 3978,
      "Ġoffice": 3979,
      "istance": 3980,
      "teen": 3981,
      "Ġhimself": 3982,
      "inese": 3983,
      "Ġefforts": 3984,
      "Ġdestroy": 3985,
      "secut": 3986,
      "ĠVictor": 3987,
      "Ġilleg": 3988,
      "Ġcred": 3989,
      "ĠtháºŃm": 3990,
      "ĠÄĳá»©a": 3991,
      "Ġhouse": 3992,
      "Ġlink": 3993,
      "Ġobs": 3994,
      "ĠkhÃ¡ng": 3995,
      "ĠpháºŃn": 3996,
      "Ġrá»ĵi": 3997,
      "ĠApril": 3998,
      "ĠPolice": 3999,
      "ĠParliament": 4000,
      "ĠIl": 4001,
      "anger": 4002,
      "ĠFiji": 4003,
      "Ġ2002": 4004,
      "Ġhoáº£ng": 4005,
      "ĠOs": 4006,
      "Ġcontract": 4007,
      "ĠÃĿ": 4008,
      "Ġappeal": 4009,
      "ĠIraqi": 4010,
      "Ġamount": 4011,
      "Ġelections": 4012,
      "ancial": 4013,
      "Ġhistory": 4014,
      "12": 4015,
      "13": 4016,
      "16": 4017,
      "With": 4018,
      "ple": 4019,
      "ĠcÆ°á»Ŀng": 4020,
      "ĠÄĳÃ´i": 4021,
      "Ġsat": 4022,
      "oring": 4023,
      "orney": 4024,
      "ĠngÆ°á»£c": 4025,
      "ĠMad": 4026,
      "ĠMos": 4027,
      "ĠMont": 4028,
      "Ġeur": 4029,
      "ĠHol": 4030,
      "rovers": 4031,
      "ceed": 4032,
      "ump": 4033,
      "Ġplans": 4034,
      "âĢĭ": 4035,
      "Ġactions": 4036,
      "Ġcommit": 4037,
      "airs": 4038,
      "undred": 4039,
      "Ġaccept": 4040,
      "While": 4041,
      "Ġspokesperson": 4042,
      "Ġissues": 4043,
      "ĠKingdom": 4044,
      "ĠsÃ³t": 4045,
      "Ġdocument": 4046,
      "ĠPalestinian": 4047,
      "Anh": 4048,
      "ez": 4049,
      "eter": 4050,
      "oo": 4051,
      "pl": 4052,
      "tr": 4053,
      "yl": 4054,
      "Ġap": 4055,
      "Ġchar": 4056,
      "Ġfell": 4057,
      "ĠkhÃ¡": 4058,
      "Ġkháº©u": 4059,
      "ĠMa": 4060,
      "ĠÄĳá»£i": 4061,
      "á»¥y": 4062,
      "aint": 4063,
      "ĠChinese": 4064,
      "Ġproper": 4065,
      "Ġloáº¡n": 4066,
      "ĠVir": 4067,
      "Ġspace": 4068,
      "Ġarri": 4069,
      "rought": 4070,
      "áº¹p": 4071,
      "Ġyoung": 4072,
      "Ġáº¢": 4073,
      "ĠSenator": 4074,
      "Ġvisit": 4075,
      "Ġjournalists": 4076,
      "Ġsoldiers": 4077,
      "ĠQueensland": 4078,
      "EC": 4079,
      "ient": 4080,
      "ĭâĢĭ": 4081,
      "ĠthiÃªn": 4082,
      "ĠÄĳau": 4083,
      "Ġmiá»ħn": 4084,
      "Ġport": 4085,
      "Ġwound": 4086,
      "Ġwoman": 4087,
      "Ġgeneral": 4088,
      "Ġfuel": 4089,
      "Ġkhuyáº¿n": 4090,
      "Ġround": 4091,
      "ĠPort": 4092,
      "ĠDel": 4093,
      "ither": 4094,
      "osing": 4095,
      "akes": 4096,
      "odies": 4097,
      "ĠInter": 4098,
      "aving": 4099,
      "Ġrepla": 4100,
      "ĠâĢĭâĢĭ": 4101,
      "ĠKhoa": 4102,
      "Ġviolence": 4103,
      "Ġlaunched": 4104,
      "Ġresidents": 4105,
      "ĠLebanon": 4106,
      "19": 4107,
      "Ngh": 4108,
      "Táº¥t": 4109,
      "ĠtÃ¢y": 4110,
      "Ġtáº¡m": 4111,
      "ĠÄĳÆ°Æ¡": 4112,
      "Ġsá»©": 4113,
      "Ġsáº¯c": 4114,
      "Ġsá»£": 4115,
      "Ġhop": 4116,
      "Ġmess": 4117,
      "Ġmater": 4118,
      "Ġpur": 4119,
      "Ġparliament": 4120,
      "Ġtrá»¥c": 4121,
      "Ġwor": 4122,
      "Ġfood": 4123,
      "Ġngá»įn": 4124,
      "ĠphÃª": 4125,
      "ĠCons": 4126,
      "ĠTw": 4127,
      "ĠTom": 4128,
      "ĠTÃ²a": 4129,
      "verage": 4130,
      "ĠGreen": 4131,
      "ĠFlor": 4132,
      "Ã²i": 4133,
      "aker": 4134,
      "ĠNhÄ©": 4135,
      "Ġperiod": 4136,
      "Ġevac": 4137,
      "ĠFrank": 4138,
      "Ġdeaths": 4139,
      "Ġincreased": 4140,
      "Ġspecial": 4141,
      "Ġcontinued": 4142,
      "Ġtá»ĵn": 4143,
      "ĠPhilipp": 4144,
      "Ġvictims": 4145,
      "MA": 4146,
      "NÄĥm": 4147,
      "Qaeda": 4148,
      "app": 4149,
      "nes": 4150,
      "Ġlit": 4151,
      "Ġlot": 4152,
      "Ġpil": 4153,
      "ĠtrÃło": 4154,
      "Ġtrá»ĳn": 4155,
      "Ġfront": 4156,
      "Ã³c": 4157,
      "Ġvá»£": 4158,
      "ĠCE": 4159,
      "ster": 4160,
      "ades": 4161,
      "ota": 4162,
      "uries": 4163,
      "Ġeas": 4164,
      "iao": 4165,
      "ĠChurch": 4166,
      "Ġsum": 4167,
      "Ġshut": 4168,
      "umb": 4169,
      "Ġspeech": 4170,
      "Ġcontrovers": 4171,
      "ograph": 4172,
      "Ġclass": 4173,
      "Ġperform": 4174,
      "ĠLee": 4175,
      "Ġenergy": 4176,
      "Ġrespond": 4177,
      "ĠRobert": 4178,
      "Ġmajority": 4179,
      "Ġvictory": 4180,
      "Ġspeed": 4181,
      "ĠKorea": 4182,
      "Ġimportant": 4183,
      "ĠAngeles": 4184,
      "val": 4185,
      "Ġtáº¡p": 4186,
      "Ġscient": 4187,
      "Ġgá»¡": 4188,
      "Ġphá»ķ": 4189,
      "icop": 4190,
      "ĠSmith": 4191,
      "ĠMP": 4192,
      "ĠMoham": 4193,
      "Ġreb": 4194,
      "Ġreal": 4195,
      "oted": 4196,
      "ĠHealth": 4197,
      "ĠxÃ¢m": 4198,
      "rodu": 4199,
      "ĠGl": 4200,
      "ĠChÃŃn": 4201,
      "Ġsuáº¥t": 4202,
      "Ġcomple": 4203,
      "Ġparties": 4204,
      "Ġdecla": 4205,
      "Ġscene": 4206,
      "ĠCommittee": 4207,
      "Ġbring": 4208,
      "Ġorganization": 4209,
      "Ġpassed": 4210,
      "Ġeconomic": 4211,
      "Ġcommented": 4212,
      "ĠAfrica": 4213,
      "Ġcustom": 4214,
      "ussein": 4215,
      "een": 4216,
      "han": 4217,
      "mail": 4218,
      "Ġná»Ļ": 4219,
      "Ġmáº¯t": 4220,
      "Ġpar": 4221,
      "Ġtrá»¯": 4222,
      "ĠkÃ¬": 4223,
      "ĠdÃµi": 4224,
      "ela": 4225,
      "ĠquÃ¡n": 4226,
      "Ġforce": 4227,
      "ĠDr": 4228,
      "Ġsepar": 4229,
      "udget": 4230,
      "Ġagreement": 4231,
      "Ġusers": 4232,
      "Ġannouncement": 4233,
      "Ġoperation": 4234,
      "Ġblast": 4235,
      "Ġpopulation": 4236,
      "Ġexplosion": 4237,
      "Ġresponsible": 4238,
      "'m": 4239,
      "Táº¡i": 4240,
      "cue": 4241,
      "ires": 4242,
      "lant": 4243,
      "ma": 4244,
      "mond": 4245,
      "Ġesc": 4246,
      "ĠtÃłn": 4247,
      "ĠthÃŃ": 4248,
      "Ġtháº³ng": 4249,
      "Ġná»ĳi": 4250,
      "ĠnÃ¢ng": 4251,
      "Ġhundred": 4252,
      "ĠlÅ©": 4253,
      "enced": 4254,
      "Ġda": 4255,
      "ĠdÃ¢m": 4256,
      "Ġdá»ħ": 4257,
      "itive": 4258,
      "ĠCamp": 4259,
      "Thá»§": 4260,
      "iáº¿ng": 4261,
      "áº§ng": 4262,
      "ĠAg": 4263,
      "ams": 4264,
      "urder": 4265,
      "urric": 4266,
      "ĠTrans": 4267,
      "ĠLand": 4268,
      "Ġstep": 4269,
      "Ġsung": 4270,
      "Ġ33": 4271,
      "Chiáº¿c": 4272,
      "Ġargu": 4273,
      "âĢĿ": 4274,
      "Ġnever": 4275,
      "Ġview": 4276,
      "Ġincluded": 4277,
      "onto": 4278,
      "Ġsurv": 4279,
      "Ġnamed": 4280,
      "ĠOlympic": 4281,
      "Ġpublished": 4282,
      "Ġcollap": 4283,
      "Ġsoftware": 4284,
      "ĠFlorida": 4285,
      "TV": 4286,
      "US": 4287,
      "light": 4288,
      "me": 4289,
      "âĤ": 4290,
      "Ġsol": 4291,
      "ĠsÃłng": 4292,
      "Ġvol": 4293,
      "Ġpract": 4294,
      "Ġtráº£i": 4295,
      "ĠtrÃłn": 4296,
      "ĠtrÃ¡nh": 4297,
      "atures": 4298,
      "Ġkid": 4299,
      "Ġká»ĭch": 4300,
      "ites": 4301,
      "ĠphÃ¹": 4302,
      "Ġrefer": 4303,
      "Ġever": 4304,
      "ĠHaw": 4305,
      "Ġstay": 4306,
      "Æ°á»Ľp": 4307,
      "Ġconstru": 4308,
      "ĠFore": 4309,
      "ĠChicago": 4310,
      "Ġheavy": 4311,
      "ĠSteph": 4312,
      "Ġrescue": 4313,
      "Ġ300": 4314,
      "ÄĲá»ĥ": 4315,
      "Ġteams": 4316,
      "Ġwarning": 4317,
      "ribut": 4318,
      "Ġhelicop": 4319,
      "ĠColom": 4320,
      "Ġinside": 4321,
      "Ġneeded": 4322,
      "ĠArab": 4323,
      "Ġtravel": 4324,
      "Ġearthqu": 4325,
      "Ġmaterial": 4326,
      "25": 4327,
      "His": 4328,
      "ĠÄĳÃ¢m": 4329,
      "Ġnáº¯m": 4330,
      "ĠhÃ¨": 4331,
      "err": 4332,
      "Ġly": 4333,
      "Ġmáº«u": 4334,
      "reet": 4335,
      "ĠkÃŃnh": 4336,
      "Ġwatch": 4337,
      "Ġtogether": 4338,
      "ĠkhÃŃch": 4339,
      "oub": 4340,
      "ional": 4341,
      "omet": 4342,
      "eleb": 4343,
      "amed": 4344,
      "ĠBro": 4345,
      "ada": 4346,
      "ĠHussein": 4347,
      "usal": 4348,
      "ĠEdu": 4349,
      "ĠThá»¥y": 4350,
      "berg": 4351,
      "ival": 4352,
      "vernor": 4353,
      "âĢ¦": 4354,
      "NhÃł": 4355,
      "NgÃły": 4356,
      "ĠLeague": 4357,
      "Ġlegisl": 4358,
      "Ã¨o": 4359,
      "Ġprior": 4360,
      "Ġtrying": 4361,
      "Ġaffected": 4362,
      "Ġmissing": 4363,
      "ĠkÃªnh": 4364,
      "ampionship": 4365,
      "ĠScientology": 4366,
      "ĠVirgin": 4367,
      "RC": 4368,
      "To": 4369,
      "den": 4370,
      "ki": 4371,
      "Ġturn": 4372,
      "Ġtáº§ng": 4373,
      "Ġbase": 4374,
      "Ġbodies": 4375,
      "Ġsáº»": 4376,
      "ĠmÃ©t": 4377,
      "rey": 4378,
      "Ġglobal": 4379,
      "Ġnhá»Ľ": 4380,
      "itter": 4381,
      "Ġngá»ĵi": 4382,
      "outhern": 4383,
      "ential": 4384,
      "oto": 4385,
      "ĠxÃºc": 4386,
      "ĠbuÃ½t": 4387,
      "Ġjoin": 4388,
      "Ġartic": 4389,
      "Ġthá»§y": 4390,
      "aily": 4391,
      "ological": 4392,
      "Ġbook": 4393,
      "ĠJohnson": 4394,
      "ĠFranc": 4395,
      "Ġdriver": 4396,
      "Ġproblem": 4397,
      "mitted": 4398,
      "bourne": 4399,
      "Ġtreatment": 4400,
      "Ġtechnology": 4401,
      "Ġindustry": 4402,
      "Ġpenalty": 4403,
      "80": 4404,
      "Tube": 4405,
      "wan": 4406,
      "wide": 4407,
      "Ġung": 4408,
      "Ġenc": 4409,
      "Ġmov": 4410,
      "enk": 4411,
      "atic": 4412,
      "Ġnháº¯c": 4413,
      "Ġrá»ī": 4414,
      "enty": 4415,
      "ĠServ": 4416,
      "Ġqual": 4417,
      "imbab": 4418,
      "ĠxuyÃªn": 4419,
      "ĠJust": 4420,
      "Ġseek": 4421,
      "umbia": 4422,
      "hire": 4423,
      "ishing": 4424,
      "ileaks": 4425,
      "Ġdecided": 4426,
      "Ġfollowed": 4427,
      "Ġproduct": 4428,
      "Ġfamilies": 4429,
      "ĠSecurity": 4430,
      "Ġdemand": 4431,
      "Ġreached": 4432,
      "ĠJackson": 4433,
      "ĠSudan": 4434,
      "imbabwe": 4435,
      "MT": 4436,
      "based": 4437,
      "eared": 4438,
      "Ġtáº¯c": 4439,
      "ĠcÆ°á»Ľp": 4440,
      "ĠthÃ¹": 4441,
      "Ġaim": 4442,
      "ĠbÃ¢y": 4443,
      "Ġbá»ĵi": 4444,
      "Ġbrought": 4445,
      "Ġsen": 4446,
      "Ġváº¿t": 4447,
      "Ġláº½": 4448,
      "atory": 4449,
      "Ġwr": 4450,
      "Ġdom": 4451,
      "Ġru": 4452,
      "ĠMo": 4453,
      "ĠMac": 4454,
      "Ġreview": 4455,
      "chester": 4456,
      "ĠAct": 4457,
      "ĠBang": 4458,
      "Ġgiáº¥y": 4459,
      "ĠNe": 4460,
      "ĠTiÃªn": 4461,
      "ĠJos": 4462,
      "Ġcoming": 4463,
      "Ġshare": 4464,
      "Ġchá»īnh": 4465,
      "Nhiá»ģu": 4466,
      "Ġreco": 4467,
      "ciety": 4468,
      "Ġshowed": 4469,
      "Ġinjuries": 4470,
      "ĠBritain": 4471,
      "Ġsigned": 4472,
      "Ġentire": 4473,
      "Ġcondition": 4474,
      "Ġcitiz": 4475,
      "Israel": 4476,
      "Ġá»ķn": 4477,
      "quiry": 4478,
      ".,": 4479,
      "eated": 4480,
      "sp": 4481,
      "zuel": 4482,
      "ĠÄĳÆ°Æ¡ng": 4483,
      "ĠÄĳiá»ĩp": 4484,
      "Ġláº¡m": 4485,
      "Ġcháº¥n": 4486,
      "Ġdoll": 4487,
      "orter": 4488,
      "Ġgames": 4489,
      "aring": 4490,
      "alo": 4491,
      "Ġfav": 4492,
      "ĠSÄ©": 4493,
      "ĠAC": 4494,
      "amin": 4495,
      "ĠBank": 4496,
      "ĠNiger": 4497,
      "ĠLin": 4498,
      "ĠLiber": 4499,
      "ĠWind": 4500,
      "ears": 4501,
      "Ġcáº£n": 4502,
      "Ġhoa": 4503,
      "ighters": 4504,
      "Ġcompl": 4505,
      "Ġcoal": 4506,
      "ĠHoÃłng": 4507,
      "Ġfinished": 4508,
      "Ġenough": 4509,
      "Ġ1990": 4510,
      "Ġprovince": 4511,
      "ĠColumbia": 4512,
      "Ġdifferent": 4513,
      "Ġletter": 4514,
      "ĠApple": 4515,
      "CE": 4516,
      "DA": 4517,
      "HO": 4518,
      "Sp": 4519,
      "car": 4520,
      "mad": 4521,
      "Ġur": 4522,
      "ĠÃ¡nh": 4523,
      "Ġtim": 4524,
      "Ġthough": 4525,
      "Ġsong": 4526,
      "Ġvo": 4527,
      "Ġhope": 4528,
      "ĠlÆ°á»Ľi": 4529,
      "Ġmot": 4530,
      "Ġmáº½": 4531,
      "Ġpot": 4532,
      "Ġchá»Ŀ": 4533,
      "Ġchalleng": 4534,
      "Ġtri": 4535,
      "ĠdÃ¢y": 4536,
      "ises": 4537,
      "ĠAh": 4538,
      "Ġgiáº¥u": 4539,
      "ĠTra": 4540,
      "ĠHigh": 4541,
      "ĠHond": 4542,
      "Ġstage": 4543,
      "Ġalmost": 4544,
      "ĠhoÃ£n": 4545,
      "Ġnoted": 4546,
      "oke": 4547,
      "Ġdisaster": 4548,
      "Ġbank": 4549,
      "ĠGiÃ¡m": 4550,
      "Phone": 4551,
      "ĠDef": 4552,
      "Ġoperations": 4553,
      "ĠParaly": 4554,
      "book": 4555,
      "reme": 4556,
      "Ġuá»ĳng": 4557,
      "ĠToronto": 4558,
      "ĠParalymp": 4559,
      "ein": 4560,
      "ges": 4561,
      "ners": 4562,
      "tt": 4563,
      "£t": 4564,
      "Ġide": 4565,
      "Ġvill": 4566,
      "Ġlight": 4567,
      "ĠlÆ°á»£t": 4568,
      "ĠmÆ°u": 4569,
      "ĠchÃ³": 4570,
      "Ġgas": 4571,
      "Ġfield": 4572,
      "ĠrÃ²": 4573,
      "These": 4574,
      "ĠMike": 4575,
      "oti": 4576,
      "ĠÄĳá»£t": 4577,
      "ĠPac": 4578,
      "Ġonline": 4579,
      "ĠDÆ°Æ¡ng": 4580,
      "Ġsex": 4581,
      "ĠmÃłu": 4582,
      "Ġart": 4583,
      "Ġimm": 4584,
      "lines": 4585,
      "Ġallowed": 4586,
      "ĠAndrew": 4587,
      "Ġcharged": 4588,
      "Ġconcerns": 4589,
      "Ar": 4590,
      "During": 4591,
      "jected": 4592,
      "kn": 4593,
      "nd": 4594,
      "no": 4595,
      "right": 4596,
      "uter": 4597,
      "ĠÂ£": 4598,
      "īnh": 4599,
      "ĠthÃ¡c": 4600,
      "Ġbene": 4601,
      "Ġsá»¹": 4602,
      "inet": 4603,
      "Ġliá»ĩt": 4604,
      "Ġmult": 4605,
      "Ġmurder": 4606,
      "Ġfig": 4607,
      "Ġkháº£o": 4608,
      "oura": 4609,
      "ĠMill": 4610,
      "ĠBrown": 4611,
      "ĠlÃłng": 4612,
      "str": 4613,
      "imon": 4614,
      "Ġforward": 4615,
      "cean": 4616,
      "vert": 4617,
      "ĠKy": 4618,
      "ĠhoÃłng": 4619,
      "Ġthua": 4620,
      "TráºŃn": 4621,
      "âĢĵ": 4622,
      "ruise": 4623,
      "Ġrelig": 4624,
      "Ġrequired": 4625,
      "stitute": 4626,
      "Ġfiled": 4627,
      "ĠSenate": 4628,
      "Ġedit": 4629,
      "Ġjudge": 4630,
      "ĠiPhone": 4631,
      "37": 4632,
      "CÃ´": 4633,
      "IFA": 4634,
      "cow": 4635,
      "ky": 4636,
      "ĠÃ¡o": 4637,
      "Ġcoll": 4638,
      "ĠÄĳÃło": 4639,
      "Ġbudget": 4640,
      "Ġnor": 4641,
      "ĠsÃ´ng": 4642,
      "ĠláºŃt": 4643,
      "Ġlá»¥t": 4644,
      "Ġmission": 4645,
      "Ġpred": 4646,
      "ĠtrÆ°ng": 4647,
      "Ġpha": 4648,
      "Ġphá»ĳi": 4649,
      "Ġvá»Ŀi": 4650,
      "quare": 4651,
      "ĠCN": 4652,
      "Ġgir": 4653,
      "ĠcÃ³c": 4654,
      "etro": 4655,
      "ĠDar": 4656,
      "ĠKevin": 4657,
      "ĠThomas": 4658,
      "ordon": 4659,
      "Ġ37": 4660,
      "Ġcontain": 4661,
      "TrÆ°á»Ľc": 4662,
      "âĢĶ": 4663,
      "Ġintrodu": 4664,
      "Ġupon": 4665,
      "Ġkilling": 4666,
      "Ġreportedly": 4667,
      "ĠAbd": 4668,
      "Ġdetail": 4669,
      "Ġadditional": 4670,
      "Ġstrike": 4671,
      "iddle": 4672,
      "ĠRichard": 4673,
      "Ġchanges": 4674,
      "ĠYouTube": 4675,
      "Ġshooting": 4676,
      "Ġdeclared": 4677,
      "âĤ¬": 4678,
      "45": 4679,
      "cation": 4680,
      "rupt": 4681,
      "yers": 4682,
      "Ġice": 4683,
      "ngth": 4684,
      "ĠthÃº": 4685,
      "ĠthÆ°á»£ng": 4686,
      "ĠÄĳÃª": 4687,
      "Ġbla": 4688,
      "Ġnine": 4689,
      "rea": 4690,
      "ening": 4691,
      "Ġdone": 4692,
      "Ġdá»©t": 4693,
      "Ġdanger": 4694,
      "Ġfather": 4695,
      "ĠvÃłng": 4696,
      "ĠHáº¡": 4697,
      "ĠHel": 4698,
      "ffice": 4699,
      "ÄĲÃ³": 4700,
      "Ġadministration": 4701,
      "Ġprice": 4702,
      "ĠUSD": 4703,
      "Ġleading": 4704,
      "Ġfinancial": 4705,
      "ĠArmy": 4706,
      "ĠSpace": 4707,
      "Ġlawsu": 4708,
      "enezuel": 4709,
      "ĠGuant": 4710,
      "ĠÄĳuá»ķi": 4711,
      "urricane": 4712,
      "ĠLandmark": 4713,
      "Ġearthquake": 4714,
      "DP": 4715,
      "km": 4716,
      "mon": 4717,
      "rich": 4718,
      "Ġcoup": 4719,
      "Ġnu": 4720,
      "Ġsnow": 4721,
      "Ġhere": 4722,
      "Ġmid": 4723,
      "anamo": 4724,
      "Ġwalk": 4725,
      "Ġdro": 4726,
      "ĠdáºŃy": 4727,
      "Ġgá»ĳc": 4728,
      "itude": 4729,
      "Ġngáº§m": 4730,
      "Ġpháº«u": 4731,
      "Ã£ng": 4732,
      "oms": 4733,
      "ĠMer": 4734,
      "ĠABC": 4735,
      "stand": 4736,
      "ader": 4737,
      "Ġhá»ķ": 4738,
      "Ġxo": 4739,
      "irc": 4740,
      "ĠGar": 4741,
      "oph": 4742,
      "Ġcomb": 4743,
      "iana": 4744,
      "ĠStan": 4745,
      "Ġdisease": 4746,
      "Ġlá»Ľp": 4747,
      "Ġneigh": 4748,
      "Ġofficers": 4749,
      "Ġcris": 4750,
      "Ġoccup": 4751,
      "Ġplanned": 4752,
      "ĠReuters": 4753,
      "Ġdevelopment": 4754,
      "Ġcandidates": 4755,
      "Ġproposed": 4756,
      "ĠMelbourne": 4757,
      "Ġthousands": 4758,
      "Ġeuro": 4759,
      "ĠGuantanamo": 4760,
      "18": 4761,
      "arent": 4762,
      "nel": 4763,
      "uj": 4764,
      "Ġbas": 4765,
      "Ġband": 4766,
      "Ġwife": 4767,
      "Ġdáº¡ng": 4768,
      "Ġphe": 4769,
      "ĠphÃ¡i": 4770,
      "ĠSaf": 4771,
      "Ġquáº§n": 4772,
      "Ġreason": 4773,
      "Ġgiai": 4774,
      "ĠRob": 4775,
      "Ġcuá»ĳn": 4776,
      "ĠFin": 4777,
      "ula": 4778,
      "ĠVal": 4779,
      "ÄĲáº£ng": 4780,
      "NhÃ³m": 4781,
      "Ġprices": 4782,
      "Ġcarbon": 4783,
      "Ġbetter": 4784,
      "Ġnewsp": 4785,
      "ĠEnglish": 4786,
      "ĠClark": 4787,
      "Ġconsidered": 4788,
      "Ġcreated": 4789,
      "ĠBlair": 4790,
      "Ġestimated": 4791,
      "Ġillegal": 4792,
      "Ġcrisis": 4793,
      "48": 4794,
      "BI": 4795,
      "MS": 4796,
      "New": 4797,
      "TA": 4798,
      "ba": 4799,
      "draw": 4800,
      "eff": 4801,
      "ger": 4802,
      "ois": 4803,
      "«ng": 4804,
      "Ġtáº§m": 4805,
      "Ġcross": 4806,
      "Ġceleb": 4807,
      "ĠbÃŃ": 4808,
      "Ġnations": 4809,
      "Ġhous": 4810,
      "Ġhá»©a": 4811,
      "Ġtrack": 4812,
      "Ġtráº¡m": 4813,
      "Ġwid": 4814,
      "Ġwitness": 4815,
      "ĠdÆ°á»Ŀng": 4816,
      "orum": 4817,
      "arter": 4818,
      "alia": 4819,
      "ilt": 4820,
      "aya": 4821,
      "ĠCor": 4822,
      "ĠCongress": 4823,
      "ading": 4824,
      "ĠNá»Ļi": 4825,
      "ĠTÃ¡m": 4826,
      "ĠHáº£i": 4827,
      "vey": 4828,
      "ĠLao": 4829,
      "Ġisland": 4830,
      "ĠReg": 4831,
      "Ġthá»£": 4832,
      "Ġrain": 4833,
      "Ġseem": 4834,
      "Ġshown": 4835,
      "Ġ32": 4836,
      "Chá»ī": 4837,
      "Ġ55": 4838,
      "ĠTriá»ģu": 4839,
      "awi": 4840,
      "Ġ90": 4841,
      "Ġrespect": 4842,
      "Ġcapt": 4843,
      "Ġdetain": 4844,
      "Ġparticular": 4845,
      "Ġtá»ĵi": 4846,
      "ĠNorthern": 4847,
      "Ġvehicle": 4848,
      "Ġbroadcast": 4849,
      "ĠCEO": 4850,
      "usalem": 4851,
      "'ve": 4852,
      "Ba": 4853,
      "Lu": 4854,
      "ka": 4855,
      "va": 4856,
      "ĠcÃ¢n": 4857,
      "Ġcop": 4858,
      "Ġtha": 4859,
      "Ġahead": 4860,
      "ĠbÃ£i": 4861,
      "Ġlab": 4862,
      "Ġlives": 4863,
      "Ġlá»±a": 4864,
      "Ġmatter": 4865,
      "Ġcháº¥m": 4866,
      "Ġfre": 4867,
      "Ġfun": 4868,
      "Ġfoc": 4869,
      "Ġkháº¯c": 4870,
      "Ġrá»ĳi": 4871,
      "ications": 4872,
      "ĠAi": 4873,
      "ĠÄĳá»įc": 4874,
      "ural": 4875,
      "Ġforced": 4876,
      "ĠVenezuel": 4877,
      "lock": 4878,
      "Ġsoon": 4879,
      "Ġsocial": 4880,
      "Ġofficer": 4881,
      "airman": 4882,
      "Ġplayed": 4883,
      "Ġruns": 4884,
      "Ġduyá»ĩt": 4885,
      "Ġproduction": 4886,
      "ĠChris": 4887,
      "Ġpopular": 4888,
      "ĠCarol": 4889,
      "ĠNASA": 4890,
      "ĠNATO": 4891,
      "Ġeconomy": 4892,
      "Ġruling": 4893,
      "ĠAtlant": 4894,
      "ĠWilliams": 4895,
      "Ġorigin": 4896,
      "Ġdiscovered": 4897,
      "ĠMoscow": 4898,
      "Ġevacu": 4899,
      "Há»Ļi": 4900,
      "RA": 4901,
      "bass": 4902,
      "tra": 4903,
      "Ġer": 4904,
      "ĠcÅ©": 4905,
      "Ġcell": 4906,
      "Ġthiá»ĩu": 4907,
      "Ġthiá»ĥu": 4908,
      "ĠmÃłn": 4909,
      "Ġmoved": 4910,
      "Ġpos": 4911,
      "ĠchÄĥm": 4912,
      "Ġinternet": 4913,
      "Ġtowards": 4914,
      "ĠngÃłn": 4915,
      "ĠCro": 4916,
      "ĠAss": 4917,
      "aden": 4918,
      "ĠLH": 4919,
      "ĠRad": 4920,
      "ĠRice": 4921,
      "emi": 4922,
      "ĠFire": 4923,
      "oper": 4924,
      "ulf": 4925,
      "ortun": 4926,
      "abe": 4927,
      "ĠStreet": 4928,
      "ĠÄĳá»ģn": 4929,
      "ecess": 4930,
      "ĠZimbabwe": 4931,
      "Ġmanaged": 4932,
      "ĠPháº§n": 4933,
      "ĠNhÃ¢n": 4934,
      "Ġrole": 4935,
      "Ġaddress": 4936,
      "Ġnearby": 4937,
      "Ġrunning": 4938,
      "Ġassist": 4939,
      "vention": 4940,
      "ĠcÃºm": 4941,
      "Ġlonger": 4942,
      "ĠOrgan": 4943,
      "Ġjournalist": 4944,
      "Ġsuggested": 4945,
      "Ġsource": 4946,
      "Ġsources": 4947,
      "Ġpassengers": 4948,
      "Ġsingle": 4949,
      "ĠJerusalem": 4950,
      "elligence": 4951,
      "Ġná»Ļp": 4952,
      "ĠEducation": 4953,
      "bre": 4954,
      "nect": 4955,
      "ĠÄĳen": 4956,
      "Ġháº§m": 4957,
      "Ġmine": 4958,
      "ĠdÃ²ng": 4959,
      "Ġrá»«ng": 4960,
      "ĠSad": 4961,
      "Ġreally": 4962,
      "aded": 4963,
      "ĠÄĳá»¡": 4964,
      "emy": 4965,
      "ĠKim": 4966,
      "Ġapparent": 4967,
      "Ġairline": 4968,
      "key": 4969,
      "Ġwarned": 4970,
      "ĠGiáº£i": 4971,
      "PhÃ¡t": 4972,
      "Ġthroughout": 4973,
      "Ġeduc": 4974,
      "Ġestab": 4975,
      "fficial": 4976,
      "oeing": 4977,
      "Ġhomes": 4978,
      "Ġregarding": 4979,
      "selves": 4980,
      "ĠVictoria": 4981,
      "100": 4982,
      "Austral": 4983,
      "burg": 4984,
      "oáº£ng": 4985,
      "rol": 4986,
      "sun": 4987,
      "ux": 4988,
      "win": 4989,
      "Ġens": 4990,
      "Ġti": 4991,
      "Ġtá»Ļc": 4992,
      "Ġbur": 4993,
      "Ġbig": 4994,
      "Ġnáº¡i": 4995,
      "ĠsÃºt": 4996,
      "Ġvers": 4997,
      "ĠhÃ´n": 4998,
      "rel": 4999,
      "Ġdata": 5000,
      "Ġngáº¯n": 5001,
      "ĠSu": 5002,
      "ĠSol": 5003,
      "ĠMir": 5004,
      "Ġred": 5005,
      "chie": 5006,
      "ĠPost": 5007,
      "ĠPenn": 5008,
      "Ġeither": 5009,
      "Ġonce": 5010,
      "ett": 5011,
      "angu": 5012,
      "ĠGra": 5013,
      "ĠRes": 5014,
      "ĠDown": 5015,
      "ersey": 5016,
      "ĠKar": 5017,
      "ector": 5018,
      "á»įc": 5019,
      "Ġleave": 5020,
      "Ġunion": 5021,
      "Ġ400": 5022,
      "Ġparts": 5023,
      "Ġ1999": 5024,
      "Ġimpact": 5025,
      "Ġvoted": 5026,
      "ĠCoast": 5027,
      "Ġfootball": 5028,
      "Ġemployees": 5029,
      "Ġvui": 5030,
      "Ġstruck": 5031,
      "Ġindependent": 5032,
      "Ġmanager": 5033,
      "Ġexecutive": 5034,
      "known": 5035,
      "BÃ¡o": 5036,
      "gent": 5037,
      "hold": 5038,
      "hood": 5039,
      "mine": 5040,
      "oÃłi": 5041,
      "ues": 5042,
      "Ġthings": 5043,
      "ĠlÄ©nh": 5044,
      "ĠcháºŃm": 5045,
      "nhá»¯ng": 5046,
      "Ã£y": 5047,
      "oma": 5048,
      "ĠMary": 5049,
      "ĠRev": 5050,
      "ĠnghÃ¬n": 5051,
      "ĠEm": 5052,
      "ability": 5053,
      "ĠInt": 5054,
      "rents": 5055,
      "uba": 5056,
      "ĠAli": 5057,
      "Ġappeared": 5058,
      "encies": 5059,
      "Ġfourth": 5060,
      "Ġdidn": 5061,
      "Ġoperating": 5062,
      "ervative": 5063,
      "ĠAdam": 5064,
      "Ġremains": 5065,
      "Ġfilm": 5066,
      "Ġnegoti": 5067,
      "%,": 5068,
      "CS": 5069,
      "Do": 5070,
      "No": 5071,
      "down": 5072,
      "miss": 5073,
      "ym": 5074,
      "Ġhon": 5075,
      "ĠlÆ°á»£c": 5076,
      "Ġlack": 5077,
      "Ġpaper": 5078,
      "oul": 5079,
      "ĠCá»¥c": 5080,
      "ĠCass": 5081,
      "ental": 5082,
      "Ġquick": 5083,
      "ĠBoeing": 5084,
      "ĠÄĳá»ı": 5085,
      "iminal": 5086,
      "ĠHÃł": 5087,
      "Ġwhy": 5088,
      "Ġstating": 5089,
      "ĠGill": 5090,
      "ĠGMT": 5091,
      "ĠWestern": 5092,
      "Ġalways": 5093,
      "ĠOl": 5094,
      "ĠThá»ĳng": 5095,
      "ode": 5096,
      "ĠVa": 5097,
      "ension": 5098,
      "ĠAlbert": 5099,
      "Ġ75": 5100,
      "Ġcoach": 5101,
      "Ġclos": 5102,
      "acebook": 5103,
      "Ġminute": 5104,
      "Ġcannot": 5105,
      "Ġworked": 5106,
      "Ġsomething": 5107,
      "Ġlaws": 5108,
      "Ġconcer": 5109,
      "Ġapproach": 5110,
      "reedom": 5111,
      "ĠChristian": 5112,
      "ĠsÃ³c": 5113,
      "Ġbreak": 5114,
      "Ġlevels": 5115,
      "Ġrisk": 5116,
      "Ġdenied": 5117,
      "Ġimprove": 5118,
      "ĠScottish": 5119,
      "Ġmagn": 5120,
      "ĠMartin": 5121,
      "ĠVirginia": 5122,
      "ĠnuÃ´i": 5123,
      "LiÃªn": 5124,
      "VÃ¬": 5125,
      "pro": 5126,
      "Ãįt": 5127,
      "Ġesp": 5128,
      "ĠâĤ¬": 5129,
      "Ġachie": 5130,
      "Ġson": 5131,
      "Ġliving": 5132,
      "Ġpack": 5133,
      "Ġchá»Ĺ": 5134,
      "Ġtrá»Ļ": 5135,
      "isation": 5136,
      "Ġinch": 5137,
      "Ġrout": 5138,
      "ayed": 5139,
      "ĠCle": 5140,
      "ĠSum": 5141,
      "ĠAgency": 5142,
      "ĠBP": 5143,
      "ĠBor": 5144,
      "ura": 5145,
      "ĠHait": 5146,
      "Ġstation": 5147,
      "ĠFound": 5148,
      "Ġyour": 5149,
      "agg": 5150,
      "Ġsuper": 5151,
      "Ġprogress": 5152,
      "Ġweather": 5153,
      "Ġkhoan": 5154,
      "Ġ42": 5155,
      "Trung": 5156,
      "izon": 5157,
      "Ġremoved": 5158,
      "áº¹n": 5159,
      "Ġspoke": 5160,
      "Ġopened": 5161,
      "annel": 5162,
      "Ġallegations": 5163,
      "Ġmaintain": 5164,
      "Ġpressure": 5165,
      "Ġtalks": 5166,
      "Ġcheck": 5167,
      "Ġmedical": 5168,
      "ĠAssociated": 5169,
      "Ġtemper": 5170,
      "ufact": 5171,
      "Ġimmediately": 5172,
      "Ġdestroyed": 5173,
      "Ġcitizens": 5174,
      "14": 5175,
      "47": 5176,
      "HÆ¡n": 5177,
      "aut": 5178,
      "eil": 5179,
      "iet": 5180,
      "lict": 5181,
      "well": 5182,
      "zen": 5183,
      "ĠtÃłng": 5184,
      "ĠÄĳá»©c": 5185,
      "ĠnÃªu": 5186,
      "Ġsá»¥p": 5187,
      "ĠhÆ°": 5188,
      "Ġlive": 5189,
      "Ġmus": 5190,
      "Ġmother": 5191,
      "onz": 5192,
      "ĠtrÆ°á»£t": 5193,
      "ĠdÆ°": 5194,
      "Ġgave": 5195,
      "aro": 5196,
      "itan": 5197,
      "itzer": 5198,
      "Ġfired": 5199,
      "ĠkhÃ¡m": 5200,
      "Ġkhiáº¿u": 5201,
      "ĠkhÃ³a": 5202,
      "Ġanal": 5203,
      "Ġanti": 5204,
      "ĠCr": 5205,
      "ĠBul": 5206,
      "Ġbeat": 5207,
      "Ġxáº¥u": 5208,
      "utin": 5209,
      "ĠLi": 5210,
      "ift": 5211,
      "Ġleaving": 5212,
      "ĠInc": 5213,
      "Ġagreed": 5214,
      "Ġtá»ķn": 5215,
      "á»£i": 5216,
      "á»«a": 5217,
      "Ġboy": 5218,
      "ĠâĢĵ": 5219,
      "ernand": 5220,
      "Ġpoor": 5221,
      "ĠSanta": 5222,
      "ĠAfrican": 5223,
      "Ġhappened": 5224,
      "Ġengine": 5225,
      "Ġhotel": 5226,
      "Ġcertain": 5227,
      "Ġsuccessful": 5228,
      "ĠPhilippines": 5229,
      "Ġconstruction": 5230,
      "ĠFrancisco": 5231,
      "enko": 5232,
      "ĠFoundation": 5233,
      "?\"": 5234,
      "Cáº£": 5235,
      "Dá»±": 5236,
      "bum": 5237,
      "gn": 5238,
      "oid": 5239,
      "war": 5240,
      "ĠtÆ°á»Ŀng": 5241,
      "Ġthai": 5242,
      "Ġvá»ĳn": 5243,
      "Ġlear": 5244,
      "Ġmá»Ļ": 5245,
      "Ġmáº£nh": 5246,
      "anish": 5247,
      "Ġchance": 5248,
      "aters": 5249,
      "Ġong": 5250,
      "Ġgain": 5251,
      "Ġnháº¹": 5252,
      "Ġfir": 5253,
      "Ġfelt": 5254,
      "ĠtoÃ¡n": 5255,
      "astern": 5256,
      "oming": 5257,
      "ĠbuÃ´n": 5258,
      "Ġabs": 5259,
      "ecially": 5260,
      "ogn": 5261,
      "Ġchá»§ng": 5262,
      "Ġmeans": 5263,
      "Ġcommittee": 5264,
      "Ġinflu": 5265,
      "linois": 5266,
      "Ġcalling": 5267,
      "Ġconsum": 5268,
      "Ġ150": 5269,
      "Ġmilitants": 5270,
      "ification": 5271,
      "Although": 5272,
      "ĠLuÃ¢n": 5273,
      "Ġcausing": 5274,
      "Ġrestr": 5275,
      "Ġinstead": 5276,
      "Ġresponsibility": 5277,
      "aught": 5278,
      "Ġgrowth": 5279,
      "Ġrevealed": 5280,
      "Ġbenef": 5281,
      "Báº£n": 5282,
      "FP": 5283,
      "Go": 5284,
      "Pr": 5285,
      "You": 5286,
      "rish": 5287,
      "sáº½": 5288,
      "water": 5289,
      "Ġá»ĳng": 5290,
      "ĠÆ°u": 5291,
      "Ġurg": 5292,
      "Ġtsun": 5293,
      "Ġcoun": 5294,
      "ĠtháºŃn": 5295,
      "Ġnorm": 5296,
      "Ġnecess": 5297,
      "Ġchiáº¿u": 5298,
      "ato": 5299,
      "ĠdÆ°Æ¡ng": 5300,
      "esters": 5301,
      "Ġfem": 5302,
      "ĠCruise": 5303,
      "Ġreact": 5304,
      "ĠgiÃ¢y": 5305,
      "ĠTer": 5306,
      "ĠHall": 5307,
      "rog": 5308,
      "Ġwhose": 5309,
      "ĠLou": 5310,
      "ĠRoss": 5311,
      "ĠDirect": 5312,
      "Ġlá»«a": 5313,
      "rial": 5314,
      "Ġseats": 5315,
      "ĠOne": 5316,
      "Ġprosecut": 5317,
      "Ġexist": 5318,
      "ĠÄĲÃ´n": 5319,
      "ĠStar": 5320,
      "elled": 5321,
      "arks": 5322,
      "Ġ600": 5323,
      "Ġteach": 5324,
      "Ġprep": 5325,
      "ĠShar": 5326,
      "Ġminor": 5327,
      "Ġthemselves": 5328,
      "ĠWikileaks": 5329,
      "Ġscore": 5330,
      "ĠRoyal": 5331,
      "Ġterm": 5332,
      "Ġconclud": 5333,
      "Ġdepartment": 5334,
      "ĠParis": 5335,
      "Ġwanted": 5336,
      "Ġdemon": 5337,
      "ĠJapanese": 5338,
      "Ġcrashed": 5339,
      "Ġcivilians": 5340,
      "Ġfighting": 5341,
      "Ġconducted": 5342,
      "Ġcarrying": 5343,
      "Ġlittle": 5344,
      "ĠCNN": 5345,
      "Res": 5346,
      "VÃł": 5347,
      "ius": 5348,
      "pts": 5349,
      "pool": 5350,
      "Ġz": 5351,
      "Ġtiá»ģm": 5352,
      "Ġhiáº¿p": 5353,
      "ined": 5354,
      "Ġdáº§n": 5355,
      "Ġnháº¯m": 5356,
      "arth": 5357,
      "Ġkhá»ĳi": 5358,
      "ĠCont": 5359,
      "ĠShi": 5360,
      "ĠMe": 5361,
      "ĠgiÃ¡c": 5362,
      "ĠNo": 5363,
      "ĠxÃ³a": 5364,
      "ĠLord": 5365,
      "Ġconstitution": 5366,
      "ĠDay": 5367,
      "ĠDaily": 5368,
      "Ġraised": 5369,
      "ĠJim": 5370,
      "Ġleak": 5371,
      "ĠInstitute": 5372,
      "Ġexpressed": 5373,
      "iá»ħu": 5374,
      "ritory": 5375,
      "ption": 5376,
      "Ġcancer": 5377,
      "NgoÃłi": 5378,
      "Ġattacked": 5379,
      "áº¹t": 5380,
      "Ġrelations": 5381,
      "ĠCommun": 5382,
      "Ġentered": 5383,
      "ĠGuard": 5384,
      "Ġobtain": 5385,
      "Ġschools": 5386,
      "Ġallegedly": 5387,
      "Ġsuffered": 5388,
      "Ġobser": 5389,
      "Ġmessage": 5390,
      "Ġarticle": 5391,
      "ĠCassini": 5392,
      "Ġespecially": 5393,
      "300": 5394,
      "Ab": 5395,
      "Mc": 5396,
      "eng": 5397,
      "even": 5398,
      "ped": 5399,
      "ties": 5400,
      "ĠthÃ¡ch": 5401,
      "Ġvar": 5402,
      "Ġmer": 5403,
      "Ġpun": 5404,
      "ĠtrÃºng": 5405,
      "Ġtráº¯ng": 5406,
      "ories": 5407,
      "isters": 5408,
      "Ġansw": 5409,
      "ilty": 5410,
      "ongo": 5411,
      "ĠÄĳá»ĩ": 5412,
      "Ġstations": 5413,
      "ĠRos": 5414,
      "ĠDie": 5415,
      "ĠFederal": 5416,
      "ĠnghÃ¨o": 5417,
      "ĠJon": 5418,
      "Ġdoct": 5419,
      "oday": 5420,
      "apore": 5421,
      "Ġspent": 5422,
      "Ġspread": 5423,
      "Ġ48": 5424,
      "ountain": 5425,
      "Ġexpect": 5426,
      "Ġattention": 5427,
      "Ġprim": 5428,
      "cience": 5429,
      "awa": 5430,
      "Ġconflict": 5431,
      "ova": 5432,
      "Ġvotes": 5433,
      "Ġsupported": 5434,
      "ĠAirport": 5435,
      "Ġ1980": 5436,
      "gypt": 5437,
      "Ġprotests": 5438,
      "Ġpropos": 5439,
      "espite": 5440,
      "Ġreduce": 5441,
      "ĠAssociation": 5442,
      "orporation": 5443,
      "Ġordered": 5444,
      "Ġexperience": 5445,
      "ĠVenezuela": 5446,
      ":\"": 5447,
      "Am": 5448,
      "SE": 5449,
      "come": 5450,
      "oÃłn": 5451,
      "time": 5452,
      "á»ŀ": 5453,
      "Ġcá»Ŀ": 5454,
      "ĠÄĳÃ²i": 5455,
      "Ġbin": 5456,
      "Ġná»Ĺi": 5457,
      "ĠvÃŃ": 5458,
      "Ġvess": 5459,
      "Ġpurch": 5460,
      "ĠtrÄĥng": 5461,
      "orial": 5462,
      "Ġgra": 5463,
      "Ġfly": 5464,
      "Ġfra": 5465,
      "Ġngá»±a": 5466,
      "Ġphun": 5467,
      "ĠSri": 5468,
      "Ġquoted": 5469,
      "Ġquarter": 5470,
      "ĠBur": 5471,
      "ĠBuff": 5472,
      "Ġgiáº£n": 5473,
      "ado": 5474,
      "ĠÄĳá»īnh": 5475,
      "ĠHÃ²a": 5476,
      "Ġxanh": 5477,
      "Ġwithdraw": 5478,
      "Ġmá»«ng": 5479,
      "ipe": 5480,
      "achus": 5481,
      "Ġrecogn": 5482,
      "Ġsecretary": 5483,
      "ushed": 5484,
      "Ġanything": 5485,
      "Ġhá»ıng": 5486,
      "Ġshows": 5487,
      "Ġended": 5488,
      "rowd": 5489,
      "ĠSchool": 5490,
      "Ġtransport": 5491,
      "Ġheard": 5492,
      "ĠOlympics": 5493,
      "Ġmeasures": 5494,
      "ĠLoan": 5495,
      "ĠTaiwan": 5496,
      "Ġprivate": 5497,
      "Ġenvironmental": 5498,
      "ĠIllinois": 5499,
      "Ġlegislation": 5500,
      "ĠService": 5501,
      "ĠJustice": 5502,
      "ĠPacific": 5503,
      "DT": 5504,
      "Many": 5505,
      "Other": 5506,
      "PA": 5507,
      "So": 5508,
      "house": 5509,
      "kes": 5510,
      "lad": 5511,
      "ĠtÃ¡": 5512,
      "Ġtung": 5513,
      "Ġturned": 5514,
      "Ġcy": 5515,
      "Ġcaught": 5516,
      "Ġbad": 5517,
      "ĠbÃ¹ng": 5518,
      "Ġnom": 5519,
      "Ġhi": 5520,
      "Ġmale": 5521,
      "Ġdiv": 5522,
      "Ġinquiry": 5523,
      "Ġngá»¯": 5524,
      "ĠngÆ°Æ¡": 5525,
      "Ġran": 5526,
      "Ġrich": 5527,
      "ouble": 5528,
      "ĠCross": 5529,
      "ĠSir": 5530,
      "Ġrev": 5531,
      "ĠAW": 5532,
      "ĠNetwork": 5533,
      "ctions": 5534,
      "ros": 5535,
      "Ġstar": 5536,
      "ĠGe": 5537,
      "illa": 5538,
      "ullah": 5539,
      "Ġassoci": 5540,
      "rier": 5541,
      "Ġdog": 5542,
      "essor": 5543,
      "Ġjury": 5544,
      "ipl": 5545,
      "Ġtraffic": 5546,
      "Ġmanufact": 5547,
      "Ġitself": 5548,
      "ahoo": 5549,
      "Ġreporters": 5550,
      "Ġevents": 5551,
      "Ġannual": 5552,
      "Ġ1997": 5553,
      "Ġprovided": 5554,
      "Ġhighest": 5555,
      "Ġprotect": 5556,
      "Ġextra": 5557,
      "Ġsuspect": 5558,
      "Ġcolle": 5559,
      "Ġbroke": 5560,
      "aniel": 5561,
      "Ġposted": 5562,
      "Ġpresented": 5563,
      "Ġcareer": 5564,
      "ĠForce": 5565,
      "ville": 5566,
      "ĠSingh": 5567,
      "ĠSingapore": 5568,
      "Ġflooding": 5569,
      "Ġsenior": 5570,
      "ĠWindows": 5571,
      "Be": 5572,
      "Despite": 5573,
      "Sá»ĳ": 5574,
      "TÃ²a": 5575,
      "hing": 5576,
      "noon": 5577,
      "rad": 5578,
      "Ġcouncil": 5579,
      "Ġbigg": 5580,
      "ĠhÃłi": 5581,
      "erb": 5582,
      "Ġmicro": 5583,
      "Ġtrade": 5584,
      "Ġkick": 5585,
      "ĠdÃłng": 5586,
      "ĠphÃ¡o": 5587,
      "ĠrÃło": 5588,
      "Ã£nh": 5589,
      "ĠCarl": 5590,
      "change": 5591,
      "ĠBill": 5592,
      "oli": 5593,
      "olis": 5594,
      "Ġhá»ģ": 5595,
      "ĠHÃłn": 5596,
      "ĠGonz": 5597,
      "astic": 5598,
      "abul": 5599,
      "iple": 5600,
      "Ġclimate": 5601,
      "Ġmean": 5602,
      "Ġserved": 5603,
      "ĠUSA": 5604,
      "Ġcommon": 5605,
      "Ġcarried": 5606,
      "Ġairport": 5607,
      "ricult": 5608,
      "Ġimplement": 5609,
      "ugby": 5610,
      "ĠGrand": 5611,
      "Ġrefused": 5612,
      "Ġdá»įc": 5613,
      "Ġdeveloped": 5614,
      "ĠManchester": 5615,
      "Ġguilty": 5616,
      "Ġpolicies": 5617,
      "Ġquestions": 5618,
      "Ġshortly": 5619,
      "Ġtreo": 5620,
      "Ġidentified": 5621,
      "ĠSomalia": 5622,
      "ĠMassachus": 5623,
      "Ġwounded": 5624,
      "ĠTwitter": 5625,
      "Ġcustomers": 5626,
      "Ġpotential": 5627,
      "Ġlawsuit": 5628,
      "Ġcopy": 5629,
      "ĠLHQ": 5630,
      "ĠRadio": 5631,
      "ĠHaiti": 5632,
      "Ġtsunami": 5633,
      "Ġfemale": 5634,
      "ĠBuffalo": 5635,
      "IS": 5636,
      "Lay": 5637,
      "RO": 5638,
      "Tá»ķ": 5639,
      "Tá»«": 5640,
      "bol": 5641,
      "bell": 5642,
      "li": 5643,
      "rig": 5644,
      "rant": 5645,
      "ĠthÃ¹ng": 5646,
      "Ġláº¯ng": 5647,
      "onia": 5648,
      "Ġcháº·t": 5649,
      "Ġdáº£i": 5650,
      "Ġdiá»ĩt": 5651,
      "ĠkhuyÃªn": 5652,
      "Ġkhiá»ĥn": 5653,
      "Ġngang": 5654,
      "ille": 5655,
      "ilities": 5656,
      "ThÃ´ng": 5657,
      "ĠMiddle": 5658,
      "ĠBob": 5659,
      "Ġ\"[": 5660,
      "ĠPap": 5661,
      "ĠNic": 5662,
      "ĠTy": 5663,
      "ĠHen": 5664,
      "ĠHiáº¿n": 5665,
      "ĠGen": 5666,
      "ĠDistrict": 5667,
      "ĠFA": 5668,
      "ĠFacebook": 5669,
      "ĠJersey": 5670,
      "ags": 5671,
      "ĠEr": 5672,
      "ĠEgypt": 5673,
      "ateg": 5674,
      "Ġdoing": 5675,
      "uda": 5676,
      "ords": 5677,
      "Ġarms": 5678,
      "Ġafternoon": 5679,
      "Ġcover": 5680,
      "Ġclub": 5681,
      "azir": 5682,
      "ĠArgent": 5683,
      "Ġfeel": 5684,
      "Ġwinner": 5685,
      "Ġinsp": 5686,
      "Ġincreasing": 5687,
      "ĠAsia": 5688,
      "Ġbuildings": 5689,
      "ĠCentral": 5690,
      "ĠSeattle": 5691,
      "Ġactivity": 5692,
      "aska": 5693,
      "Ġpaid": 5694,
      "iscovery": 5695,
      "ĠPlan": 5696,
      "Ġkilomet": 5697,
      "Ġsatell": 5698,
      "ĠForeign": 5699,
      "ĠColombia": 5700,
      "Ġencoura": 5701,
      "Ġnorthern": 5702,
      "Ġquickly": 5703,
      "Ġvarious": 5704,
      "HL": 5705,
      "Káº¿t": 5706,
      "Re": 5707,
      "bed": 5708,
      "ĠtÃº": 5709,
      "Ġcle": 5710,
      "Ġcáº¥t": 5711,
      "Ġná»£": 5712,
      "Ġcharge": 5713,
      "Ġtráº§n": 5714,
      "Ġtruck": 5715,
      "atal": 5716,
      "Ġká»ī": 5717,
      "ĠkÃŃn": 5718,
      "Ġkáº¹t": 5719,
      "Ġdiá»ħu": 5720,
      "iá»Ŀ": 5721,
      "Ġnhá»Ŀ": 5722,
      "alt": 5723,
      "á»§i": 5724,
      "Ġphys": 5725,
      "Ġrob": 5726,
      "ĠCáºŃp": 5727,
      "ĠCap": 5728,
      "ĠComp": 5729,
      "á»ĭnh": 5730,
      "ĠAM": 5731,
      "ĠAP": 5732,
      "ĠBull": 5733,
      "ĠNS": 5734,
      "ĠHer": 5735,
      "etts": 5736,
      "Ġstock": 5737,
      "ĠGre": 5738,
      "ĠGordon": 5739,
      "ĠDan": 5740,
      "emb": 5741,
      "Ġcul": 5742,
      "ĠFernand": 5743,
      "Ġlá»ĵ": 5744,
      "iance": 5745,
      "ĠOhi": 5746,
      "ĠOffice": 5747,
      "Ġproced": 5748,
      "Ġspill": 5749,
      "ĠtuÃ¢n": 5750,
      "Ġcontribut": 5751,
      "ĠYahoo": 5752,
      "ĠTráº¯ng": 5753,
      "acter": 5754,
      "Ġministry": 5755,
      "nedy": 5756,
      "Ġ1998": 5757,
      "Ġflu": 5758,
      "ĠâĢľ": 5759,
      "Ġlawyer": 5760,
      "Ġdefend": 5761,
      "Ġprotesters": 5762,
      "Khoáº£ng": 5763,
      "Ġgetting": 5764,
      "Ġdamaged": 5765,
      "Ġcritical": 5766,
      "Ġhearing": 5767,
      "Ġcamera": 5768,
      "Ġconsider": 5769,
      "Ġrocket": 5770,
      "Ġcriticism": 5771,
      "Ġparents": 5772,
      "ĠSteve": 5773,
      "ĠIslamic": 5774,
      "Ġhelicopter": 5775,
      "Ġcelebr": 5776,
      "Ġhouses": 5777,
      "ĠOhio": 5778,
      "',": 5779,
      "'ll": 5780,
      "BS": 5781,
      "DF": 5782,
      "Earlier": 5783,
      "Last": 5784,
      "Mich": 5785,
      "SP": 5786,
      "bur": 5787,
      "cÃ¡c": 5788,
      "fire": 5789,
      "face": 5790,
      "gar": 5791,
      "ients": 5792,
      "round": 5793,
      "wick": 5794,
      "Ġcirc": 5795,
      "Ġcrowd": 5796,
      "Ġtháº»": 5797,
      "ĠÄĳáºŃp": 5798,
      "ĠsÃ¡nh": 5799,
      "Ġvay": 5800,
      "Ġlat": 5801,
      "ĠmÃ¡u": 5802,
      "ano": 5803,
      "Ġchá»ĵng": 5804,
      "Ġkey": 5805,
      "isions": 5806,
      "esh": 5807,
      "itz": 5808,
      "ĠtoÃł": 5809,
      "Ãªnh": 5810,
      "Ġrather": 5811,
      "omb": 5812,
      "ĠCIA": 5813,
      "ĠSar": 5814,
      "ĠSur": 5815,
      "ĠHa": 5816,
      "ĠLaden": 5817,
      "ĠRom": 5818,
      "ĠRick": 5819,
      "istic": 5820,
      "pping": 5821,
      "ĠVer": 5822,
      "Ġresolution": 5823,
      "Ġ195": 5824,
      "Ġbuá»ĵn": 5825,
      "ÄĲáº¡i": 5826,
      "Ġattend": 5827,
      "Ġdismiss": 5828,
      "Ġperfor": 5829,
      "Ġincludes": 5830,
      "Ġsupply": 5831,
      "Ġanyone": 5832,
      "Ġboat": 5833,
      "Ġhigher": 5834,
      "ĠKhÃ´ng": 5835,
      "Ġplayer": 5836,
      "Ġplayers": 5837,
      "ĠAbu": 5838,
      "Ġrequire": 5839,
      "ĠLuáºŃt": 5840,
      "Ġcentral": 5841,
      "Ġrecorded": 5842,
      "Ġhuá»ĳng": 5843,
      "ĠgÃ³i": 5844,
      "ĠSantorum": 5845,
      "ĠBlack": 5846,
      "ĠnhuáºŃn": 5847,
      "Ġcourse": 5848,
      "Ġhundreds": 5849,
      "errari": 5850,
      "Ġrule": 5851,
      "Ġcoalition": 5852,
      "ĠSafety": 5853,
      "ĠLouis": 5854,
      "17": 5855,
      "Both": 5856,
      "bus": 5857,
      "band": 5858,
      "bul": 5859,
      "cus": 5860,
      "eera": 5861,
      "ĠtáºŃn": 5862,
      "Ġcard": 5863,
      "Ġaverage": 5864,
      "Ġself": 5865,
      "Ġlower": 5866,
      "Ġlines": 5867,
      "ĠmiÃªu": 5868,
      "Ġple": 5869,
      "anke": 5870,
      "Ġtried": 5871,
      "Ġtrá»«ng": 5872,
      "enz": 5873,
      "Ġdáº¡y": 5874,
      "Ġdistrict": 5875,
      "Ġdipl": 5876,
      "ĠCamb": 5877,
      "ĠSc": 5878,
      "á»ĭp": 5879,
      "Ġgiving": 5880,
      "imin": 5881,
      "ĠTime": 5882,
      "ĠWin": 5883,
      "rie": 5884,
      "rief": 5885,
      "Ġcáº£ng": 5886,
      "abinet": 5887,
      "Ġunc": 5888,
      "Ġ34": 5889,
      "Ġoffer": 5890,
      "Ġoffered": 5891,
      "Ġadvert": 5892,
      "Ġrecomm": 5893,
      "venue": 5894,
      "Ġelected": 5895,
      "ĠMcG": 5896,
      "Ġcrime": 5897,
      "Ġcriminal": 5898,
      "Ġconsist": 5899,
      "Ġplaced": 5900,
      "Ġdefeated": 5901,
      "Ġrelated": 5902,
      "Ġassault": 5903,
      "ĠPeople": 5904,
      "pei": 5905,
      "Ġdriving": 5906,
      "Ġbombing": 5907,
      "Ġobject": 5908,
      "Ġruled": 5909,
      "Ġterrorist": 5910,
      "ĠKennedy": 5911,
      "Ġgener": 5912,
      "ĠTurkey": 5913,
      "Ġpresence": 5914,
      "Ġradio": 5915,
      "ĠAbbott": 5916,
      "Ġscientists": 5917,
      "ĠStephen": 5918,
      "Ġdollars": 5919,
      "ĠLinux": 5920,
      "Ġgirl": 5921,
      "Ġdetails": 5922,
      "LuáºŃt": 5923,
      "ĠSaddam": 5924,
      "Ġfraud": 5925,
      "ĠMassachusetts": 5926,
      "Ban": 5927,
      "cÃ³": 5928,
      "ker": 5929,
      "xford": 5930,
      "Ġill": 5931,
      "ĠthÆ¡": 5932,
      "ĠsiÃªu": 5933,
      "Ġsale": 5934,
      "ĠlÄĥm": 5935,
      "ĠmÃ¡i": 5936,
      "reck": 5937,
      "Ġwear": 5938,
      "Ġgáº¯n": 5939,
      "ĠngáºŃp": 5940,
      "Ġanim": 5941,
      "ĠCra": 5942,
      "ĠCuba": 5943,
      "ĠSam": 5944,
      "ĠMu": 5945,
      "ament": 5946,
      "ĠBas": 5947,
      "ĠBah": 5948,
      "ĠgiÃ¡n": 5949,
      "ola": 5950,
      "etic": 5951,
      "ĠLaw": 5952,
      "unt": 5953,
      "ĠRights": 5954,
      "ĠRudd": 5955,
      "osn": 5956,
      "ĠJul": 5957,
      "aki": 5958,
      "Ġdeep": 5959,
      "ĠCharl": 5960,
      "ĠChief": 5961,
      "Ġsea": 5962,
      "Ġproceed": 5963,
      "ums": 5964,
      "sequ": 5965,
      "Ġunable": 5966,
      "aps": 5967,
      "Ġresign": 5968,
      "Ġbuilt": 5969,
      "Ġaged": 5970,
      "Ġjoint": 5971,
      "Ġ43": 5972,
      "Ġarmed": 5973,
      "Ġ51": 5974,
      "Ġ57": 5975,
      "aves": 5976,
      "Ġcompared": 5977,
      "Ġpoll": 5978,
      "Ġattorney": 5979,
      "Ġintelligence": 5980,
      "ĠPhÃ²ng": 5981,
      "ampton": 5982,
      "Ġvá»ĭnh": 5983,
      "azeera": 5984,
      "ocal": 5985,
      "Ġroom": 5986,
      "ĠSpanish": 5987,
      "Ġchuá»Ĺi": 5988,
      "Ġowner": 5989,
      "Ġpersonal": 5990,
      "Ġeffects": 5991,
      "Ġactivities": 5992,
      "Ġlooking": 5993,
      "ĠSaudi": 5994,
      "Ġindicated": 5995,
      "Ġblocked": 5996,
      "Ġkilome": 5997,
      "ĠItalian": 5998,
      "Ġfriends": 5999,
      "Ġmassive": 6000,
      "Ġcredit": 6001,
      "ylvan": 6002,
      "ĠDelhi": 6003,
      "Ġpilot": 6004,
      "Ġfavour": 6005,
      "Ġdropped": 6006,
      "Ġnewspaper": 6007,
      "Ġensure": 6008,
      "Ġtrá»Ļm": 6009,
      "Ġmusic": 6010,
      "Ġnecessary": 6011,
      "ĠDiego": 6012,
      "Ġlatest": 6013,
      "CÆ¡": 6014,
      "Microsoft": 6015,
      "OA": 6016,
      "back": 6017,
      "lus": 6018,
      "sá»±": 6019,
      "xin": 6020,
      "Ġtit": 6021,
      "ĠtÃª": 6022,
      "Ġtáº¯t": 6023,
      "Ġthing": 6024,
      "ĠÄĳá»ĳt": 6025,
      "Ġbuy": 6026,
      "Ġsil": 6027,
      "ĠhÆ°u": 6028,
      "Ġlic": 6029,
      "ĠláºŃn": 6030,
      "Ġlif": 6031,
      "ĠlÃ¢m": 6032,
      "Ġpain": 6033,
      "rees": 6034,
      "ĠchÃ¬m": 6035,
      "ĠdÃ²": 6036,
      "itt": 6037,
      "ĠkhÃ¡n": 6038,
      "ĠngÅ©": 6039,
      "Ãªng": 6040,
      "Ġoften": 6041,
      "Ġphiáº¿n": 6042,
      "Ġphone": 6043,
      "ĠrÆ°á»£": 6044,
      "ication": 6045,
      "ider": 6046,
      "ĠAsh": 6047,
      "urrent": 6048,
      "ĠHospital": 6049,
      "iro": 6050,
      "ĠGil": 6051,
      "ĠDev": 6052,
      "ĠFIFA": 6053,
      "ully": 6054,
      "ĠUk": 6055,
      "akh": 6056,
      "ĠOp": 6057,
      "ĠOper": 6058,
      "ĠOtt": 6059,
      "ources": 6060,
      "Cho": 6061,
      "Ġmá»Ŀi": 6062,
      "ecial": 6063,
      "Ġadmitted": 6064,
      "mann": 6065,
      "Ġdiss": 6066,
      "Ġgovernments": 6067,
      "Ġcommission": 6068,
      "Ġsupporters": 6069,
      "Ġ1995": 6070,
      "Ġflights": 6071,
      "Ġweekend": 6072,
      "ĠPrince": 6073,
      "Ġstarting": 6074,
      "Ġsevere": 6075,
      "ĠBrad": 6076,
      "Ġsubject": 6077,
      "Ġopportun": 6078,
      "Ġspecies": 6079,
      "Ġreform": 6080,
      "Ġmovement": 6081,
      "Ġrules": 6082,
      "Ġprofession": 6083,
      "Ġfunding": 6084,
      "Ġpassenger": 6085,
      "Ġindividuals": 6086,
      "Ġbeginning": 6087,
      "Ġcomplete": 6088,
      "Ġintroduced": 6089,
      "Ġfocus": 6090,
      "Ġbiggest": 6091,
      "ylvania": 6092,
      "ĠrÆ°á»£u": 6093,
      "26": 6094,
      "Ad": 6095,
      "Most": 6096,
      "Official": 6097,
      "ares": 6098,
      "aren": 6099,
      "dy": 6100,
      "fighters": 6101,
      "iqu": 6102,
      "kish": 6103,
      "oing": 6104,
      "ores": 6105,
      "Ġtank": 6106,
      "ĠcÄĥng": 6107,
      "Ġaward": 6108,
      "ĠnÃ¡t": 6109,
      "Ġnatur": 6110,
      "Ġsending": 6111,
      "Ġvia": 6112,
      "erve": 6113,
      "ĠlÃ¢n": 6114,
      "Ġmis": 6115,
      "Ġpick": 6116,
      "Ġtrad": 6117,
      "ena": 6118,
      "Ġdoub": 6119,
      "Ġkhung": 6120,
      "Ġngá»§": 6121,
      "ĠngÃłi": 6122,
      "Ġngá»«a": 6123,
      "Ġphot": 6124,
      "ĠSab": 6125,
      "ĠSimon": 6126,
      "ĠquÃ½": 6127,
      "ĠAff": 6128,
      "adium": 6129,
      "ĠPre": 6130,
      "ĠPri": 6131,
      "Ġep": 6132,
      "ĠxÃ¡": 6133,
      "irth": 6134,
      "cture": 6135,
      "igan": 6136,
      "ĠLew": 6137,
      "ĠLáº¡p": 6138,
      "ĠGold": 6139,
      "ĠDaniel": 6140,
      "ĠDiscovery": 6141,
      "ĠWil": 6142,
      "ĠWeb": 6143,
      "Ġhoáº¡i": 6144,
      "Ġcomments": 6145,
      "arta": 6146,
      "ĠÄĲáº¡o": 6147,
      "ably": 6148,
      "Ġunknown": 6149,
      "Ġ38": 6150,
      "Ġagencies": 6151,
      "Ġjail": 6152,
      "avi": 6153,
      "lands": 6154,
      "Ġcontent": 6155,
      "mercial": 6156,
      "ibly": 6157,
      "mance": 6158,
      "Ġdisapp": 6159,
      "Ġprime": 6160,
      "arest": 6161,
      "ĠAnn": 6162,
      "Ġcalls": 6163,
      "keep": 6164,
      "ĠIranian": 6165,
      "Ġstatus": 6166,
      "ribution": 6167,
      "ference": 6168,
      "Ġneeds": 6169,
      "ĠPeters": 6170,
      "Ġsuspected": 6171,
      "Ġdeliver": 6172,
      "Ġsites": 6173,
      "Ġsafe": 6174,
      "Ġterrorism": 6175,
      "Ġcreate": 6176,
      "ĠTeam": 6177,
      "vili": 6178,
      "Ġoriginal": 6179,
      "NghiÃªn": 6180,
      "Ġpurp": 6181,
      "ĠLiberal": 6182,
      "Ġreligious": 6183,
      "ĠAtlanta": 6184,
      "Ġevacuated": 6185,
      "ĠVaile": 6186,
      "Ġmagnitude": 6187,
      "ĠDirector": 6188,
      "21": 6189,
      "President": 6190,
      "east": 6191,
      "ih": 6192,
      "sen": 6193,
      "vest": 6194,
      "ĠtÃ¡ch": 6195,
      "Ġcáº¥u": 6196,
      "ĠbáºŃt": 6197,
      "Ġsan": 6198,
      "Ġmakes": 6199,
      "Ġkind": 6200,
      "Ġwreck": 6201,
      "oral": 6202,
      "Ġgáº¥u": 6203,
      "arr": 6204,
      "asons": 6205,
      "Ġrise": 6206,
      "icut": 6207,
      "ĠCam": 6208,
      "ĠCape": 6209,
      "ĠMun": 6210,
      "ĠBall": 6211,
      "ĠgiÃłu": 6212,
      "ĠPutin": 6213,
      "ĠNa": 6214,
      "ĠLake": 6215,
      "ĠLank": 6216,
      "ĠGod": 6217,
      "ĠGab": 6218,
      "ĠGames": 6219,
      "Ġconn": 6220,
      "raine": 6221,
      "ĠWHO": 6222,
      "Ġdeg": 6223,
      "Ġprobab": 6224,
      "Ġexc": 6225,
      "Ġnothing": 6226,
      "Ġresol": 6227,
      "Ġ39": 6228,
      "Ä©a": 6229,
      "Chá»§": 6230,
      "Ġplant": 6231,
      "Ġcomplet": 6232,
      "Ġsecret": 6233,
      "Ġdecl": 6234,
      "erald": 6235,
      "ĠProt": 6236,
      "Ġbelow": 6237,
      "Ġprovin": 6238,
      "ground": 6239,
      "ĠAirlines": 6240,
      "Ġreceive": 6241,
      "Ġapproved": 6242,
      "ĠConnect": 6243,
      "Ġpolitic": 6244,
      "Ġorganiz": 6245,
      "ĠReid": 6246,
      "ĠkÃ©m": 6247,
      "Ġdeveloping": 6248,
      "Ġattempted": 6249,
      "ĠDemocrats": 6250,
      "Ġtraining": 6251,
      "Ġcosts": 6252,
      "Ġdocuments": 6253,
      "Ġwinds": 6254,
      "Ġvehicles": 6255,
      "ĠHillary": 6256,
      "Ġconvicted": 6257,
      "Ġcerem": 6258,
      "ĠSupreme": 6259,
      "ĠItaly": 6260,
      "ĠTaipei": 6261,
      "ĠLabor": 6262,
      "Ġproperty": 6263,
      "Ġarrived": 6264,
      "Ġcontroversial": 6265,
      "Ġcollaps": 6266,
      "Ġvillage": 6267,
      "Ġoriginally": 6268,
      "ĠArgentina": 6269,
      "ĠRomney": 6270,
      "CC": 6271,
      "General": 6272,
      "Mar": 6273,
      "Over": 6274,
      "Tu": 6275,
      "Tá»Ŀ": 6276,
      "body": 6277,
      "eed": 6278,
      "kin": 6279,
      "uan": 6280,
      "west": 6281,
      "woman": 6282,
      "Ġ...": 6283,
      "ĠthÃ¡nh": 6284,
      "Ġbott": 6285,
      "Ġbattle": 6286,
      "Ġsouthern": 6287,
      "ĠhÃ¢m": 6288,
      "onn": 6289,
      "oned": 6290,
      "Ġpers": 6291,
      "Ġchá»¯": 6292,
      "ĠchÃło": 6293,
      "Ġchairman": 6294,
      "á»Ļn": 6295,
      "Ġga": 6296,
      "iting": 6297,
      "Ġfast": 6298,
      "Ġkhá»ķng": 6299,
      "Ã³n": 6300,
      "ĠCáº£nh": 6301,
      "ĠSquare": 6302,
      "ĠMS": 6303,
      "ĠMag": 6304,
      "ĠMedia": 6305,
      "ĠMajor": 6306,
      "Ġren": 6307,
      "ĠAst": 6308,
      "ĠAth": 6309,
      "amas": 6310,
      "ĠBol": 6311,
      "ĠPan": 6312,
      "ĠPublic": 6313,
      "irates": 6314,
      "ĠGib": 6315,
      "ĠGulf": 6316,
      "illed": 6317,
      "racy": 6318,
      "ĠWood": 6319,
      "Ġalbum": 6320,
      "esty": 6321,
      "ĠKabul": 6322,
      "ĠJac": 6323,
      "ĠChampionship": 6324,
      "ĠThiÃªn": 6325,
      "ĠVan": 6326,
      "alled": 6327,
      "QuÃ¢n": 6328,
      "Ġ44": 6329,
      "Ġarmy": 6330,
      "ashvili": 6331,
      "Ġprem": 6332,
      "Ġminim": 6333,
      "Ġenfor": 6334,
      "Ġsurround": 6335,
      "Ġvoting": 6336,
      "Another": 6337,
      "Ġinvestigating": 6338,
      "What": 6339,
      "Ġowned": 6340,
      "ancy": 6341,
      "Ġremaining": 6342,
      "Ġincidents": 6343,
      "Ġtests": 6344,
      "Ġeverything": 6345,
      "ĠSea": 6346,
      "Ġopening": 6347,
      "ĠKenya": 6348,
      "ĠMalays": 6349,
      "Ġresponded": 6350,
      "ĠMohammed": 6351,
      "Ġseparate": 6352,
      "ĠCampbell": 6353,
      "Ġproducts": 6354,
      "Ġsexual": 6355,
      "Ġblack": 6356,
      "Ġestablish": 6357,
      "Ġproposal": 6358,
      "ĠAWB": 6359,
      "Officials": 6360,
      "28": 6361,
      "70": 6362,
      "Bá»ĳn": 6363,
      "Co": 6364,
      "Donald": 6365,
      "HÃ£ng": 6366,
      "Iran": 6367,
      "Pro": 6368,
      "iy": 6369,
      "lig": 6370,
      "run": 6371,
      "sylvania": 6372,
      "torney": 6373,
      "¥t": 6374,
      "Ġáº©n": 6375,
      "ĠÄĳá»ĳng": 6376,
      "Ġbow": 6377,
      "ĠbÆ¡i": 6378,
      "Ġburn": 6379,
      "Ġhar": 6380,
      "ona": 6381,
      "atra": 6382,
      "Ġkept": 6383,
      "Ġwel": 6384,
      "Ġworth": 6385,
      "Ġgáº¥p": 6386,
      "Ġgreen": 6387,
      "Ġnháº¯n": 6388,
      "arra": 6389,
      "itation": 6390,
      "Ġkhá»©": 6391,
      "ĠkhÆ¡i": 6392,
      "asion": 6393,
      "iled": 6394,
      "omar": 6395,
      "aylor": 6396,
      "ĠCop": 6397,
      "ĠMeh": 6398,
      "ĠMyan": 6399,
      "Ġrejected": 6400,
      "state": 6401,
      "stant": 6402,
      "Ġbeg": 6403,
      "ĠHI": 6404,
      "ĠHor": 6405,
      "Ġstory": 6406,
      "ĠGia": 6407,
      "ĠGree": 6408,
      "ĠRog": 6409,
      "ĠDi": 6410,
      "rack": 6411,
      "á»¥i": 6412,
      "ulate": 6413,
      "ulated": 6414,
      "ĠKaz": 6415,
      "ĠOxford": 6416,
      "ĠThá»©": 6417,
      "ĠThai": 6418,
      "ĠVÄĥn": 6419,
      "Ġspot": 6420,
      "oking": 6421,
      "Ġwhole": 6422,
      "Ġoutbre": 6423,
      "iction": 6424,
      "ictions": 6425,
      "Ġimages": 6426,
      "issions": 6427,
      "nings": 6428,
      "Ġmeth": 6429,
      "obile": 6430,
      "ĠMinnes": 6431,
      "Ġemail": 6432,
      "Ġunderstand": 6433,
      "Ġreporter": 6434,
      "Ġscoring": 6435,
      "ĠArmen": 6436,
      "Ġclaiming": 6437,
      "Ġdefence": 6438,
      "ĠRock": 6439,
      "Ġseconds": 6440,
      "Ġstudent": 6441,
      "Ġreceiving": 6442,
      "ĠAdministration": 6443,
      "Ġopin": 6444,
      "Ġextrem": 6445,
      "Ġallowing": 6446,
      "Ġhelped": 6447,
      "board": 6448,
      "Ġsentence": 6449,
      "ipped": 6450,
      "Ġfailure": 6451,
      "Ġstrength": 6452,
      "while": 6453,
      "Ġtargeted": 6454,
      "Ġjobs": 6455,
      "Ġcontacted": 6456,
      "ĠTransport": 6457,
      "Ġidea": 6458,
      "Ġfigures": 6459,
      "ĠPennsylvania": 6460,
      "Ġkilometers": 6461,
      "ĠAffairs": 6462,
      "ĠConnecticut": 6463,
      "ĠMyanmar": 6464,
      "ĠMinnesota": 6465,
      "Can": 6466,
      "NZ": 6467,
      "Since": 6468,
      "TS": 6469,
      "don": 6470,
      "fall": 6471,
      "ĠÃ©p": 6472,
      "Ġtan": 6473,
      "ĠtÃºi": 6474,
      "ĠÄĳá»±": 6475,
      "ĠÄĳáº³ng": 6476,
      "Ġbirth": 6477,
      "ĠsáºŃp": 6478,
      "Ġsáº¡ch": 6479,
      "ĠvÆ¡": 6480,
      "ĠvÃ©": 6481,
      "Ġhol": 6482,
      "Ġhiáº¿m": 6483,
      "inary": 6484,
      "Ġmom": 6485,
      "onso": 6486,
      "real": 6487,
      "Ġdate": 6488,
      "Ġfle": 6489,
      "Ġfile": 6490,
      "Ġfair": 6491,
      "Ġtoll": 6492,
      "Ġphá»©c": 6493,
      "Ġráº¯c": 6494,
      "Ġrates": 6495,
      "ouver": 6496,
      "ĠCond": 6497,
      "ĠColl": 6498,
      "That": 6499,
      "ĠMy": 6500,
      "ĠMur": 6501,
      "ĠMet": 6502,
      "ĠMand": 6503,
      "ĠAzer": 6504,
      "adus": 6505,
      "ĠNZ": 6506,
      "imedia": 6507,
      "ĠGiao": 6508,
      "ills": 6509,
      "ĠDom": 6510,
      "ĠFl": 6511,
      "ĠFoot": 6512,
      "estic": 6513,
      "ulations": 6514,
      "ĠKat": 6515,
      "ĠKent": 6516,
      "ĠKurd": 6517,
      "akarta": 6518,
      "aging": 6519,
      "ĠÄĳÃ³n": 6520,
      "ĠEarth": 6521,
      "Ġcommercial": 6522,
      "ĠVanc": 6523,
      "apolis": 6524,
      "ends": 6525,
      "Ġrescu": 6526,
      "ÄĲÆ°á»£c": 6527,
      "Ġcontained": 6528,
      "acity": 6529,
      "ĠAlaska": 6530,
      "Ġminers": 6531,
      "viation": 6532,
      "Ġemissions": 6533,
      "Ġamend": 6534,
      "Ġ1991": 6535,
      "á»Ľt": 6536,
      "amily": 6537,
      "Ġterms": 6538,
      "ĠDeLay": 6539,
      "ĠXÃ£": 6540,
      "Ġenter": 6541,
      "ĠRepresent": 6542,
      "Ġsuspects": 6543,
      "Ġcollect": 6544,
      "ĠSchum": 6545,
      "Ġpersonnel": 6546,
      "iverpool": 6547,
      "Ġstandards": 6548,
      "Ġresearchers": 6549,
      "Ġcompetition": 6550,
      "aughter": 6551,
      "Ġseriously": 6552,
      "celadus": 6553,
      "ĠExp": 6554,
      "Ġdesigned": 6555,
      "ĠSociety": 6556,
      "Ġperformed": 6557,
      "Ġkidna": 6558,
      "Ġaimed": 6559,
      "ĠHonda": 6560,
      "ĠParalympic": 6561,
      "ĠKyoto": 6562,
      "ĠGillard": 6563,
      "Ġongoing": 6564,
      "ĠtÃºy": 6565,
      "ĠFernando": 6566,
      "burgh": 6567,
      "Ġprobably": 6568,
      "ĠVancouver": 6569,
      "!\"": 6570,
      "600": 6571,
      "BP": 6572,
      "BÃłi": 6573,
      "DC": 6574,
      "Háº§u": 6575,
      "NP": 6576,
      "OL": 6577,
      "ca": 6578,
      "ging": 6579,
      "ien": 6580,
      "ply": 6581,
      "rist": 6582,
      "shire": 6583,
      "ĠÃ¡c": 6584,
      "Ġcal": 6585,
      "ĠÄĳáº¹p": 6586,
      "Ġaware": 6587,
      "erous": 6588,
      "Ġmountain": 6589,
      "Ġpet": 6590,
      "Ġtrib": 6591,
      "Ġwaters": 6592,
      "ala": 6593,
      "elop": 6594,
      "ella": 6595,
      "eline": 6596,
      "ĠCorporation": 6597,
      "che": 6598,
      "Ġtá»ıa": 6599,
      "olf": 6600,
      "ĠPad": 6601,
      "Ġhá»¥t": 6602,
      "ĠHÃłng": 6603,
      "thi": 6604,
      "Ãºa": 6605,
      "ĠLau": 6606,
      "iab": 6607,
      "ĠDen": 6608,
      "ĠFerrari": 6609,
      "ĠJoe": 6610,
      "ĠJeff": 6611,
      "ager": 6612,
      "Ġsure": 6613,
      "Ġsuit": 6614,
      "sea": 6615,
      "berra": 6616,
      "apers": 6617,
      "ĠQuÃ¢n": 6618,
      "Chiáº¿n": 6619,
      "ipment": 6620,
      "ranch": 6621,
      "aret": 6622,
      "Ġteen": 6623,
      "ĠviÃª": 6624,
      "Ġactually": 6625,
      "Ġbombs": 6626,
      "Ġdefense": 6627,
      "ĠRober": 6628,
      "rett": 6629,
      "Ġmostly": 6630,
      "eehan": 6631,
      "Ġvacc": 6632,
      "Ġplanet": 6633,
      "ĠClub": 6634,
      "Ġconfirm": 6635,
      "ĠProv": 6636,
      "Ġlanded": 6637,
      "Ġfacility": 6638,
      "Ġdebate": 6639,
      "Ġslow": 6640,
      "ĠSerbia": 6641,
      "Ġready": 6642,
      "Ġsuffering": 6643,
      "ĠRyanair": 6644,
      "Ġwritten": 6645,
      "ĠAbbas": 6646,
      "Ġapolog": 6647,
      "Ġsummer": 6648,
      "Ġdangerous": 6649,
      "Ġversion": 6650,
      "ĠDowner": 6651,
      "Ġsatellite": 6652,
      "ĠBulls": 6653,
      "Ġdiplom": 6654,
      "ĠHIV": 6655,
      "ĠÄĳá»±ng": 6656,
      "Gáº§n": 6657,
      "Sec": 6658,
      "bu": 6659,
      "ha": 6660,
      "lied": 6661,
      "por": 6662,
      "sk": 6663,
      "uay": 6664,
      "ye": 6665,
      "yo": 6666,
      "zbol": 6667,
      "Âº": 6668,
      "ĠcÃ¢": 6669,
      "Ġthir": 6670,
      "Ġang": 6671,
      "Ġaut": 6672,
      "Ġbá»ģ": 6673,
      "Ġnet": 6674,
      "ĠnÃ£o": 6675,
      "Ġviá»ħn": 6676,
      "Ġhung": 6677,
      "erc": 6678,
      "Ġláº«n": 6679,
      "Ġmention": 6680,
      "Ġpie": 6681,
      "Ġchá»©": 6682,
      "ĠchÃ´n": 6683,
      "ĠtrÃº": 6684,
      "ĠtrÃ¹ng": 6685,
      "Ġdraw": 6686,
      "Ġgold": 6687,
      "Ġtoa": 6688,
      "Ġriding": 6689,
      "iles": 6690,
      "ĠCom": 6691,
      "ĠCrown": 6692,
      "ĠSark": 6693,
      "Ġqui": 6694,
      "Ġquake": 6695,
      "ThÆ°á»£ng": 6696,
      "Æ°á»Ŀn": 6697,
      "ĠMiss": 6698,
      "ĠAc": 6699,
      "ĠBath": 6700,
      "ĠBuch": 6701,
      "ĠBrian": 6702,
      "ĠNet": 6703,
      "Ġeth": 6704,
      "ĠHot": 6705,
      "iri": 6706,
      "Ġstra": 6707,
      "ĠRiver": 6708,
      "emic": 6709,
      "ĠWazir": 6710,
      "ĠKe": 6711,
      "resp": 6712,
      "Ġsust": 6713,
      "ume": 6714,
      "Ġexamp": 6715,
      "udge": 6716,
      "orders": 6717,
      "aby": 6718,
      "ĠVlad": 6719,
      "Ġthuáº«n": 6720,
      "hib": 6721,
      "Ġ193": 6722,
      "ĠQuá»¹": 6723,
      "ireless": 6724,
      "Ġcomputer": 6725,
      "ĠYanke": 6726,
      "athan": 6727,
      "athered": 6728,
      "ĠÄĳoan": 6729,
      "Ġapplic": 6730,
      "Ġtext": 6731,
      "Ġprepar": 6732,
      "ointed": 6733,
      "Ġregime": 6734,
      "Ġlocation": 6735,
      "Ġelectric": 6736,
      "egro": 6737,
      "ĠSpecial": 6738,
      "Ġcapacity": 6739,
      "Ġworldwide": 6740,
      "ĠGovernor": 6741,
      "Ġnumbers": 6742,
      "Ġreturned": 6743,
      "emocracy": 6744,
      "ennis": 6745,
      "box": 6746,
      "Ġblog": 6747,
      "Ġdispl": 6748,
      "ĠHezbol": 6749,
      "Ġstopped": 6750,
      "Ġappears": 6751,
      "ĠKorean": 6752,
      "Ġtwenty": 6753,
      "Ġequipment": 6754,
      "Ġdrink": 6755,
      "ĠLabour": 6756,
      "oleez": 6757,
      "Ġmoving": 6758,
      "Ġseeking": 6759,
      "ĠDefence": 6760,
      "Ġneighbor": 6761,
      "ĠCroat": 6762,
      "ĠLibert": 6763,
      "Ġurged": 6764,
      "ĠAPEC": 6765,
      "ĠNSW": 6766,
      "Ġcult": 6767,
      "Michael": 6768,
      "Ġperformance": 6769,
      "ĠCondoleez": 6770,
      "ĠRoberts": 6771,
      "ĠWaziristan": 6772,
      "ĠHezbollah": 6773,
      "ĠCondoleezza": 6774,
      "Brit": 6775,
      "Lá»±c": 6776,
      "SI": 6777,
      "fort": 6778,
      "hav": 6779,
      "lies": 6780,
      "moud": 6781,
      "sc": 6782,
      "Ġtá»ĭ": 6783,
      "ĠtÆ°á»Ľc": 6784,
      "Ġtáº·ng": 6785,
      "Ġborn": 6786,
      "Ġnar": 6787,
      "Ġsá»ķ": 6788,
      "Ġsport": 6789,
      "Ġhá»©ng": 6790,
      "Ġmos": 6791,
      "Ġmoon": 6792,
      "Ġpan": 6793,
      "Ġpow": 6794,
      "ream": 6795,
      "Ġcháº³ng": 6796,
      "ĠtrÃ´ng": 6797,
      "ĠkÃŃ": 6798,
      "Ġdrop": 6799,
      "aries": 6800,
      "Ġfarm": 6801,
      "Ġfreedom": 6802,
      "ĠngÃ£": 6803,
      "ĠrÄĥ": 6804,
      "ĠCA": 6805,
      "ĠCivil": 6806,
      "ĠMas": 6807,
      "ĠMarg": 6808,
      "ĠBern": 6809,
      "urb": 6810,
      "ĠNHL": 6811,
      "ĠTem": 6812,
      "ĠTok": 6813,
      "Ġeast": 6814,
      "ĠHong": 6815,
      "ĠHuman": 6816,
      "irit": 6817,
      "owa": 6818,
      "ĠLiverpool": 6819,
      "Ġste": 6820,
      "ĠRáºŃp": 6821,
      "Ġthá»¥": 6822,
      "ĠKinh": 6823,
      "ĠJournal": 6824,
      "Ġlá»Ĺ": 6825,
      "Ġhoan": 6826,
      "Ġexam": 6827,
      "Ġexact": 6828,
      "Ġunf": 6829,
      "Ġspending": 6830,
      "Ġabove": 6831,
      "ips": 6832,
      "Ġpled": 6833,
      "Ġintended": 6834,
      "Ind": 6835,
      "ĠPhÃ³": 6836,
      "Ġ77": 6837,
      "Ġ65": 6838,
      "Ġ66": 6839,
      "ickets": 6840,
      "Ġfinish": 6841,
      "lined": 6842,
      "Ġbox": 6843,
      "Ġmonit": 6844,
      "ext": 6845,
      "Ġinvestigate": 6846,
      "Ġowners": 6847,
      "Ġproduced": 6848,
      "Ġsystems": 6849,
      "ĠDavis": 6850,
      "ĠCentre": 6851,
      "Ġattempts": 6852,
      "ysis": 6853,
      "anium": 6854,
      "Ġadvis": 6855,
      "Ġexperts": 6856,
      "Ġcontinues": 6857,
      "coming": 6858,
      "Ġavoid": 6859,
      "ĠHeath": 6860,
      "ĠAttorney": 6861,
      "Giáº£i": 6862,
      "ĠSomali": 6863,
      "Ġholding": 6864,
      "Ġdevice": 6865,
      "ifying": 6866,
      "Ġfifth": 6867,
      "ĠCommissioner": 6868,
      "Ġ360": 6869,
      "ĠOsama": 6870,
      "ĠMontreal": 6871,
      "Ġworst": 6872,
      "Ġcollapse": 6873,
      "ĠHelen": 6874,
      "ĠCarolina": 6875,
      "Ġconcerned": 6876,
      "Ġprepared": 6877,
      "Ġprimary": 6878,
      "riculture": 6879,
      "Ġkilometres": 6880,
      "Ġopportunity": 6881,
      "Ġoutbreak": 6882,
      "400": 6883,
      "800": 6884,
      "90": 6885,
      "Americ": 6886,
      "CÃ¹ng": 6887,
      "Dr": 6888,
      "Ex": 6889,
      "FO": 6890,
      "LC": 6891,
      "More": 6892,
      "de": 6893,
      "di": 6894,
      "feld": 6895,
      "jan": 6896,
      "kar": 6897,
      "las": 6898,
      "mission": 6899,
      "over": 6900,
      "zia": 6901,
      "Ã¶": 6902,
      "Ġign": 6903,
      "ĠÃ¡m": 6904,
      "Ġtell": 6905,
      "Ġcens": 6906,
      "Ġcreat": 6907,
      "Ġcities": 6908,
      "Ġtháº§u": 6909,
      "Ġbrief": 6910,
      "Ġváº¯c": 6911,
      "ĠhÃ´": 6912,
      "Ġlay": 6913,
      "ĠlÃ¢y": 6914,
      "Ġmill": 6915,
      "Ġchá»¥p": 6916,
      "enegro": 6917,
      "ĠdÃŃnh": 6918,
      "Ġdie": 6919,
      "Ġopt": 6920,
      "Ġgathered": 6921,
      "arus": 6922,
      "arily": 6923,
      "Ġfam": 6924,
      "inger": 6925,
      "Ã³i": 6926,
      "oug": 6927,
      "ilst": 6928,
      "elly": 6929,
      "eltic": 6930,
      "enth": 6931,
      "ThÃłnh": 6932,
      "TháºŃt": 6933,
      "á»ĭa": 6934,
      "ĠMatt": 6935,
      "ĠBell": 6936,
      "ĠBost": 6937,
      "ĠPrem": 6938,
      "ima": 6939,
      "imer": 6940,
      "ĠHun": 6941,
      "vement": 6942,
      "Ġxá»©": 6943,
      "ira": 6944,
      "irk": 6945,
      "igr": 6946,
      "utions": 6947,
      "ĠLá»±c": 6948,
      "ĠLib": 6949,
      "unction": 6950,
      "andhi": 6951,
      "ĠFirst": 6952,
      "ĠFox": 6953,
      "opp": 6954,
      "ĠKn": 6955,
      "ĠKerry": 6956,
      "aka": 6957,
      "ardo": 6958,
      "oded": 6959,
      "ĠVá»ĭnh": 6960,
      "ĠthuÃª": 6961,
      "aped": 6962,
      "Ġresources": 6963,
      "ĠÄĳá»ĵn": 6964,
      "mert": 6965,
      "Ġpolls": 6966,
      "Ġadop": 6967,
      "others": 6968,
      "Ġpartners": 6969,
      "views": 6970,
      "ierra": 6971,
      "Ġcars": 6972,
      "Ġ1996": 6973,
      "Ġsurface": 6974,
      "Ġrelief": 6975,
      "Ġbelieves": 6976,
      "avez": 6977,
      "Ġwinning": 6978,
      "Ġdepart": 6979,
      "Ġplanning": 6980,
      "Ġpossibility": 6981,
      "Ġcondem": 6982,
      "Ġsuspended": 6983,
      "ÄĳÃ£": 6984,
      "Ġdirectly": 6985,
      "irds": 6986,
      "riage": 6987,
      "Ġevening": 6988,
      "ĠgÃ³c": 6989,
      "Ġattempting": 6990,
      "Ġheart": 6991,
      "Ġthreatened": 6992,
      "Ġfacing": 6993,
      "Ġdebris": 6994,
      "ĠBlue": 6995,
      "Ġprisoners": 6996,
      "Ġstreet": 6997,
      "ĠTurkish": 6998,
      "ĠSuper": 6999,
      "ozy": 7000,
      "Ġvalue": 7001,
      "Ġhopes": 7002,
      "Ġcompleted": 7003,
      "Ġpractice": 7004,
      "Ġwrote": 7005,
      "ĠMiller": 7006,
      "ruption": 7007,
      "ĠFinland": 7008,
      "Ġparticularly": 7009,
      "ĠOrganization": 7010,
      "Ġapparently": 7011,
      "Ġeducation": 7012,
      "aggis": 7013,
      "Ġnormal": 7014,
      "Ġconcluded": 7015,
      "ĠLordi": 7016,
      "Ġdismissed": 7017,
      "Ġcollapsed": 7018,
      "ĠSarkozy": 7019,
      "ĠCroatia": 7020,
      "ĠBoston": 7021,
      "95": 7022,
      "Cá»±u": 7023,
      "Current": 7024,
      "Four": 7025,
      "Today": 7026,
      "cri": 7027,
      "dro": 7028,
      "gen": 7029,
      "here": 7030,
      "ique": 7031,
      "like": 7032,
      "ook": 7033,
      "rison": 7034,
      "sy": 7035,
      "Ġáº¥n": 7036,
      "ĠÄĳáº¡p": 7037,
      "Ġná»ģ": 7038,
      "Ġsle": 7039,
      "ĠmÃ£": 7040,
      "Ġmand": 7041,
      "ĠmÃ¡t": 7042,
      "Ġmix": 7043,
      "Ġpul": 7044,
      "Ġcháº·ng": 7045,
      "Ġwants": 7046,
      "Ġdraft": 7047,
      "Ġgay": 7048,
      "isb": 7049,
      "arters": 7050,
      "esse": 7051,
      "ito": 7052,
      "Ġfine": 7053,
      "Ġfully": 7054,
      "ĠrÃ¡c": 7055,
      "Ġrá»§i": 7056,
      "icit": 7057,
      "elve": 7058,
      "ĠSat": 7059,
      "Ġquite": 7060,
      "Thay": 7061,
      "ids": 7062,
      "iders": 7063,
      "ĠBÃ¬nh": 7064,
      "Ġgiáº£ng": 7065,
      "ĠÄĳá»Ľi": 7066,
      "ĠTiáº¿n": 7067,
      "ĠHugh": 7068,
      "Ġ130": 7069,
      "Ġonto": 7070,
      "ĠIowa": 7071,
      "igration": 7072,
      "Ġwhom": 7073,
      "unte": 7074,
      "ĠRod": 7075,
      "ĠDis": 7076,
      "ĠFlight": 7077,
      "ĠFBI": 7078,
      "ĠKong": 7079,
      "ĠJew": 7080,
      "ĠJose": 7081,
      "ĠJob": 7082,
      "aine": 7083,
      "ĠEastern": 7084,
      "Ġshock": 7085,
      "Ġquyá»ĥn": 7086,
      "anted": 7087,
      "apt": 7088,
      "Ġtiáº¿c": 7089,
      "Ġabuse": 7090,
      "Ġsociety": 7091,
      "Ġcontest": 7092,
      "ĠkhuÃ´n": 7093,
      "Ġkhuáº©n": 7094,
      "acher": 7095,
      "Ġtrapped": 7096,
      "ĠPhÃ¡t": 7097,
      "Ġ700": 7098,
      "ahar": 7099,
      "icket": 7100,
      "ĠCanberra": 7101,
      "Ġgrand": 7102,
      "ildren": 7103,
      "ĠWikimedia": 7104,
      "Ġconfident": 7105,
      "ĠRoad": 7106,
      "Ġsurg": 7107,
      "ĠKhÃŃ": 7108,
      "onym": 7109,
      "ĠAirbus": 7110,
      "Ġspokeswoman": 7111,
      "Ġdeputy": 7112,
      "ĠCook": 7113,
      "Ġcenter": 7114,
      "ĠIndonesian": 7115,
      "Ġaffect": 7116,
      "Ġmissile": 7117,
      "ĠSwed": 7118,
      "Ġsoldier": 7119,
      "Ġstanding": 7120,
      "ĠEnceladus": 7121,
      "Ġtreated": 7122,
      "Ġrepresentative": 7123,
      "Ġequal": 7124,
      "Ġpatients": 7125,
      "Ġcontroversy": 7126,
      "Ġwarnings": 7127,
      "ĠNigeria": 7128,
      "Ġuranium": 7129,
      "ĠAhmed": 7130,
      "Ġmultiple": 7131,
      "Ġcaptured": 7132,
      "ĠRevolution": 7133,
      "Ġwearing": 7134,
      "ĠCraig": 7135,
      "ĠLanka": 7136,
      "Ġcompletely": 7137,
      "Ġceremony": 7138,
      "'.": 7139,
      "EFA": 7140,
      "Follow": 7141,
      "MD": 7142,
      "Má»¥c": 7143,
      "Our": 7144,
      "do": 7145,
      "ganda": 7146,
      "ho": 7147,
      "ns": 7148,
      "pre": 7149,
      "rina": 7150,
      "vis": 7151,
      "xy": 7152,
      "Ġtort": 7153,
      "Ġcast": 7154,
      "Ġthiá»ĩp": 7155,
      "Ġaw": 7156,
      "Ġbul": 7157,
      "Ġsáº¯t": 7158,
      "Ġsize": 7159,
      "Ġsym": 7160,
      "Ġhang": 7161,
      "inals": 7162,
      "Ġláº§m": 7163,
      "Ġpark": 7164,
      "Ġcháº£y": 7165,
      "Ġkia": 7166,
      "Ġgall": 7167,
      "ĠnhÃ¡nh": 7168,
      "Ġfans": 7169,
      "Ġfishing": 7170,
      "Ġtourn": 7171,
      "ili": 7172,
      "ĠSá»Ł": 7173,
      "ĠSlo": 7174,
      "ĠSouthern": 7175,
      "ĠSierra": 7176,
      "ĠMug": 7177,
      "Ġreasons": 7178,
      "chan": 7179,
      "ĠBM": 7180,
      "ĠBig": 7181,
      "ĠgiÃłn": 7182,
      "stead": 7183,
      "stein": 7184,
      "lege": 7185,
      "olas": 7186,
      "ĠNi": 7187,
      "ĠNat": 7188,
      "iring": 7189,
      "Ġsave": 7190,
      "verted": 7191,
      "ĠGh": 7192,
      "ĠRon": 7193,
      "ĠRen": 7194,
      "ĠRio": 7195,
      "ĠDon": 7196,
      "ĠDes": 7197,
      "rah": 7198,
      "oses": 7199,
      "Ġrap": 7200,
      "Ġrape": 7201,
      "ĠWork": 7202,
      "ĠkhiÃªu": 7203,
      "ĠJay": 7204,
      "akashvili": 7205,
      "ĠÄĳÃ³i": 7206,
      "ĠChel": 7207,
      "ĠChile": 7208,
      "ighter": 7209,
      "Ġsevent": 7210,
      "umar": 7211,
      "ordan": 7212,
      "ĠVill": 7213,
      "berman": 7214,
      "Ġgovernor": 7215,
      "ikh": 7216,
      "ChÆ°Æ¡ng": 7217,
      "Ġ52": 7218,
      "Ġability": 7219,
      "Ġexpress": 7220,
      "izing": 7221,
      "itional": 7222,
      "vedev": 7223,
      "azon": 7224,
      "ĠShow": 7225,
      "Ġacts": 7226,
      "Ġremov": 7227,
      "ebec": 7228,
      "Ġ120": 7229,
      "Ġprotection": 7230,
      "amilton": 7231,
      "ĠPakistani": 7232,
      "ĠMichel": 7233,
      "Ġproduce": 7234,
      "Ġremained": 7235,
      "ĠConstitution": 7236,
      "Ġsentenced": 7237,
      "ompson": 7238,
      "Ġpromised": 7239,
      "Ġeventually": 7240,
      "Ġexperim": 7241,
      "Ġlanding": 7242,
      "Ġdoesn": 7243,
      "Ġstandard": 7244,
      "Former": 7245,
      "ĠPalestinians": 7246,
      "Ġmeasure": 7247,
      "Ġleadership": 7248,
      "Ġthousand": 7249,
      "ĠMassa": 7250,
      "Ġdetermine": 7251,
      "ĠMuslims": 7252,
      "Ġaccepted": 7253,
      "Ġcollision": 7254,
      "Ġxoay": 7255,
      "Australia": 7256,
      "ĠGraham": 7257,
      "Ġdemonstr": 7258,
      "Ġnatural": 7259,
      "ĠLewis": 7260,
      "ĠMalaysia": 7261,
      "ĠSchumacher": 7262,
      "23": 7263,
      "60": 7264,
      "AC": 7265,
      "By": 7266,
      "Col": 7267,
      "Geor": 7268,
      "Le": 7269,
      "OM": 7270,
      "Pe": 7271,
      "Sever": 7272,
      "TÃłu": 7273,
      "UN": 7274,
      "aur": 7275,
      "bes": 7276,
      "bank": 7277,
      "gow": 7278,
      "pol": 7279,
      "rd": 7280,
      "ram": 7281,
      "rash": 7282,
      "Ġult": 7283,
      "Ġton": 7284,
      "Ġcá»©ng": 7285,
      "Ġcáº¯p": 7286,
      "ĠÄĳem": 7287,
      "ĠÄĳÄ©a": 7288,
      "Ġbá»ĳi": 7289,
      "Ġbridge": 7290,
      "Ġna": 7291,
      "ĠvÃª": 7292,
      "Ġhum": 7293,
      "Ġhands": 7294,
      "indu": 7295,
      "Ġlá»ĳi": 7296,
      "Ġlinh": 7297,
      "Ġlangu": 7298,
      "Ġchim": 7299,
      "Ġchá»¥c": 7300,
      "ĠchÃºt": 7301,
      "Ġchampionship": 7302,
      "Ġkiá»ĥu": 7303,
      "ĠdÃły": 7304,
      "ĠdÆ°á»¡ng": 7305,
      "Ġdaughter": 7306,
      "ĠnhÅ©ng": 7307,
      "ĠphÃºc": 7308,
      "Ġrally": 7309,
      "Three": 7310,
      "ĠAI": 7311,
      "ĠAust": 7312,
      "ĠBal": 7313,
      "ĠBÃ³ng": 7314,
      "stan": 7315,
      "ĠPM": 7316,
      "ĠHal": 7317,
      "under": 7318,
      "ĠGreat": 7319,
      "ĠGood": 7320,
      "ĠGlobal": 7321,
      "ĠRw": 7322,
      "ĠRel": 7323,
      "rav": 7324,
      "ĠFamily": 7325,
      "ulin": 7326,
      "ĠJav": 7327,
      "cked": 7328,
      "Ġlá»įc": 7329,
      "ĠOb": 7330,
      "iki": 7331,
      "ĠQuebec": 7332,
      "Ġorbit": 7333,
      "rena": 7334,
      "Ġ49": 7335,
      "aval": 7336,
      "Ġattended": 7337,
      "Ġreporting": 7338,
      "ternal": 7339,
      "ĠÄĳiÃª": 7340,
      "Ġaccomp": 7341,
      "Ġchuyá»ģn": 7342,
      "Ġsecure": 7343,
      "weg": 7344,
      "ĠSheehan": 7345,
      "Ġministers": 7346,
      "ements": 7347,
      "Ġbomber": 7348,
      "ĠgÃ¬n": 7349,
      "Ġcommand": 7350,
      "Ġremove": 7351,
      "iox": 7352,
      "ologists": 7353,
      "Ġdefin": 7354,
      "Ġshowing": 7355,
      "Ġfeatures": 7356,
      "Ġsurpr": 7357,
      "Ġexplain": 7358,
      "tainment": 7359,
      "Ġdetained": 7360,
      "Ã¨m": 7361,
      "Ġsubsequ": 7362,
      "Ġsuspic": 7363,
      "ĠConference": 7364,
      "Ġrecords": 7365,
      "Ġdrivers": 7366,
      "Ġputting": 7367,
      "Ġtransfer": 7368,
      "Ġmetres": 7369,
      "Ġsimply": 7370,
      "Ġwebsites": 7371,
      "Ġspeaking": 7372,
      "Ġexplosives": 7373,
      "Ġprogramme": 7374,
      "Ġdispute": 7375,
      "Ġterrorists": 7376,
      "Ġfinding": 7377,
      "Ġmarch": 7378,
      "Ġstrugg": 7379,
      "Ġdrugs": 7380,
      "Ġdetermin": 7381,
      "NASA": 7382,
      "ĠMontenegro": 7383,
      "Ġcommitted": 7384,
      "ĠDefense": 7385,
      "etroit": 7386,
      "Ġbasis": 7387,
      "Ġtemperatures": 7388,
      "Ġcounter": 7389,
      "ĠPapua": 7390,
      "ĠCambridge": 7391,
      "vestig": 7392,
      "Ġopinion": 7393,
      "ĠYankees": 7394,
      "Following": 7395,
      "Ġtournament": 7396,
      "27": 7397,
      "Mean": 7398,
      "NU": 7399,
      "Quyáº¿t": 7400,
      "SC": 7401,
      "Sch": 7402,
      "Scot": 7403,
      "be": 7404,
      "bone": 7405,
      "fect": 7406,
      "met": 7407,
      "ni": 7408,
      "ráºŃp": 7409,
      "uge": 7410,
      "¥c": 7411,
      "ĠtáºŃt": 7412,
      "Ġtáº¥m": 7413,
      "ĠtÄ©nh": 7414,
      "ĠcáºŃy": 7415,
      "ĠthÃ¢m": 7416,
      "Ġath": 7417,
      "Ġbáº¡c": 7418,
      "Ġláº»": 7419,
      "Ġmist": 7420,
      "Ġchem": 7421,
      "Ġtrá»ĳng": 7422,
      "ĠtrÃºc": 7423,
      "atively": 7424,
      "Ġwest": 7425,
      "Ġwall": 7426,
      "Ġgá»£i": 7427,
      "aration": 7428,
      "itarian": 7429,
      "Ġfires": 7430,
      "Ġngáº¡c": 7431,
      "ils": 7432,
      "elipe": 7433,
      "ĠCorp": 7434,
      "ĠSil": 7435,
      "ĠSony": 7436,
      "ĠMem": 7437,
      "ĠMous": 7438,
      "ĠMold": 7439,
      "áºŃc": 7440,
      "ĠAT": 7441,
      "ĠBark": 7442,
      "ĠgiáºŃn": 7443,
      "ĠNick": 7444,
      "ĠGal": 7445,
      "ĠGandhi": 7446,
      "ĠDj": 7447,
      "ĠDun": 7448,
      "ĠDann": 7449,
      "osph": 7450,
      "ĠFort": 7451,
      "Ġalone": 7452,
      "ĠKos": 7453,
      "ĠKomar": 7454,
      "ĠJazeera": 7455,
      "ĠyÃªn": 7456,
      "agement": 7457,
      "ĠChavez": 7458,
      "cco": 7459,
      "ĠÄĲÃło": 7460,
      "ubb": 7461,
      "Ġ46": 7462,
      "Ġexpand": 7463,
      "osta": 7464,
      "Ġuser": 7465,
      "ailand": 7466,
      "Ġviews": 7467,
      "onsin": 7468,
      "Ġcloud": 7469,
      "Ġ800": 7470,
      "Ngay": 7471,
      "Ġworks": 7472,
      "ĠNgÃ¢n": 7473,
      "Ġinfl": 7474,
      "ĠlÃ£i": 7475,
      "ĠArch": 7476,
      "ĠSpain": 7477,
      "Ġthoi": 7478,
      "Ġterritory": 7479,
      "Ġvideos": 7480,
      "shine": 7481,
      "Ġexplained": 7482,
      "ĠXanh": 7483,
      "Ġnumerous": 7484,
      "reston": 7485,
      "ĠSyrian": 7486,
      "Ġ250": 7487,
      "Ġinsurg": 7488,
      "ĠMichigan": 7489,
      "Ġpossibly": 7490,
      "Ġbrother": 7491,
      "Ġinformed": 7492,
      "Ġspecific": 7493,
      "Ġresulted": 7494,
      "Ġcentre": 7495,
      "ĠchÃºa": 7496,
      "Ġvisited": 7497,
      "Ġ1964": 7498,
      "Ġmedal": 7499,
      "Ġballot": 7500,
      "ĠQueen": 7501,
      "ĠBelarus": 7502,
      "Ġreduced": 7503,
      "ĠMedical": 7504,
      "Ġcuts": 7505,
      "ĠSaakashvili": 7506,
      "Ġlimited": 7507,
      "ĠMahmoud": 7508,
      "Ġimmediate": 7509,
      "iffs": 7510,
      "ĠInterior": 7511,
      "Nghá»ĭ": 7512,
      "ĠConservative": 7513,
      "ography": 7514,
      "ĠJoseph": 7515,
      "ĠHondur": 7516,
      "ĠParalympics": 7517,
      "Ġcouple": 7518,
      "Ġnegotiations": 7519,
      "Ġcopyright": 7520,
      "Ġclean": 7521,
      "ĠGreens": 7522,
      "Ġbegun": 7523,
      "ĠArmenia": 7524,
      "Ġmoment": 7525,
      "ĠMandela": 7526,
      "ĠBucharest": 7527,
      "Ġexample": 7528,
      "ĠJewish": 7529,
      "Meanwhile": 7530,
      "35": 7531,
      "Cl": 7532,
      "Cal": 7533,
      "Her": 7534,
      "HÃłng": 7535,
      "Iraq": 7536,
      "Man": 7537,
      "Of": 7538,
      "TE": 7539,
      "cas": 7540,
      "coh": 7541,
      "her": 7542,
      "mor": 7543,
      "mas": 7544,
      "sa": 7545,
      "yond": 7546,
      "¯ng": 7547,
      "Ġtang": 7548,
      "Ġcas": 7549,
      "Ġcáº·p": 7550,
      "ĠthÃ´": 7551,
      "ĠthÃª": 7552,
      "ĠÄĳÃ¨": 7553,
      "Ġaudi": 7554,
      "ĠbÃª": 7555,
      "Ġbá»įn": 7556,
      "Ġsal": 7557,
      "ĠsÄĥn": 7558,
      "Ġsales": 7559,
      "Ġsession": 7560,
      "Ġvan": 7561,
      "ĠvÆ°Æ¡ng": 7562,
      "ĠhÆ°Æ¡ng": 7563,
      "Ġhij": 7564,
      "Ġhurricane": 7565,
      "Ġháº¹n": 7566,
      "eron": 7567,
      "iner": 7568,
      "Ġlá»Ł": 7569,
      "ĠmÃ¢y": 7570,
      "Ġpath": 7571,
      "Ġpitch": 7572,
      "Ġchá»ĳt": 7573,
      "ĠchÃ©p": 7574,
      "Ġtrip": 7575,
      "ederation": 7576,
      "edonia": 7577,
      "Ġkiá»ĩm": 7578,
      "Ġoxy": 7579,
      "Ġgone": 7580,
      "Ġfear": 7581,
      "ĠrÃ£i": 7582,
      "Ġvá»¯ng": 7583,
      "quad": 7584,
      "quarters": 7585,
      "ayne": 7586,
      "ĠCu": 7587,
      "ĠCard": 7588,
      "ĠAE": 7589,
      "ĠBá»ī": 7590,
      "ĠBlo": 7591,
      "Ġbeyond": 7592,
      "ĠPope": 7593,
      "urning": 7594,
      "ĠNavy": 7595,
      "ĠHá»ĵng": 7596,
      "ĠHigg": 7597,
      "using": 7598,
      "ĠIP": 7599,
      "ĠLt": 7600,
      "ĠLat": 7601,
      "ĠLyn": 7602,
      "ĠGru": 7603,
      "ĠRO": 7604,
      "ĠDave": 7605,
      "ĠDetroit": 7606,
      "ĠFul": 7607,
      "pper": 7608,
      "ĠOk": 7609,
      "ĠOcean": 7610,
      "Ġprosec": 7611,
      "aii": 7612,
      "ods": 7613,
      "ĠVo": 7614,
      "Ġweak": 7615,
      "Ġunus": 7616,
      "Ġspl": 7617,
      "ellington": 7618,
      "isher": 7619,
      "therlands": 7620,
      "rence": 7621,
      "Ġarch": 7622,
      "Ġ56": 7623,
      "Ġ59": 7624,
      "TrÃªn": 7625,
      "Ġpray": 7626,
      "Ġprinc": 7627,
      "Ġpartner": 7628,
      "Ġbanned": 7629,
      "Ġhá»Ļp": 7630,
      "Ġofficially": 7631,
      "Ġinterviews": 7632,
      "Ġflag": 7633,
      "Ġproviding": 7634,
      "Ġsurvey": 7635,
      "Ġplaying": 7636,
      "Ġstudies": 7637,
      "Ġfirefighters": 7638,
      "ĠBrisb": 7639,
      "ĠXbox": 7640,
      "nergy": 7641,
      "ĠAirways": 7642,
      "ĠBarb": 7643,
      "Ġdetention": 7644,
      "Ġdeploy": 7645,
      "Ġsubmar": 7646,
      "Ġopposed": 7647,
      "Ġ1988": 7648,
      "Ġorganis": 7649,
      "Ġreaching": 7650,
      "Ġpromot": 7651,
      "Ġshots": 7652,
      "espread": 7653,
      "aksin": 7654,
      "Ġbreach": 7655,
      "Ġtreaty": 7656,
      "ĠEnter": 7657,
      "GiÃ¡m": 7658,
      "Ġinterviewed": 7659,
      "Ġtempor": 7660,
      "Ġrequested": 7661,
      "ĠSteel": 7662,
      "Ġinitial": 7663,
      "Ġcharity": 7664,
      "Ġhoped": 7665,
      "Ġargued": 7666,
      "Ġsurviv": 7667,
      "Ġwrong": 7668,
      "ĠNetherlands": 7669,
      "Ġpredicted": 7670,
      "Ġfrequ": 7671,
      "bassador": 7672,
      "Ġcells": 7673,
      "ĠOlmert": 7674,
      "Ġzone": 7675,
      "Ġpunish": 7676,
      "Ġvessel": 7677,
      "Ġcycl": 7678,
      "osnia": 7679,
      "Ġminimum": 7680,
      "ĠRepresentatives": 7681,
      "elopment": 7682,
      "ĠTokyo": 7683,
      "Ġsurgery": 7684,
      "onymous": 7685,
      "ĠBrisbane": 7686,
      "63": 7687,
      "CD": 7688,
      "GS": 7689,
      "Just": 7690,
      "LÃ£nh": 7691,
      "My": 7692,
      "Russ": 7693,
      "TÃªn": 7694,
      "WHO": 7695,
      "cle": 7696,
      "furt": 7697,
      "ken": 7698,
      "long": 7699,
      "mand": 7700,
      "mont": 7701,
      "ras": 7702,
      "zi": 7703,
      "Ġcá»¥c": 7704,
      "Ġcorpor": 7705,
      "ĠthÃ¡o": 7706,
      "ĠthÆ°á»Ľc": 7707,
      "ĠbÃ¹": 7708,
      "ĠbáºŃc": 7709,
      "Ġniá»ģm": 7710,
      "Ġsound": 7711,
      "Ġsens": 7712,
      "Ġver": 7713,
      "Ġhor": 7714,
      "Ġharm": 7715,
      "ĠlÃŃ": 7716,
      "Ġmai": 7717,
      "Ġmph": 7718,
      "Ġpm": 7719,
      "Ġpound": 7720,
      "Ġchá»£": 7721,
      "Ġwait": 7722,
      "ĠdÆ°á»£c": 7723,
      "Ġdá»Ļi": 7724,
      "Ġdá»¡": 7725,
      "iti": 7726,
      "Ġrow": 7727,
      "ouston": 7728,
      "ila": 7729,
      "eland": 7730,
      "elson": 7731,
      "elaya": 7732,
      "ĠSoc": 7733,
      "ĠAri": 7734,
      "ĠBry": 7735,
      "ĠBá»ĩnh": 7736,
      "ĠBali": 7737,
      "ademy": 7738,
      "olitan": 7739,
      "ĠPir": 7740,
      "ĠPop": 7741,
      "term": 7742,
      "urer": 7743,
      "urst": 7744,
      "ĠTs": 7745,
      "ĠTri": 7746,
      "ĠTÃłi": 7747,
      "ĠTaylor": 7748,
      "ĠHindu": 7749,
      "ĠHouston": 7750,
      "iris": 7751,
      "thew": 7752,
      "room": 7753,
      "usband": 7754,
      "ĠIrish": 7755,
      "uted": 7756,
      "uties": 7757,
      "Ġwhilst": 7758,
      "ĠLie": 7759,
      "ĠGuy": 7760,
      "ĠRand": 7761,
      "ĠRec": 7762,
      "ĠRugby": 7763,
      "ĠDC": 7764,
      "ĠDall": 7765,
      "ĠFC": 7766,
      "ĠUEFA": 7767,
      "ĠJo": 7768,
      "Ġgiá»¥c": 7769,
      "ĠEric": 7770,
      "ĠEston": 7771,
      "ĠChannel": 7772,
      "Ġexerc": 7773,
      "Ġnote": 7774,
      "law": 7775,
      "ĠÄĲiá»ģu": 7776,
      "ĠÄĲá»ĭa": 7777,
      "ĠVest": 7778,
      "ĠStation": 7779,
      "Quan": 7780,
      "Ġgoals": 7781,
      "ello": 7782,
      "ĠkhoÃ¡n": 7783,
      "Ġ47": 7784,
      "oughly": 7785,
      "ĠYear": 7786,
      "ĠAlonso": 7787,
      "ansas": 7788,
      "Ġcounts": 7789,
      "Ġ82": 7790,
      "ampion": 7791,
      "Ġcanc": 7792,
      "ĠAnton": 7793,
      "obson": 7794,
      "Ġbecoming": 7795,
      "usharra": 7796,
      "ĠLeone": 7797,
      "Ġ99": 7798,
      "ĠIndust": 7799,
      "ĠMcK": 7800,
      "ĠMarc": 7801,
      "heimer": 7802,
      "Ġplaces": 7803,
      "Ġbelong": 7804,
      "Ġjustice": 7805,
      "Ġnames": 7806,
      "Ġhá»Ĺn": 7807,
      "Ġsmoke": 7808,
      "ĠGray": 7809,
      "fully": 7810,
      "Ġreflect": 7811,
      "Ġ1984": 7812,
      "Ġviolation": 7813,
      "ucky": 7814,
      "ĠElm": 7815,
      "Ġadvice": 7816,
      "ĠWhit": 7817,
      "Ġwheel": 7818,
      "Ġexplosions": 7819,
      "Ġcontinuing": 7820,
      "Ġlargely": 7821,
      "formation": 7822,
      "Ġfloor": 7823,
      "ĠEnvironment": 7824,
      "Ġtaxi": 7825,
      "Ġstreets": 7826,
      "Ġdifference": 7827,
      "Ġindependence": 7828,
      "Ġlimit": 7829,
      "ĠAlexander": 7830,
      "Ġdiscussion": 7831,
      "Ġfifteen": 7832,
      "Ġcommitment": 7833,
      "Ġpursu": 7834,
      "Ġrebels": 7835,
      "Ġescape": 7836,
      "Ġvolunte": 7837,
      "Ġhelicopters": 7838,
      "Ġcomplain": 7839,
      "ĠValley": 7840,
      "ĠSummer": 7841,
      "Ġdoctors": 7842,
      "ĠAstros": 7843,
      "thiop": 7844,
      "ĠMugabe": 7845,
      "Several": 7846,
      "cohol": 7847,
      "usharraf": 7848,
      "46": 7849,
      "BA": 7850,
      "CÅ©ng": 7851,
      "Chi": 7852,
      "CáºŃu": 7853,
      "DS": 7854,
      "Joh": 7855,
      "Lá»Ŀi": 7856,
      "MÆ°á»Ŀi": 7857,
      "Peter": 7858,
      "Ráº¥t": 7859,
      "South": 7860,
      "UP": 7861,
      "ais": 7862,
      "gi": 7863,
      "hy": 7864,
      "ja": 7865,
      "mouth": 7866,
      "pir": 7867,
      "sawi": 7868,
      "uz": 7869,
      "ĠÆ¡n": 7870,
      "Ġtun": 7871,
      "Ġtáº£ng": 7872,
      "Ġtá»ĳn": 7873,
      "nge": 7874,
      "Ġcease": 7875,
      "ĠthÃ´n": 7876,
      "ĠÄĳÃ¢u": 7877,
      "ĠbÆ¡": 7878,
      "Ġbá»ĳc": 7879,
      "ĠbÃ¨": 7880,
      "Ġbá»¥i": 7881,
      "Ġsend": 7882,
      "Ġsector": 7883,
      "Ġvinh": 7884,
      "ĠhÃło": 7885,
      "Ġlá»ĳc": 7886,
      "Ġláº¯p": 7887,
      "ĠmÃ¢u": 7888,
      "Ġmáº¡ch": 7889,
      "reater": 7890,
      "Ġchurch": 7891,
      "Ġkim": 7892,
      "Ġwish": 7893,
      "Ġwestern": 7894,
      "Ġwords": 7895,
      "ĠnhÆ°á»£ng": 7896,
      "arity": 7897,
      "Ġfatal": 7898,
      "ĠkhÃºc": 7899,
      "illy": 7900,
      "ĠCath": 7901,
      "ĠCeltic": 7902,
      "cho": 7903,
      "aming": 7904,
      "ady": 7905,
      "oles": 7906,
      "ĠPart": 7907,
      "ĠHung": 7908,
      "ĠHurricane": 7909,
      "ĠxÆ°Æ¡ng": 7910,
      "Ġxá»ī": 7911,
      "ĠIC": 7912,
      "ĠId": 7913,
      "utch": 7914,
      "ĠLind": 7915,
      "ĠGNU": 7916,
      "illing": 7917,
      "ĠDoug": 7918,
      "Ġrail": 7919,
      "ĠFil": 7920,
      "ĠFall": 7921,
      "ĠWisc": 7922,
      "ĠWellington": 7923,
      "ĠKal": 7924,
      "ĠUganda": 7925,
      "ĠJean": 7926,
      "ĠEC": 7927,
      "Ġheat": 7928,
      "ĠOpp": 7929,
      "Ġexchange": 7930,
      "ĠÄĲiá»ĥn": 7931,
      "ĠThailand": 7932,
      "ĠVÅ©": 7933,
      "Ġunless": 7934,
      "ĠStri": 7935,
      "ender": 7936,
      "Ġresistance": 7937,
      "oked": 7938,
      "rend": 7939,
      "ÄĲá»ĳi": 7940,
      "Ġ58": 7941,
      "Ġaband": 7942,
      "ĠÃĶng": 7943,
      "ĠTrin": 7944,
      "ureau": 7945,
      "Ġovert": 7946,
      "Ġoverall": 7947,
      "Ġinvasion": 7948,
      "encing": 7949,
      "Ġeleven": 7950,
      "Ġpregn": 7951,
      "ĠShin": 7952,
      "Ġactive": 7953,
      "Ġ101": 7954,
      "aware": 7955,
      "Ġregister": 7956,
      "Ġmayor": 7957,
      "Ġfounded": 7958,
      "ĠâĢ¦": 7959,
      "Ġwarrant": 7960,
      "Ġinvestment": 7961,
      "ĠthoÃ¡i": 7962,
      "ankbone": 7963,
      "ĠBrampton": 7964,
      "conn": 7965,
      "Ġinjury": 7966,
      "Ġacqu": 7967,
      "iversary": 7968,
      "Ġentering": 7969,
      "Ġheading": 7970,
      "Ġheadquarters": 7971,
      "Ġblamed": 7972,
      "ĠSunshine": 7973,
      "Ġoppon": 7974,
      "ĠkhÃ³i": 7975,
      "force": 7976,
      "ĠEdwards": 7977,
      "Ġinstru": 7978,
      "Ġfaced": 7979,
      "Ġtechnical": 7980,
      "Ġbusinesses": 7981,
      "ĠTechn": 7982,
      "Ġrepresentatives": 7983,
      "Ġtwelve": 7984,
      "Ġchanged": 7985,
      "Ġfallen": 7986,
      "Ġmanagement": 7987,
      "ĠPatrick": 7988,
      "Ġquestioned": 7989,
      "ĠWalsh": 7990,
      "Ġiniti": 7991,
      "Ġinitially": 7992,
      "Ġfellow": 7993,
      "Ġreplaced": 7994,
      "Ġbringing": 7995,
      "Ġdomin": 7996,
      "Ġdomestic": 7997,
      "Ġrecovered": 7998,
      "Ġchallenge": 7999,
      "Ġfigure": 8000,
      "Ġwidespread": 8001,
      "Ġdetainees": 8002,
      "ĠIntel": 8003,
      "ĠAlberta": 8004,
      "Ġachieve": 8005,
      "itzerland": 8006,
      "Ġrichter": 8007,
      "Ġunclear": 8008,
      "ĠUkraine": 8009,
      "ĠOttawa": 8010,
      "Ġprofessional": 8011,
      "ĠAthens": 8012,
      "Ġfamous": 8013,
      "ĠPremier": 8014,
      "ĠGruzia": 8015,
      "ĠWisconsin": 8016,
      "06": 8017,
      "22": 8018,
      "App": 8019,
      "Ass": 8020,
      "Adam": 8021,
      "Báº¡n": 8022,
      "Hale": 8023,
      "Mah": 8024,
      "Now": 8025,
      "Ste": 8026,
      "Scient": 8027,
      "Tiáº¿n": 8028,
      "ae": 8029,
      "bian": 8030,
      "iya": 8031,
      "lished": 8032,
      "rand": 8033,
      "vin": 8034,
      "yle": 8035,
      "ngÆ°á»Ŀi": 8036,
      "Ġcáº©n": 8037,
      "Ġthang": 8038,
      "ĠbÃ¡nh": 8039,
      "Ġbags": 8040,
      "Ġsides": 8041,
      "Ġvice": 8042,
      "Ġvua": 8043,
      "Ġháº¥p": 8044,
      "erate": 8045,
      "inburgh": 8046,
      "Ġli": 8047,
      "Ġlosing": 8048,
      "Ġmá»ĩnh": 8049,
      "oni": 8050,
      "Ġpage": 8051,
      "anced": 8052,
      "reh": 8053,
      "ĠtrÆ°Æ¡": 8054,
      "enh": 8055,
      "edar": 8056,
      "ĠkÃ¨m": 8057,
      "Ġdouble": 8058,
      "Ġgreater": 8059,
      "arch": 8060,
      "arant": 8061,
      "Ġinn": 8062,
      "icy": 8063,
      "ican": 8064,
      "iced": 8065,
      "ouch": 8066,
      "ĠCD": 8067,
      "ĠCosta": 8068,
      "ĠMyers": 8069,
      "idi": 8070,
      "ĠAuthor": 8071,
      "ĠAuck": 8072,
      "ĠBon": 8073,
      "ĠBow": 8074,
      "ĠBongo": 8075,
      "adi": 8076,
      "olk": 8077,
      "ĠPet": 8078,
      "imir": 8079,
      "ĠTrib": 8080,
      "ĠHá»įc": 8081,
      "verse": 8082,
      "Ġstood": 8083,
      "ĠGary": 8084,
      "ĠGDP": 8085,
      "Ġconvers": 8086,
      "ĠRaj": 8087,
      "ĠFDA": 8088,
      "ĠFelipe": 8089,
      "ĠWi": 8090,
      "ĠWall": 8091,
      "Ġalcohol": 8092,
      "ĠKah": 8093,
      "ĠnghÃªnh": 8094,
      "ĠJong": 8095,
      "ĠJordan": 8096,
      "ĠEnergy": 8097,
      "ĠEthiop": 8098,
      "ĠhoÃł": 8099,
      "ĠChe": 8100,
      "ĠChiáº¿n": 8101,
      "Ġseat": 8102,
      "Ġheav": 8103,
      "Ġexcept": 8104,
      "uds": 8105,
      "udio": 8106,
      "ĠThÆ°Æ¡ng": 8107,
      "ĠThá»Ŀi": 8108,
      "Ġleo": 8109,
      "Ã©n": 8110,
      "Ġunit": 8111,
      "Ġuniversity": 8112,
      "ellan": 8113,
      "ÄĲÃ£": 8114,
      "ÄĲáº§u": 8115,
      "loc": 8116,
      "Ġarr": 8117,
      "rance": 8118,
      "Ġattract": 8119,
      "ructure": 8120,
      "Ġ737": 8121,
      "Ġ61": 8122,
      "Ġprec": 8123,
      "week": 8124,
      "Ġgrad": 8125,
      "NguyÃªn": 8126,
      "Ġdecre": 8127,
      "ĠLeon": 8128,
      "Ġrepair": 8129,
      "Ġ95": 8130,
      "Ġconfidence": 8131,
      "Ġregular": 8132,
      "ĠlÃ£m": 8133,
      "ĠMcDonald": 8134,
      "ĠMaria": 8135,
      "Ġ1993": 8136,
      "Ġ1994": 8137,
      "Ġimprison": 8138,
      "Pháº§n": 8139,
      "ernel": 8140,
      "Ġfeat": 8141,
      "ĠAmericans": 8142,
      "Ġcaptain": 8143,
      "rowing": 8144,
      "Also": 8145,
      "Ġexploded": 8146,
      "Ġassess": 8147,
      "Ġassistance": 8148,
      "Ġdeton": 8149,
      "hips": 8150,
      "Ġallows": 8151,
      "Ġdeleg": 8152,
      "Ġcentury": 8153,
      "Ġtakes": 8154,
      "ĠClara": 8155,
      "Ġcontroll": 8156,
      "Ġbombings": 8157,
      "Ġeffective": 8158,
      "Ġ1960": 8159,
      "Ġregional": 8160,
      "Ġspeak": 8161,
      "ĠEdinburgh": 8162,
      "castle": 8163,
      "lahoma": 8164,
      "Ġroads": 8165,
      "ĠForbes": 8166,
      "Ġcriticized": 8167,
      "ĠMedvedev": 8168,
      "Ġhistor": 8169,
      "Ġdistribution": 8170,
      "celand": 8171,
      "ĠIII": 8172,
      "Ġfunds": 8173,
      "Ġcustody": 8174,
      "Ġdevast": 8175,
      "Ġfalling": 8176,
      "Ġwriting": 8177,
      "Ġcorre": 8178,
      "Ġgrowing": 8179,
      "United": 8180,
      "Ġaccounts": 8181,
      "ĠHolly": 8182,
      "Ġcharacter": 8183,
      "adesh": 8184,
      "elaide": 8185,
      "ĠMoore": 8186,
      "ĠxoÃ¡y": 8187,
      "Ġseems": 8188,
      "Ġlabor": 8189,
      "bassy": 8190,
      "Ġpositive": 8191,
      "abeth": 8192,
      "Australian": 8193,
      "ĠMaryland": 8194,
      "Ġroute": 8195,
      "Ġbenefits": 8196,
      "Ġpurchase": 8197,
      "Ġdivision": 8198,
      "ĠVerizon": 8199,
      "ĠCharles": 8200,
      "umsfeld": 8201,
      "Ġlicense": 8202,
      "ĠMunich": 8203,
      "ĠFootball": 8204,
      "ĠKentucky": 8205,
      "havan": 8206,
      "Ġsleep": 8207,
      "ĠChelsea": 8208,
      "ĠSocial": 8209,
      "ĠDallas": 8210,
      "ĠAuthority": 8211,
      "ĠAuckland": 8212,
      "42": 8213,
      "55": 8214,
      "News": 8215,
      "TÃ¬nh": 8216,
      "acc": 8217,
      "bi": 8218,
      "fessor": 8219,
      "kins": 8220,
      "mosph": 8221,
      "rast": 8222,
      "worth": 8223,
      "Ġir": 8224,
      "ĠtÃºc": 8225,
      "Ġcá»Ļt": 8226,
      "Ġtháº¡ch": 8227,
      "ĠÄĳiá»ĥn": 8228,
      "ĠbÃ²": 8229,
      "Ġbrain": 8230,
      "Ġbá»Ľt": 8231,
      "Ġnature": 8232,
      "Ġsá»ĳc": 8233,
      "ĠsÃłn": 8234,
      "Ġsyn": 8235,
      "Ġsemi": 8236,
      "Ġscience": 8237,
      "Ġviáº¿ng": 8238,
      "ĠmÃª": 8239,
      "Ġmiá»ĩ": 8240,
      "ĠmÆ¡": 8241,
      "Ġmental": 8242,
      "Ġpict": 8243,
      "Ġpirates": 8244,
      "ĠchÃ¡u": 8245,
      "Ġtrue": 8246,
      "Ġki": 8247,
      "Ġwide": 8248,
      "Ġdá»ĭ": 8249,
      "ĠdáºŃp": 8250,
      "org": 8251,
      "Ġnha": 8252,
      "Ġfears": 8253,
      "Ġtool": 8254,
      "Ġkháº¥u": 8255,
      "eless": 8256,
      "ĠCla": 8257,
      "ĠSev": 8258,
      "ĠquÃª": 8259,
      "ĠAOL": 8260,
      "ĠBir": 8261,
      "ĠBureau": 8262,
      "olved": 8263,
      "ĠNature": 8264,
      "ĠTre": 8265,
      "ĠHB": 8266,
      "ĠHass": 8267,
      "ĠHamilton": 8268,
      "Ġformed": 8269,
      "ĠLang": 8270,
      "ĠRub": 8271,
      "ĠDu": 8272,
      "ĠDer": 8273,
      "ĠDennis": 8274,
      "rag": 8275,
      "emen": 8276,
      "ĠFree": 8277,
      "ĠWat": 8278,
      "ĠKÃ´ng": 8279,
      "ĠKil": 8280,
      "ĠKelly": 8281,
      "ĠJane": 8282,
      "ĠJones": 8283,
      "ĠJason": 8284,
      "Ġhoáº¡n": 8285,
      "ĠChan": 8286,
      "á»ıa": 8287,
      "lace": 8288,
      "ordin": 8289,
      "Ġ350": 8290,
      "outi": 8291,
      "Ġjump": 8292,
      "ipal": 8293,
      "ĠTruyá»ģn": 8294,
      "Ġoverse": 8295,
      "ĠZur": 8296,
      "Ġbail": 8297,
      "ritrea": 8298,
      "Ġ63": 8299,
      "venia": 8300,
      "Ġtype": 8301,
      "ĠAnt": 8302,
      "Ġserve": 8303,
      "Ġdecisions": 8304,
      "Ġcommander": 8305,
      "Ġanniversary": 8306,
      "Ġambul": 8307,
      "Ġscale": 8308,
      "Ġadding": 8309,
      "Ġcouldn": 8310,
      "Ġwarm": 8311,
      "ugal": 8312,
      "Ġconclus": 8313,
      "ĠDeep": 8314,
      "Ġfollows": 8315,
      "ĠCollege": 8316,
      "ĠhÃ£y": 8317,
      "Ġsettle": 8318,
      "ĠGuine": 8319,
      "Ġmarked": 8320,
      "Ġeveryone": 8321,
      "Cuá»ĳi": 8322,
      "ĠNghiÃªn": 8323,
      "ĠRepublicans": 8324,
      "Ġpaying": 8325,
      "Ġsuggests": 8326,
      "Ġtalking": 8327,
      "asket": 8328,
      "Ġcivilian": 8329,
      "Ġappearance": 8330,
      "ĠSalmond": 8331,
      "ĠBelg": 8332,
      "ĠBrazilian": 8333,
      "where": 8334,
      "Ġswim": 8335,
      "elta": 8336,
      "Ġindicate": 8337,
      "Ġships": 8338,
      "Ġlinked": 8339,
      "ĠFrankfurt": 8340,
      "Ġpractices": 8341,
      "ĠBroad": 8342,
      "ĠBrook": 8343,
      "âĢ¦\"": 8344,
      "Ġjoined": 8345,
      "Ġdollar": 8346,
      "Ġfirm": 8347,
      "Ġinfluence": 8348,
      "Ġbenefit": 8349,
      "embly": 8350,
      "ĠOpen": 8351,
      "Ġdoubt": 8352,
      "Ġpurpose": 8353,
      "Ġconnection": 8354,
      "Ġdeclaration": 8355,
      "Ġpoliticians": 8356,
      "Ġorganizations": 8357,
      "Tuáº§n": 8358,
      "ĠMSN": 8359,
      "Ġmentioned": 8360,
      "Ġpulled": 8361,
      "ĠHonduras": 8362,
      "Ġcasual": 8363,
      "ĠOklahoma": 8364,
      "Ġsurvivors": 8365,
      "rastructure": 8366,
      "Ġmiá»ĩng": 8367,
      "%)": 8368,
      "'d": 8369,
      "700": 8370,
      "AP": 8371,
      "Bu": 8372,
      "CÆ¡n": 8373,
      "Japan": 8374,
      "LP": 8375,
      "Mark": 8376,
      "Moham": 8377,
      "Pal": 8378,
      "RE": 8379,
      "Ryan": 8380,
      "SS": 8381,
      "Smith": 8382,
      "cá»§a": 8383,
      "eus": 8384,
      "hai": 8385,
      "held": 8386,
      "mens": 8387,
      "rust": 8388,
      "roll": 8389,
      "ses": 8390,
      "town": 8391,
      "zheimer": 8392,
      "ĠÆ°Æ¡ng": 8393,
      "ĠtÃ³c": 8394,
      "Ġcáº¡n": 8395,
      "Ġcá»§ng": 8396,
      "Ġcorn": 8397,
      "Ġcabinet": 8398,
      "ĠÄĳáº¿": 8399,
      "Ġbatt": 8400,
      "Ġsought": 8401,
      "ĠvÆ°á»Ŀn": 8402,
      "Ġlose": 8403,
      "ĠmÅ©": 8404,
      "Ġmach": 8405,
      "ĠtrÆ°a": 8406,
      "Ġtráº§m": 8407,
      "ĠdÃ£": 8408,
      "oran": 8409,
      "orage": 8410,
      "arry": 8411,
      "alcon": 8412,
      "Ġfighters": 8413,
      "Ġrig": 8414,
      "elected": 8415,
      "ĠCao": 8416,
      "ĠCedar": 8417,
      "ĠSg": 8418,
      "ĠSem": 8419,
      "ĠSport": 8420,
      "Ġquality": 8421,
      "ĠMs": 8422,
      "ĠMot": 8423,
      "ĠMore": 8424,
      "ĠMount": 8425,
      "ĠMusharraf": 8426,
      "chÃºng": 8427,
      "ĠlÃłn": 8428,
      "ĠgiÃły": 8429,
      "stra": 8430,
      "ĠTown": 8431,
      "ĠHoll": 8432,
      "uses": 8433,
      "ĠIE": 8434,
      "ĠIan": 8435,
      "ĠIceland": 8436,
      "verton": 8437,
      "ĠGian": 8438,
      "ĠRh": 8439,
      "ĠRumsfeld": 8440,
      "eme": 8441,
      "eman": 8442,
      "Ġraise": 8443,
      "Ġracing": 8444,
      "ewart": 8445,
      "Ġalert": 8446,
      "Ġash": 8447,
      "ĠJudge": 8448,
      "Ã¹m": 8449,
      "aked": 8450,
      "Ġlá»įt": 8451,
      "agers": 8452,
      "atey": 8453,
      "Ġexamin": 8454,
      "lav": 8455,
      "ĠThÃ´ng": 8456,
      "ĠThá»ĥ": 8457,
      "ĠThompson": 8458,
      "Ġund": 8459,
      "Ġuns": 8460,
      "endo": 8461,
      "idents": 8462,
      "outs": 8463,
      "China": 8464,
      "avid": 8465,
      "ibb": 8466,
      "Ġattending": 8467,
      "NhÃ¢n": 8468,
      "ĠTrident": 8469,
      "enson": 8470,
      "ĠAlamo": 8471,
      "ĠAlzheimer": 8472,
      "Ġ64": 8473,
      "Ġcovered": 8474,
      "Ġcoverage": 8475,
      "Ġ85": 8476,
      "Ġmeters": 8477,
      "ĠShe": 8478,
      "Ġgranted": 8479,
      "Ġmining": 8480,
      "Ġtherefore": 8481,
      "Ġdecades": 8482,
      "awah": 8483,
      "Ġconsult": 8484,
      "Ġflash": 8485,
      "egraph": 8486,
      "Ġhighly": 8487,
      "alez": 8488,
      "Ġdefe": 8489,
      "Ġfeature": 8490,
      "ĠKhan": 8491,
      "Ġplayoff": 8492,
      "Ġrunway": 8493,
      "grade": 8494,
      "Ġlegit": 8495,
      "ĠColor": 8496,
      "ĠCole": 8497,
      "Ġheaded": 8498,
      "Ġsetting": 8499,
      "Ġblow": 8500,
      "Ġresulting": 8501,
      "Ġdelayed": 8502,
      "Ġforecast": 8503,
      "Ġpolitics": 8504,
      "Ġsixth": 8505,
      "Ġinvolvement": 8506,
      "ĠAmazon": 8507,
      "Ġasking": 8508,
      "Ġadvised": 8509,
      "Ġmetal": 8510,
      "Ġcommunications": 8511,
      "ĠSwiss": 8512,
      "ĠSwitzerland": 8513,
      "Ġfactors": 8514,
      "Ġlarger": 8515,
      "Ġdestru": 8516,
      "ĠMayor": 8517,
      "Ġemployee": 8518,
      "Ġclearly": 8519,
      "Ġcrews": 8520,
      "Ġreading": 8521,
      "Æ°á»¡i": 8522,
      "Ġpeacekeep": 8523,
      "ĠTelec": 8524,
      "ĠTelegraph": 8525,
      "Ġciting": 8526,
      "Ġradar": 8527,
      "gressive": 8528,
      "ĠTimor": 8529,
      "ĠMatthew": 8530,
      "ĠBoard": 8531,
      "ĠMadhavan": 8532,
      "plane": 8533,
      "Ġreplace": 8534,
      "ĠACMA": 8535,
      "Ġeditor": 8536,
      "ĠGaruda": 8537,
      "Ġneighbour": 8538,
      "Ġwitnesses": 8539,
      "Ġpositions": 8540,
      "ĠOrganisation": 8541,
      "ĠResearch": 8542,
      "Ġpackage": 8543,
      "ĠGuardian": 8544,
      "Before": 8545,
      "Ġphysical": 8546,
      "Ġrecommend": 8547,
      "ĠJulia": 8548,
      "ĠDevelopment": 8549,
      "Ġdegrees": 8550,
      "Ġbottom": 8551,
      "ĠJacqu": 8552,
      "ĠNetany": 8553,
      "ĠVladimir": 8554,
      "British": 8555,
      "Ġnarrow": 8556,
      "Ġmosque": 8557,
      "Ġpowers": 8558,
      "sych": 8559,
      "Ġtorture": 8560,
      "ĠRwanda": 8561,
      "Ġchemical": 8562,
      "ĠBarker": 8563,
      "Ġhijack": 8564,
      "Ġunusual": 8565,
      "Ġsplit": 8566,
      "ĠVestas": 8567,
      "ĠDeepwater": 8568,
      "ĠGuinea": 8569,
      ".âĢĿ": 8570,
      "01": 8571,
      "03": 8572,
      "29": 8573,
      "43": 8574,
      "Author": 8575,
      "Cá»¥c": 8576,
      "David": 8577,
      "Ho": 8578,
      "Ká»ĥ": 8579,
      "Mil": 8580,
      "PP": 8581,
      "Pl": 8582,
      "Pakistan": 8583,
      "Sen": 8584,
      "Yesterday": 8585,
      "aith": 8586,
      "bai": 8587,
      "can": 8588,
      "iot": 8589,
      "jad": 8590,
      "more": 8591,
      "nesty": 8592,
      "pin": 8593,
      "pri": 8594,
      "rim": 8595,
      "ráº¥t": 8596,
      "xem": 8597,
      "Ġ.\"": 8598,
      "Ġut": 8599,
      "Ġtia": 8600,
      "Ġtá»ĳng": 8601,
      "ĠcÆ°á»¡ng": 8602,
      "ĠbÃ¡": 8603,
      "ĠbiÃª": 8604,
      "Ġbaby": 8605,
      "Ġsn": 8606,
      "Ġsad": 8607,
      "ĠsÃºc": 8608,
      "Ġsports": 8609,
      "Ġsomet": 8610,
      "ĠhÃ²n": 8611,
      "Ġhusband": 8612,
      "Ġlang": 8613,
      "Ġliá»ģu": 8614,
      "Ġliá»ģn": 8615,
      "Ġláº·p": 8616,
      "Ġmi": 8617,
      "Ġporn": 8618,
      "Ġpsych": 8619,
      "rete": 8620,
      "Ġká»ĭp": 8621,
      "Ġwickets": 8622,
      "Ġded": 8623,
      "Ġdiox": 8624,
      "ori": 8625,
      "Ġocean": 8626,
      "Ġgiáº¿ng": 8627,
      "inghi": 8628,
      "Ġtough": 8629,
      "Ġrá»ķ": 8630,
      "Ġrank": 8631,
      "ouri": 8632,
      "ĠCÃ¡c": 8633,
      "ĠSÃ¢n": 8634,
      "ĠSau": 8635,
      "ĠAFP": 8636,
      "amber": 8637,
      "ĠBá»ĵ": 8638,
      "ĠBash": 8639,
      "ĠBosnia": 8640,
      "olut": 8641,
      "ĠPC": 8642,
      "tered": 8643,
      "ĠTo": 8644,
      "ĠTáºŃp": 8645,
      "ĠHon": 8646,
      "ĠHud": 8647,
      "ĠHáº¡t": 8648,
      "ĠHaggis": 8649,
      "road": 8650,
      "ĠIm": 8651,
      "angers": 8652,
      "ĠLit": 8653,
      "ĠLive": 8654,
      "ĠRail": 8655,
      "ĠDa": 8656,
      "ewhere": 8657,
      "ĠFord": 8658,
      "ĠFein": 8659,
      "ĠWater": 8660,
      "ĠWinn": 8661,
      "ests": 8662,
      "Ġnghá»ģ": 8663,
      "ĠUy": 8664,
      "akers": 8665,
      "ifically": 8666,
      "ĠOss": 8667,
      "ĠOreg": 8668,
      "uma": 8669,
      "ardi": 8670,
      "ĠThu": 8671,
      "ĠThaksin": 8672,
      "ables": 8673,
      "inejad": 8674,
      "Ġspons": 8675,
      "ĠQuáºŃn": 8676,
      "ĠNewcastle": 8677,
      "ĠÄĳá»ĵi": 8678,
      "Chris": 8679,
      "Ġ41": 8680,
      "ously": 8681,
      "ogy": 8682,
      "ibouti": 8683,
      "NhÆ°": 8684,
      "ĠTrÆ°á»Łng": 8685,
      "Ġuses": 8686,
      "Ġrecording": 8687,
      "Ġupd": 8688,
      "Ġupcoming": 8689,
      "Ġ72": 8690,
      "Ġmechan": 8691,
      "Ġoffices": 8692,
      "ĠShankbone": 8693,
      "Ġacting": 8694,
      "Ġactual": 8695,
      "ĠAnna": 8696,
      "ovic": 8697,
      "ovision": 8698,
      "Ġfinally": 8699,
      "ommun": 8700,
      "Ġprovides": 8701,
      "Ġmilitant": 8702,
      "Ġfees": 8703,
      "ĠAbe": 8704,
      "ĠBrother": 8705,
      "...\"": 8706,
      "Ġstatements": 8707,
      "ĠEurovision": 8708,
      "Ġreturning": 8709,
      "Ġinsulin": 8710,
      "ĠAdelaide": 8711,
      "ĠAsian": 8712,
      "Ġforest": 8713,
      "Ġtested": 8714,
      "ĠMcCl": 8715,
      "Ġbroken": 8716,
      "Ġblood": 8717,
      "Ġadvoc": 8718,
      "Ġaffairs": 8719,
      "Ġdiscl": 8720,
      "Ġprompt": 8721,
      "Ġthreats": 8722,
      "ĠDeputy": 8723,
      "Ġconsidering": 8724,
      "Ġsmaller": 8725,
      "Ġprofessor": 8726,
      "Ġtwice": 8727,
      "ĠIslands": 8728,
      "Ġlisted": 8729,
      "Ġkeeping": 8730,
      "Ġcorruption": 8731,
      "Ġcourts": 8732,
      "Ġeasy": 8733,
      "Ġshuttle": 8734,
      "Ġsteps": 8735,
      "ĠHawaii": 8736,
      "ĠForest": 8737,
      "Space": 8738,
      "ujah": 8739,
      "Ġwidely": 8740,
      "prof": 8741,
      "Ġanalyst": 8742,
      "Ġanalysis": 8743,
      "Google": 8744,
      "Ġteachers": 8745,
      "Ġleaked": 8746,
      "Ġobtained": 8747,
      "Ġwithdrawal": 8748,
      "ĠHenry": 8749,
      "ategory": 8750,
      "Ġadvertising": 8751,
      "Ġillness": 8752,
      "ĠBahrain": 8753,
      "ĠAshley": 8754,
      "Ġawarded": 8755,
      "Ġphotograph": 8756,
      "ĠPrix": 8757,
      "Ġsurrounding": 8758,
      "ĠHorizon": 8759,
      "ĠProvince": 8760,
      "respond": 8761,
      "Ġelectricity": 8762,
      "Ġmillions": 8763,
      "Currently": 8764,
      "ĠJobs": 8765,
      "Ġdetermined": 8766,
      "Ġathlet": 8767,
      "ĠMoldova": 8768,
      "ĠCuá»Ļc": 8769,
      "ĠLynn": 8770,
      "Ġprosecution": 8771,
      "ĠEthiopia": 8772,
      "ĠOsset": 8773,
      "\")": 8774,
      "02": 8775,
      "05": 8776,
      "08": 8777,
      "Bay": 8778,
      "EU": 8779,
      "Obama": 8780,
      "Ser": 8781,
      "aver": 8782,
      "cont": 8783,
      "giá»Ŀ": 8784,
      "kel": 8785,
      "kok": 8786,
      "mate": 8787,
      "nold": 8788,
      "named": 8789,
      "pm": 8790,
      "ps": 8791,
      "pat": 8792,
      "rical": 8793,
      "vÃł": 8794,
      "Ġcru": 8795,
      "ĠthÃ´i": 8796,
      "ĠthiÃªu": 8797,
      "ĠÄĳáº±ng": 8798,
      "Ġbought": 8799,
      "Ġsá»¯a": 8800,
      "Ġsá»¥t": 8801,
      "Ġsquare": 8802,
      "Ġsquad": 8803,
      "Ġven": 8804,
      "ero": 8805,
      "inct": 8806,
      "Ġpush": 8807,
      "Ġcháº½": 8808,
      "ĠtráºŃt": 8809,
      "Ġdig": 8810,
      "Ġdá»įn": 8811,
      "oration": 8812,
      "ĠgÃ¡c": 8813,
      "Ġguy": 8814,
      "Ġgather": 8815,
      "Ġgained": 8816,
      "isf": 8817,
      "arase": 8818,
      "aling": 8819,
      "Ġkha": 8820,
      "Ġrange": 8821,
      "ĠCy": 8822,
      "entially": 8823,
      "ĠSinn": 8824,
      "ĠMail": 8825,
      "idad": 8826,
      "idane": 8827,
      "Ġrein": 8828,
      "Ġrevenue": 8829,
      "ĠBA": 8830,
      "ĠBog": 8831,
      "adel": 8832,
      "olm": 8833,
      "ĠPoint": 8834,
      "Their": 8835,
      "ĠTob": 8836,
      "ĠHard": 8837,
      "ĠHerald": 8838,
      "ircu": 8839,
      "usan": 8840,
      "owed": 8841,
      "owell": 8842,
      "ĠLuc": 8843,
      "ĠRome": 8844,
      "ĠDonald": 8845,
      "ems": 8846,
      "ĠcuÃ´": 8847,
      "ĠFront": 8848,
      "ĠFalcon": 8849,
      "ĠJama": 8850,
      "cker": 8851,
      "cknow": 8852,
      "ĠhoÃ¡": 8853,
      "Ġhoang": 8854,
      "ĠChÆ°Æ¡ng": 8855,
      "Ġsubs": 8856,
      "Ġnotice": 8857,
      "sex": 8858,
      "ĠÄĲá»ĵng": 8859,
      "odd": 8860,
      "iesel": 8861,
      "ĠVi": 8862,
      "ĠStat": 8863,
      "ĠStadium": 8864,
      "Ġwilling": 8865,
      "Ġgoes": 8866,
      "ishop": 8867,
      "Ġorg": 8868,
      "Ġjet": 8869,
      "Ġ54": 8870,
      "Ġexpert": 8871,
      "Trang": 8872,
      "mergency": 8873,
      "Ġplastic": 8874,
      "ogo": 8875,
      "arked": 8876,
      "ĠTrÆ°á»Ŀng": 8877,
      "othes": 8878,
      "Ġusually": 8879,
      "ression": 8880,
      "ruce": 8881,
      "Ġ73": 8882,
      "Ġappointed": 8883,
      "ahu": 8884,
      "Ġclin": 8885,
      "Ġ88": 8886,
      "argo": 8887,
      "ĠShal": 8888,
      "eva": 8889,
      "oca": 8890,
      "ĠCanadians": 8891,
      "awar": 8892,
      "ĠLeader": 8893,
      "Ġsupposed": 8894,
      "Ġlocations": 8895,
      "Ġaddressed": 8896,
      "ĠArk": 8897,
      "ĠArm": 8898,
      "ĠArnold": 8899,
      "ĠMcHale": 8900,
      "Ġ2013": 8901,
      "Ġfled": 8902,
      "ĠPrin": 8903,
      "Ġchuá»Ļt": 8904,
      "ĠGiul": 8905,
      "Ġeffic": 8906,
      "Ġsurge": 8907,
      "Ġrelatively": 8908,
      "Ġending": 8909,
      "ĠCaledonia": 8910,
      "Ġsupporting": 8911,
      "Ġearned": 8912,
      "Ġinvestigated": 8913,
      "Ġfirework": 8914,
      "Ġoperate": 8915,
      "ervation": 8916,
      "ledge": 8917,
      "ĠhÃ£m": 8918,
      "Khu": 8919,
      "ĠLuáºŃn": 8920,
      "Ġblame": 8921,
      "enny": 8922,
      "ÄĳÆ°á»£c": 8923,
      "viously": 8924,
      "Ġtesting": 8925,
      "khaz": 8926,
      "Ġsitting": 8927,
      "Ġviolent": 8928,
      "Ġhuge": 8929,
      "ĠEll": 8930,
      "Ġdemol": 8931,
      "Ġauthority": 8932,
      "Ġhospitals": 8933,
      "Ġpromote": 8934,
      "Ġteleph": 8935,
      "ĠOnline": 8936,
      "Ġcamer": 8937,
      "ĠChristmas": 8938,
      "Ġhumanitarian": 8939,
      "Ġdebt": 8940,
      "roydon": 8941,
      "going": 8942,
      "ecutive": 8943,
      "ĠSeries": 8944,
      "ĠSerge": 8945,
      "Ġhappy": 8946,
      "Ġhappen": 8947,
      "ointment": 8948,
      "Ġmarriage": 8949,
      "Ġcriticised": 8950,
      "Ġmaxim": 8951,
      "Ġidentity": 8952,
      "Ġholds": 8953,
      "Ġdevices": 8954,
      "ĠYoung": 8955,
      "lications": 8956,
      "ĠAllen": 8957,
      "ĠIndiana": 8958,
      "Ġsinger": 8959,
      "itnesses": 8960,
      "ĠPoland": 8961,
      "Ġprivacy": 8962,
      "Ġparticipate": 8963,
      "Ġeastern": 8964,
      "ĠMPs": 8965,
      "Ġescaped": 8966,
      "Ġsolar": 8967,
      "ĠBangkok": 8968,
      "Ġrecover": 8969,
      "Ġmotor": 8970,
      "Ġreligion": 8971,
      "ĠAbdullah": 8972,
      "Ġcombat": 8973,
      "Ġcombined": 8974,
      "ĠClarke": 8975,
      "Ġinches": 8976,
      "Ġexisting": 8977,
      "ĠGonzalez": 8978,
      "Ġmeaning": 8979,
      "Ġrobot": 8980,
      "Ġprocedure": 8981,
      "Ġcircum": 8982,
      "ĠLouisiana": 8983,
      "Ġprovinces": 8984,
      "Ġenforcement": 8985,
      "ĠKatrina": 8986,
      "Ġvaccine": 8987,
      "Ġdiplomatic": 8988,
      "ĠLibertarian": 8989,
      "ĠHeathrow": 8990,
      "People": 8991,
      "ĠÄĳÃ¨n": 8992,
      "ĠFulham": 8993,
      "ĠVoice": 8994,
      "ĠElmwood": 8995,
      "ĠHollywood": 8996,
      "ĠHBO": 8997,
      "awahiri": 8998,
      "ĠColorado": 8999,
      "Authorities": 9000,
      "baijan": 9001,
      "ĠOregon": 9002,
      "24": 9003,
      "34": 9004,
      "65": 9005,
      "AI": 9006,
      "BM": 9007,
      "Báº¥t": 9008,
      "Cáº§u": 9009,
      "Ed": 9010,
      "Eng": 9011,
      "Even": 9012,
      "FL": 9013,
      "From": 9014,
      "Giá»": 9015,
      "Hu": 9016,
      "Háº¯n": 9017,
      "NG": 9018,
      "Neil": 9019,
      "RI": 9020,
      "Ro": 9021,
      "Rep": 9022,
      "Rec": 9023,
      "Tay": 9024,
      "UTC": 9025,
      "ias": 9026,
      "mun": 9027,
      "ny": 9028,
      "pa": 9029,
      "uw": 9030,
      "Äģ": 9031,
      "Ġ*": 9032,
      "Ġáº¥m": 9033,
      "Ġtáº·c": 9034,
      "ĠtÃ³m": 9035,
      "Ġcá»ı": 9036,
      "Ġcited": 9037,
      "Ġcrack": 9038,
      "Ġtháº¯t": 9039,
      "ĠÄĳÃ¢": 9040,
      "ĠÄĳai": 9041,
      "Ġacknow": 9042,
      "Ġsection": 9043,
      "Ġsolution": 9044,
      "Ġselling": 9045,
      "Ġhá»ĳi": 9046,
      "Ġláº¡nh": 9047,
      "ĠláºŃu": 9048,
      "Ġmile": 9049,
      "Ġmuse": 9050,
      "onin": 9051,
      "Ġpip": 9052,
      "Ġpushed": 9053,
      "ĠchÆ°": 9054,
      "ĠchÃły": 9055,
      "Ġtrigg": 9056,
      "atar": 9057,
      "ĠdÃłn": 9058,
      "ĠgÃ£y": 9059,
      "isa": 9060,
      "Ġtoward": 9061,
      "asgow": 9062,
      "Ġantic": 9063,
      "Ġanonymous": 9064,
      "Ġray": 9065,
      "Ġráº»": 9066,
      "Ġroll": 9067,
      "election": 9068,
      "ĠCau": 9069,
      "ĠCÃ¡ch": 9070,
      "ĠCroydon": 9071,
      "ĠSnow": 9072,
      "Thá»ĭ": 9073,
      "Those": 9074,
      "ĠMáº¡ch": 9075,
      "iden": 9076,
      "ĠAv": 9077,
      "ĠBart": 9078,
      "ĠBorder": 9079,
      "stances": 9080,
      "olic": 9081,
      "ĠTÆ°á»Ľng": 9082,
      "Ġey": 9083,
      "ĠHeal": 9084,
      "Ġstore": 9085,
      "Ġstab": 9086,
      "Ġconstit": 9087,
      "ĠDal": 9088,
      "ĠDá»ĭch": 9089,
      "ĠDutch": 9090,
      "employ": 9091,
      "Ġrare": 9092,
      "ĠFair": 9093,
      "estone": 9094,
      "operation": 9095,
      "uls": 9096,
      "ĠKi": 9097,
      "istics": 9098,
      "ĠJun": 9099,
      "Ã¹i": 9100,
      "agues": 9101,
      "ĠElect": 9102,
      "ĠEST": 9103,
      "oren": 9104,
      "arden": 9105,
      "ĠThiáº¿t": 9106,
      "Ġleague": 9107,
      "Ġlength": 9108,
      "Ġleaves": 9109,
      "ĠVin": 9110,
      "ĠStra": 9111,
      "ĠStock": 9112,
      "Ġspect": 9113,
      "Ġspirit": 9114,
      "Ġoffensive": 9115,
      "Chuyáº¿n": 9116,
      "ondo": 9117,
      "Ġsoáº¡n": 9118,
      "Ġplants": 9119,
      "Ġplaint": 9120,
      "Ġcomplex": 9121,
      "Ġpolling": 9122,
      "acing": 9123,
      "othing": 9124,
      "ĠAlinghi": 9125,
      "Ġ68": 9126,
      "Ġmeant": 9127,
      "orship": 9128,
      "Ġ--": 9129,
      "NgÃ¢n": 9130,
      "ĠAustralians": 9131,
      "Ġdecide": 9132,
      "Ġworker": 9133,
      "Ġemb": 9134,
      "ierre": 9135,
      "Ġroof": 9136,
      "Ġammun": 9137,
      "Ġinfrastructure": 9138,
      "ĠMcL": 9139,
      "Ġboys": 9140,
      "ĠSpr": 9141,
      "Ġwarming": 9142,
      "Ġknew": 9143,
      "Ġimposed": 9144,
      "PhÃ³": 9145,
      "retch": 9146,
      "Ġpublicly": 9147,
      "Ġwinter": 9148,
      "Ġretire": 9149,
      "Only": 9150,
      "Ġincreases": 9151,
      "Ġsuspension": 9152,
      "ĠSchwar": 9153,
      "Ġhelping": 9154,
      "Ġdrive": 9155,
      "Ġinvolving": 9156,
      "Ġpassing": 9157,
      "Ġguards": 9158,
      "lett": 9159,
      "Ġmissiles": 9160,
      "iberal": 9161,
      "ĠGeorgian": 9162,
      "Ġactivists": 9163,
      "Ġmatches": 9164,
      "Ġfindings": 9165,
      "Ġcreation": 9166,
      "Ġjudg": 9167,
      "GiÃ¡o": 9168,
      "Ġballs": 9169,
      "Ġlooked": 9170,
      "ĠMilan": 9171,
      "Ġindustrial": 9172,
      "Ġrequests": 9173,
      "Ġtravelling": 9174,
      "ĠExecutive": 9175,
      "Ġestimates": 9176,
      "Ġdiscovery": 9177,
      "ĠPolish": 9178,
      "Under": 9179,
      "Ġorders": 9180,
      "Ġmagaz": 9181,
      "Ġwounds": 9182,
      "Ġpilots": 9183,
      "ĠGlasgow": 9184,
      "Ġsurvived": 9185,
      "Ġreferred": 9186,
      "ributed": 9187,
      "ĠServices": 9188,
      "Ġgirls": 9189,
      "Ġblaze": 9190,
      "Ġoccupied": 9191,
      "ĠRegional": 9192,
      "Ġfunction": 9193,
      "ĠAssembly": 9194,
      "ĠTerritory": 9195,
      "McC": 9196,
      "Ġassociated": 9197,
      "ĠGonzales": 9198,
      "ĠFARC": 9199,
      "Ġprocedures": 9200,
      "Ġwreckage": 9201,
      "ĠCameron": 9202,
      "ĠGabon": 9203,
      "ĠGreek": 9204,
      "Ġamendment": 9205,
      "ĠAcademy": 9206,
      "ĠHotel": 9207,
      "ĠRobertson": 9208,
      "American": 9209,
      "Ġcondemned": 9210,
      "Ġlanguage": 9211,
      "Ġaudience": 9212,
      "ĠEntertainment": 9213,
      "ĠZurich": 9214,
      "Ġdestruction": 9215,
      "olutely": 9216,
      "ĠHudson": 9217,
      "ĠMcClellan": 9218,
      "khazia": 9219,
      "38": 9220,
      "44": 9221,
      "75": 9222,
      "DM": 9223,
      "ED": 9224,
      "En": 9225,
      "GA": 9226,
      "Hiá»ĩp": 9227,
      "Later": 9228,
      "Local": 9229,
      "bar": 9230,
      "cos": 9231,
      "dale": 9232,
      "equ": 9233,
      "frey": 9234,
      "gary": 9235,
      "just": 9236,
      "ladesh": 9237,
      "nock": 9238,
      "ski": 9239,
      "uct": 9240,
      "ying": 9241,
      "Ã¼": 9242,
      "á»µ": 9243,
      "ĠtÃ¢": 9244,
      "Ġtable": 9245,
      "ĠcÆ°á»Ŀi": 9246,
      "ĠcÃ¡n": 9247,
      "Ġcable": 9248,
      "ĠÄĳáº¯c": 9249,
      "Ġauth": 9250,
      "Ġbit": 9251,
      "ĠbÃ¡ch": 9252,
      "Ġnone": 9253,
      "Ġsun": 9254,
      "ĠvÃ¢": 9255,
      "ĠhÃ¹ng": 9256,
      "Ġhurt": 9257,
      "Ġláº¡": 9258,
      "Ġláº·ng": 9259,
      "Ġlived": 9260,
      "Ġmáº¡o": 9261,
      "Ġmarg": 9262,
      "Ġmáº¡c": 9263,
      "anth": 9264,
      "Ġchain": 9265,
      "Ġchai": 9266,
      "ĠchÃºc": 9267,
      "Ġchances": 9268,
      "Ġchampion": 9269,
      "ĠtrÃ´i": 9270,
      "Ġtraged": 9271,
      "atform": 9272,
      "Ġdáº¥y": 9273,
      "Ġdemocracy": 9274,
      "orate": 9275,
      "Ġnháº¡y": 9276,
      "iter": 9277,
      "itary": 9278,
      "Ġfish": 9279,
      "Ġfix": 9280,
      "Ġfought": 9281,
      "Ġfighter": 9282,
      "Ġtouch": 9283,
      "asiris": 9284,
      "Ġant": 9285,
      "Ġphá»ķi": 9286,
      "Ġrh": 9287,
      "Ġrival": 9288,
      "Ġrural": 9289,
      "ĠrÆ°á»¡i": 9290,
      "ĠCBS": 9291,
      "ĠSaint": 9292,
      "Thá»©": 9293,
      "ĠMÃ´i": 9294,
      "ĠMann": 9295,
      "Ġreject": 9296,
      "chang": 9297,
      "ĠAU": 9298,
      "ĠAviation": 9299,
      "ÃŃa": 9300,
      "amat": 9301,
      "ĠBÃ¡o": 9302,
      "Ġgiant": 9303,
      "stron": 9304,
      "lets": 9305,
      "oln": 9306,
      "ĠPack": 9307,
      "ĠPower": 9308,
      "ĠPesh": 9309,
      "ĠNine": 9310,
      "Ġchosen": 9311,
      "imb": 9312,
      "imately": 9313,
      "ĠTour": 9314,
      "ĠTib": 9315,
      "vez": 9316,
      "thor": 9317,
      "ĠIA": 9318,
      "ĠIRA": 9319,
      "ĠIDF": 9320,
      "Ġwhite": 9321,
      "ĠLav": 9322,
      "ĠLinc": 9323,
      "Ġstrain": 9324,
      "ĠGore": 9325,
      "ĠGue": 9326,
      "ĠGmail": 9327,
      "ĠRab": 9328,
      "ĠRah": 9329,
      "ĠRaf": 9330,
      "ĠDell": 9331,
      "ĠDub": 9332,
      "ĠDick": 9333,
      "empt": 9334,
      "osse": 9335,
      "oslav": 9336,
      "Ġraid": 9337,
      "ĠFarm": 9338,
      "ĠFitz": 9339,
      "istol": 9340,
      "istant": 9341,
      "Ġ(\"": 9342,
      "agen": 9343,
      "aguay": 9344,
      "ĠEle": 9345,
      "ections": 9346,
      "ĠChen": 9347,
      "ĠOS": 9348,
      "ĠOw": 9349,
      "ĠObs": 9350,
      "Ġshares": 9351,
      "cca": 9352,
      "Ġlei": 9353,
[...]
