{
  "version": "1.0",
  "truncation": null,
  "padding": null,
  "added_tokens": [
    {
      "id": 0,
      "content": "<unk>",
      "single_word": false,
      "lstrip": false,
      "rstrip": false,
      "normalized": false,
      "special": true
    },
    {
      "id": 1,
      "content": "<pad>",
      "single_word": false,
      "lstrip": false,
      "rstrip": false,
      "normalized": false,
      "special": true
    },
    {
      "id": 2,
      "content": "<bos>",
      "single_word": false,
      "lstrip": false,
      "rstrip": false,
      "normalized": false,
      "special": true
    },
    {
      "id": 3,
      "content": "<eos>",
      "single_word": false,
      "lstrip": false,
      "rstrip": false,
      "normalized": false,
      "special": true
    }
  ],
  "normalizer": null,
  "pre_tokenizer": {
    "type": "ByteLevel",
    "add_prefix_space": false,
    "trim_offsets": true,
    "use_regex": true
  },
  "post_processor": null,
  "decoder": {
    "type": "ByteLevel",
    "add_prefix_space": true,
    "trim_offsets": true,
    "use_regex": true
  },
  "model": {
    "type": "BPE",
    "dropout": null,
    "unk_token": "<unk>",
    "continuing_subword_prefix": null,
    "end_of_word_suffix": null,
    "fuse_unk": false,
    "byte_fallback": false,
    "ignore_merges": false,
    "vocab": {
      "<unk>": 0,
      "<pad>": 1,
      "<bos>": 2,
      "<eos>": 3,
      "!": 4,
      "#": 5,
      "$": 6,
      "%": 7,
      "&": 8,
      "(": 9,
      ")": 10,
      "*": 11,
      "+": 12,
      ",": 13,
      "-": 14,
      ".": 15,
      "/": 16,
      "0": 17,
      "1": 18,
      "2": 19,
      "3": 20,
      "4": 21,
      "5": 22,
      "6": 23,
      "7": 24,
      "8": 25,
      "9": 26,
      ":": 27,
      ";": 28,
      "=": 29,
      "?": 30,
      "@": 31,
      "A": 32,
      "B": 33,
      "C": 34,
      "D": 35,
      "E": 36,
      "F": 37,
      "G": 38,
      "H": 39,
      "I": 40,
      "J": 41,
      "K": 42,
      "L": 43,
      "M": 44,
      "N": 45,
      "O": 46,
      "P": 47,
      "Q": 48,
      "R": 49,
      "S": 50,
      "T": 51,
      "U": 52,
      "V": 53,
      "W": 54,
      "X": 55,
      "Y": 56,
      "Z": 57,
      "\\": 58,
      "_": 59,
      "`": 60,
      "a": 61,
      "b": 62,
      "c": 63,
      "d": 64,
      "e": 65,
      "f": 66,
      "g": 67,
      "h": 68,
      "i": 69,
      "j": 70,
      "k": 71,
      "l": 72,
      "m": 73,
      "n": 74,
      "o": 75,
      "p": 76,
      "q": 77,
      "r": 78,
      "s": 79,
      "t": 80,
      "u": 81,
      "v": 82,
      "w": 83,
      "x": 84,
      "y": 85,
      "z": 86,
      "{": 87,
      "}": 88,
      "~": 89,
      "¡": 90,
      "¢": 91,
      "£": 92,
      "¤": 93,
      "¥": 94,
      "¦": 95,
      "§": 96,
      "¨": 97,
      "©": 98,
      "ª": 99,
      "«": 100,
      "¬": 101,
      "®": 102,
      "¯": 103,
      "°": 104,
      "±": 105,
      "²": 106,
      "³": 107,
      "´": 108,
      "µ": 109,
      "¶": 110,
      "·": 111,
      "¸": 112,
      "¹": 113,
      "º": 114,
      "»": 115,
      "¼": 116,
      "½": 117,
      "¾": 118,
      "¿": 119,
      "Â": 120,
      "Ã": 121,
      "Ä": 122,
      "Å": 123,
      "Æ": 124,
      "Ì": 125,
      "Í": 126,
      "à": 127,
      "á": 128,
      "â": 129,
      "ä": 130,
      "è": 131,
      "é": 132,
      "ï": 133,
      "Ċ": 134,
      "Ġ": 135,
      "Ģ": 136,
      "ģ": 137,
      "Ĥ": 138,
      "ĥ": 139,
      "ħ": 140,
      "Ĩ": 141,
      "ĩ": 142,
      "Ī": 143,
      "ī": 144,
      "Ĭ": 145,
      "ĭ": 146,
      "Į": 147,
      "į": 148,
      "ı": 149,
      "Ĳ": 150,
      "ĳ": 151,
      "Ĵ": 152,
      "ĵ": 153,
      "Ķ": 154,
      "ķ": 155,
      "ĸ": 156,
      "Ĺ": 157,
      "ĺ": 158,
      "Ļ": 159,
      "ļ": 160,
      "Ľ": 161,
      "ľ": 162,
      "Ŀ": 163,
      "ŀ": 164,
      "Ł": 165,
      "ł": 166,
      "Ń": 167,
      "á»": 168,
      "Ġt": 169,
      "ng": 170,
      "áº": 171,
      "Ġc": 172,
      "Ġth": 173,
      "Ġ,": 174,
      "Ġn": 175,
      "Ãł": 176,
      "ĠÄ": 177,
      "ĠÄĳ": 178,
      "Ġ.": 179,
      "Ġa": 180,
      "Ġs": 181,
      "Ġl": 182,
      "Ġm": 183,
      "Ġb": 184,
      "Ġh": 185,
      "Ġv": 186,
      "Ġthe": 187,
      "Ġw": 188,
      "hÃ": 189,
      "Ġi": 190,
      "re": 191,
      "Æ°": 192,
      "Ġo": 193,
      "Ġk": 194,
      "Ġp": 195,
      "Ã³": 196,
      "nd": 197,
      "Ġg": 198,
      "at": 199,
      "Ġd": 200,
      "er": 201,
      "Ġnh": 202,
      "iá»": 203,
      "Ã´": 204,
      "Ġ&": 205,
      "Ã¡": 206,
      "Ġtr": 207,
      "ou": 208,
      "nh": 209,
      "áº¿": 210,
      "áº¡": 211,
      "Æ°á»": 212,
      "Ġch": 213,
      "á»Ļ": 214,
      "os": 215,
      "on": 216,
      "Ġto": 217,
      "ing": 218,
      "an": 219,
      "en": 220,
      "qu": 221,
      "Ġng": 222,
      "ap": 223,
      "ĠlÃł": 224,
      "áº£": 225,
      "áº¥": 226,
      "Ã´i": 227,
      "ot": 228,
      "es": 229,
      "Ġr": 230,
      "Ġf": 231,
      "or": 232,
      "apos": 233,
      "al": 234,
      "Ġof": 235,
      "ĠvÃł": 236,
      "Ġin": 237,
      "Ġthá»": 238,
      "Ġand": 239,
      "Ãª": 240,
      "is": 241,
      "ed": 242,
      "Ã¬": 243,
      "ar": 244,
      "ch": 245,
      "á»ĳ": 246,
      "á»Ļt": 247,
      "it": 248,
      "in": 249,
      "ĠchÃ": 250,
      "ĠtÃ´i": 251,
      "á»¯": 252,
      "Ġy": 253,
      "Ġmá»Ļt": 254,
      "Ġvá»": 255,
      "ĠÄĳá»": 256,
      "Ġcá»": 257,
      "ºng": 258,
      "ĠcÃ³": 259,
      "ĠkhÃ": 260,
      "Ġthat": 261,
      "om": 262,
      "ay": 263,
      "Ãªn": 264,
      "áºŃ": 265,
      "ĠcÃ¡": 266,
      "as": 267,
      "Ã¢": 268,
      "le": 269,
      "iá»ĩ": 270,
      "ĠI": 271,
      "á»¯ng": 272,
      "Ŀi": 273,
      "ll": 274,
      "á»į": 275,
      "Ġyou": 276,
      "ve": 277,
      "quot": 278,
      "Æ¡": 279,
      "Ġe": 280,
      "Ġwe": 281,
      "Ľi": 282,
      "Ġnhá»¯ng": 283,
      "Ġwh": 284,
      "ic": 285,
      "Ġcá»§": 286,
      "ĠchÃºng": 287,
      "Ġcá»§a": 288,
      "Ġph": 289,
      "ow": 290,
      "áº§": 291,
      "iáº¿": 292,
      "us": 293,
      "Ġqu": 294,
      "Ġta": 295,
      "áº¥t": 296,
      "Ġkh": 297,
      "Ã£": 298,
      "ly": 299,
      "Ġis": 300,
      "á»±": 301,
      "áº¡n": 302,
      "Ġbe": 303,
      "ut": 304,
      "ong": 305,
      "ion": 306,
      "´ng": 307,
      "Ġit": 308,
      "Ġgi": 309,
      "ĠnÃł": 310,
      "iá»ģ": 311,
      "et": 312,
      "ĠkhÃ´ng": 313,
      "á»Ł": 314,
      "Æ°á»£": 315,
      "ĠnÃ³": 316,
      "Th": 317,
      "Ġtá»": 318,
      "Æ°á»Ŀi": 319,
      "ĠÄĳÃ³": 320,
      "Ġx": 321,
      "iá»ģu": 322,
      "Ġre": 323,
      "ent": 324,
      "ĠngÆ°á»Ŀi": 325,
      "ct": 326,
      "Ġbáº¡n": 327,
      "Ġha": 328,
      "áº¡i": 329,
      "Ġon": 330,
      "ld": 331,
      "uy": 332,
      "Ġtrong": 333,
      "Ġthá»ĥ": 334,
      "Ġngh": 335,
      "And": 336,
      "Æ°á»£c": 337,
      "Ġ?": 338,
      "ĠnÃły": 339,
      "ĠÄĳÃ£": 340,
      "áº¯": 341,
      "id": 342,
      "ĠcÃ¡c": 343,
      "Äĥ": 344,
      "ĠÄĳÆ°á»£c": 345,
      "ang": 346,
      "Ã¢y": 347,
      "ĠnhÆ°": 348,
      "Ġhá»į": 349,
      "Ġ-": 350,
      "am": 351,
      "ur": 352,
      "Ġthis": 353,
      "Ã´ng": 354,
      "Ã¬nh": 355,
      "ig": 356,
      "Ġra": 357,
      "Ġcho": 358,
      "Ġvá»Ľi": 359,
      "áº¥y": 360,
      "Ġst": 361,
      "ÃŃ": 362,
      "Ġ--": 363,
      "Ġdo": 364,
      "á»ĩ": 365,
      "im": 366,
      "ere": 367,
      "VÃł": 368,
      "Ġsá»±": 369,
      "ce": 370,
      "Ġchá»": 371,
      "áº½": 372,
      "op": 373,
      "ĠphÃ": 374,
      "áº§n": 375,
      "Ġgiá»": 376,
      "Ġfor": 377,
      "ĠmÃł": 378,
      "Ġli": 379,
      "áº£i": 380,
      "ver": 381,
      "ĠlÃłm": 382,
      "se": 383,
      "áº±": 384,
      "ke": 385,
      "Ġ1": 386,
      "Ġcon": 387,
      "Ġwas": 388,
      "ol": 389,
      "Ġá»Ł": 390,
      "áº±ng": 391,
      "ir": 392,
      "Ġan": 393,
      "ith": 394,
      "ĠÄĳá»ĥ": 395,
      "Ġsa": 396,
      "st": 397,
      "Ġvá»ģ": 398,
      "ĠC": 399,
      "ĠT": 400,
      "Ġsáº½": 401,
      "Ġare": 402,
      "Ġcáº£": 403,
      "th": 404,
      "Ġu": 405,
      "ally": 406,
      "iá»ĥ": 407,
      "Æ¡n": 408,
      "iáº¿t": 409,
      "áº·": 410,
      "Ġwith": 411,
      "Ġho": 412,
      "uá»ĳ": 413,
      "áºŃt": 414,
      "iÃªn": 415,
      "Ġ:": 416,
      "á»¥": 417,
      "ĠÄĳiá»ģu": 418,
      "Ä©": 419,
      "Ġhave": 420,
      "Ġtháº¿": 421,
      "ad": 422,
      "Ġlo": 423,
      "áº§u": 424,
      "od": 425,
      "Ġab": 426,
      "Ġpr": 427,
      "Ġthey": 428,
      "Ġgo": 429,
      "Ġcan": 430,
      "Ġse": 431,
      "Æ°á»Ľ": 432,
      "á»ĭ": 433,
      "áº¿n": 434,
      "Ã¹": 435,
      "em": 436,
      "Ġtá»«": 437,
      "Ãłnh": 438,
      "Ġkhi": 439,
      "©ng": 440,
      "ation": 441,
      "ĠkhÃ¡": 442,
      "ht": 443,
      "Ġsá»ĳ": 444,
      "out": 445,
      "Ġas": 446,
      "ĠnÃ³i": 447,
      "Ãº": 448,
      "Ġso": 449,
      "inh": 450,
      "©c": 451,
      "iá»ĩn": 452,
      "Ġsh": 453,
      "ĠM": 454,
      "So": 455,
      "Ġwor": 456,
      "ĠnÄĥ": 457,
      "Ġhe": 458,
      "ter": 459,
      "±c": 460,
      "ĠA": 461,
      "Ġwhat": 462,
      "ĠÄĳáº¿n": 463,
      "áº¿t": 464,
      "il": 465,
      "Ġcom": 466,
      "ould": 467,
      "Ġlá»": 468,
      "ill": 469,
      "Ġne": 470,
      "Ġpháº£i": 471,
      "ĠnhÃ": 472,
      "ul": 473,
      "Ã²": 474,
      "iá»ĩc": 475,
      "Ġat": 476,
      "Ġhá»": 477,
      "Ġabout": 478,
      "ant": 479,
      "Æ°á»Ŀ": 480,
      "Æ°á»Ľc": 481,
      "ÄĲ": 482,
      "ĠB": 483,
      "Ġráº±ng": 484,
      "ĠS": 485,
      "ĠN": 486,
      "The": 487,
      "Ġnot": 488,
      "Ġme": 489,
      "ĠvÃło": 490,
      "ĠgÃ¬": 491,
      "Æ°á»Ŀng": 492,
      "ĠÄĳang": 493,
      "ore": 494,
      "Ãłn": 495,
      "Ġviá»ĩc": 496,
      "Ġfr": 497,
      "ers": 498,
      "ag": 499,
      "Ġláº¡i": 500,
      "áº£n": 501,
      "áºŃn": 502,
      "ust": 503,
      "Ġtháº¥y": 504,
      "Ġall": 505,
      "ĠnghÄ©": 506,
      "ĠÄĳá»Ļ": 507,
      "Ġj": 508,
      "Ġráº¥t": 509,
      "ĠcÃ¡ch": 510,
      "Ã½": 511,
      "Ġex": 512,
      "ĠhÆ¡n": 513,
      "00": 514,
      "Ġus": 515,
      "ac": 516,
      "Ġnhiá»ģu": 517,
      "ight": 518,
      "Ġmy": 519,
      "Ã¹ng": 520,
      "Ġmá»": 521,
      "Ġsom": 522,
      "Æ°Æ¡": 523,
      "Ãłi": 524,
      "Ġpe": 525,
      "art": 526,
      "ĠH": 527,
      "ain": 528,
      "ear": 529,
      "Ġthá»±c": 530,
      "iáº¿n": 531,
      "ĠÄĳáº§u": 532,
      "TÃ´i": 533,
      "Æ°Æ¡ng": 534,
      "áºŃy": 535,
      "Ġor": 536,
      "ess": 537,
      "We": 538,
      "ople": 539,
      "á»ĵ": 540,
      "ĠÄĳÃ¢y": 541,
      "Ġde": 542,
      "ok": 543,
      "Ġhá»įc": 544,
      "um": 545,
      "Ġthere": 546,
      "ĠkhÃ¡c": 547,
      "áº¡o": 548,
      "á»ĳi": 549,
      "ist": 550,
      "ķi": 551,
      "á»įi": 552,
      "Ã¢u": 553,
      "Ġchá»ī": 554,
      "ate": 555,
      "est": 556,
      "áº¿u": 557,
      "Nh": 558,
      "ĠcÃ´ng": 559,
      "Ġpeople": 560,
      "ĠtrÃªn": 561,
      "Ã¡c": 562,
      "ure": 563,
      "Ġlike": 564,
      "hÃºng": 565,
      "Ġ2": 566,
      "anh": 567,
      "and": 568,
      "ĠcÃ¡i": 569,
      "ĠnÃło": 570,
      "Ġone": 571,
      "ab": 572,
      "ies": 573,
      "Ġbiáº¿t": 574,
      "Ġfrom": 575,
      "nt": 576,
      "ĠvÃ¬": 577,
      "ity": 578,
      "Ġsá»": 579,
      "if": 580,
      "Ġchuy": 581,
      "ĠÄĳá»ģ": 582,
      "ao": 583,
      "ĠchÃŃ": 584,
      "ung": 585,
      "Ãłng": 586,
      "el": 587,
      "iá»ĩu": 588,
      "ob": 589,
      "ĠphÃ¡": 590,
      "áº»": 591,
      "ĠnÄĥm": 592,
      "¢n": 593,
      "Å©ng": 594,
      "Æ¡i": 595,
      "ind": 596,
      "Ġkn": 597,
      "Ġour": 598,
      "ĠÄĳi": 599,
      "use": 600,
      "Ġbec": 601,
      "uá»ĳn": 602,
      "Ġthá»©": 603,
      "Ġbut": 604,
      "Ġdá»¥": 605,
      "ĠthÃłnh": 606,
      "á»Ļc": 607,
      "ect": 608,
      "ia": 609,
      "áº¯t": 610,
      "Ã¢n": 611,
      "Ġal": 612,
      "ink": 613,
      "Ġout": 614,
      "og": 615,
      "ie": 616,
      "Ġint": 617,
      "Æ°ng": 618,
      "ause": 619,
      "ery": 620,
      "Ġjust": 621,
      "ĠP": 622,
      "It": 623,
      "un": 624,
      "ĠcÅ©ng": 625,
      "Ġma": 626,
      "ĠnhÃł": 627,
      "ive": 628,
      "rou": 629,
      "Ġte": 630,
      "ChÃºng": 631,
      "uá»Ļc": 632,
      "Ġsp": 633,
      "Ġknow": 634,
      "all": 635,
      "á»ģ": 636,
      "áº«": 637,
      "Ġbá»ĭ": 638,
      "Ã¡ng": 639,
      "Ġthem": 640,
      "Ġthing": 641,
      "ĠG": 642,
      "Ġquan": 643,
      "Ġkho": 644,
      "áºŃp": 645,
      "au": 646,
      "Ġmuá»ĳn": 647,
      "ÃŃch": 648,
      "ich": 649,
      "ort": 650,
      "Ġthese": 651,
      "á»ı": 652,
      "her": 653,
      "Ġif": 654,
      "ĠmÃ¬nh": 655,
      "Ġup": 656,
      "Ġwho": 657,
      "á»Łi": 658,
      "Ġthink": 659,
      "Ġvery": 660,
      "Ġnháº¥t": 661,
      "ĠL": 662,
      "one": 663,
      "Ġget": 664,
      "ci": 665,
      "Æ°á»Ł": 666,
      "Ġtáº¡o": 667,
      "Æ°á»Łng": 668,
      "ĠÄĳá»Ļng": 669,
      "Ã¡i": 670,
      "But": 671,
      "Ġgiá»Ľi": 672,
      "ĠchÃŃnh": 673,
      "áº·t": 674,
      "ĠnhÆ°ng": 675,
      "Ġby": 676,
      "áº¥n": 677,
      "ĠnÃªn": 678,
      "Ġwhen": 679,
      "ĠD": 680,
      "act": 681,
      "Ġpl": 682,
      "our": 683,
      "Wh": 684,
      "Ġact": 685,
      "Ġyour": 686,
      "ĠváºŃy": 687,
      "Ġtim": 688,
      "Ġmore": 689,
      "Ġim": 690,
      "Ġsome": 691,
      "ĳng": 692,
      "Ġgoing": 693,
      "Ãły": 694,
      "á»ģn": 695,
      "Ġká»": 696,
      "Ġsee": 697,
      "ine": 698,
      "Ã²n": 699,
      "áº©": 700,
      "Ġyear": 701,
      "Ġlá»Ľ": 702,
      "gh": 703,
      "áº¯c": 704,
      "Ãªu": 705,
      "Ġbecause": 706,
      "ĠhÃ¬nh": 707,
      "Æ°a": 708,
      "NhÆ°ng": 709,
      "Ġsu": 710,
      "Ãºc": 711,
      "á»ĩn": 712,
      "ib": 713,
      "ame": 714,
      "Ã©": 715,
      "Ġhad": 716,
      "iá»ĥu": 717,
      "Ġhiá»ĩn": 718,
      "ost": 719,
      "Ġgiá»Ŀ": 720,
      "Ġsá»ĳng": 721,
      "ack": 722,
      "Ġná»¯": 723,
      "Ġtiáº¿": 724,
      "Ġwould": 725,
      "Ġtáº¡i": 726,
      "ard": 727,
      "ĠnháºŃn": 728,
      "Ġwere": 729,
      "Ġmá»įi": 730,
      "Ġhow": 731,
      "ose": 732,
      "Ġever": 733,
      "Æ°á»£ng": 734,
      "ast": 735,
      "Ġnáº¿u": 736,
      "Ġtheir": 737,
      "Ġthu": 738,
      "¬n": 739,
      "Ġquy": 740,
      "iz": 741,
      "Ġcuá»Ļc": 742,
      "á»ĵi": 743,
      "Ġtá»ĳ": 744,
      "Ã¡n": 745,
      "king": 746,
      "Ġcáº§n": 747,
      "Ã¢m": 748,
      "hi": 749,
      "are": 750,
      "ĥn": 751,
      "Ġhay": 752,
      "Ġwhich": 753,
      "ĠK": 754,
      "Ġtá»±": 755,
      "áº·c": 756,
      "oc": 757,
      "Ġwant": 758,
      "Ġreally": 759,
      "Ġlook": 760,
      "ĠthÃ¬": 761,
      "ide": 762,
      "á»Ļi": 763,
      "ÃŃnh": 764,
      "ually": 765,
      "ĠÄĳá»ĭ": 766,
      "Ġcomp": 767,
      "iv": 768,
      "ai": 769,
      "reat": 770,
      "ĠÄĲ": 771,
      "ous": 772,
      "ĠÄĳá»ĵ": 773,
      "Ġtáº¥t": 774,
      "ĠÃ´ng": 775,
      "Ġway": 776,
      "Ġáº¥y": 777,
      "ĠE": 778,
      "Ġtá»Ľi": 779,
      "Ġbá»Łi": 780,
      "Ġle": 781,
      "ment": 782,
      "Ġtheo": 783,
      "uá»": 784,
      "áº«n": 785,
      "Ġbáº¯t": 786,
      "Ã´n": 787,
      "ans": 788,
      "Ġtin": 789,
      "ĠcÃ²n": 790,
      "iá»ĥm": 791,
      "ĠnhÃ¬n": 792,
      "Ġlá»Ľn": 793,
      "hing": 794,
      "ĠR": 795,
      "Ġworld": 796,
      "ĠcÃ¹ng": 797,
      "Ġbáº±ng": 798,
      "ĠÃ½": 799,
      "Ġcáº£m": 800,
      "iá»ĥn": 801,
      "Ġtáº¿": 802,
      "You": 803,
      "Ġsau": 804,
      "Ġdá»¥ng": 805,
      "Ġcá»©": 806,
      "ace": 807,
      "ĠtháºŃt": 808,
      "ĠlÃªn": 809,
      "Ġbáº£n": 810,
      "ĠcÃ¢u": 811,
      "Ġanh": 812,
      "Ġem": 813,
      "ĠgiÃ¡": 814,
      "ven": 815,
      "Ġbr": 816,
      "Ġag": 817,
      "áº£ng": 818,
      "Ġexp": 819,
      "Ġsao": 820,
      "ther": 821,
      "Ġthá»Ŀi": 822,
      "Ġchuyá»ĩn": 823,
      "Ġhere": 824,
      "Ġtrá»Ł": 825,
      "pp": 826,
      "Ġqua": 827,
      "Ġsay": 828,
      "Ġthen": 829,
      "iá»ĩm": 830,
      "ĠnhÃ¢n": 831,
      "ĠngÃły": 832,
      "ĠcÆ¡": 833,
      "Ġtime": 834,
      "Ġhas": 835,
      "Ġbá»Ļ": 836,
      "This": 837,
      "Ġsinh": 838,
      "Äĥn": 839,
      "age": 840,
      "ions": 841,
      "Ĺi": 842,
      "Ġevery": 843,
      "app": 844,
      "Ġper": 845,
      "Ġ3": 846,
      "ud": 847,
      "áº£nh": 848,
      "res": 849,
      "ĠnÄĥng": 850,
      "áº¡t": 851,
      "Ġdon": 852,
      "á»±c": 853,
      "Ġactually": 854,
      "Ġmu": 855,
      "Ġman": 856,
      "Ġsá»Ń": 857,
      "ĠphÃ¡t": 858,
      "ĠtrÆ°á»Ľc": 859,
      "ĠnÆ°á»Ľc": 860,
      "Ġlu": 861,
      "ĠÄĳá»ķi": 862,
      "iá»ĩt": 863,
      "Ġinto": 864,
      "Ġfe": 865,
      "ĠtoÃłn": 866,
      "ence": 867,
      "Ġcould": 868,
      "ĠmÃ¡": 869,
      "áº£o": 870,
      "Ã¬m": 871,
      "ıi": 872,
      "Ġpháº§n": 873,
      "ach": 874,
      "ĠnÆ¡i": 875,
      "Ġwill": 876,
      "Ġwork": 877,
      "Ġgia": 878,
      "Ã¡nh": 879,
      "ĠthÃ´ng": 880,
      "ild": 881,
      "Ġdá»±": 882,
      "Ġnhau": 883,
      "ĠtÃ¬m": 884,
      "Ġyears": 885,
      "Ġmá»Ľi": 886,
      "ra": 887,
      "Ġdid": 888,
      "Ġthay": 889,
      "Ġnow": 890,
      "Ġváº¥n": 891,
      "ĠÄĳá»ĭnh": 892,
      "Ġen": 893,
      "Ġother": 894,
      "ff": 895,
      "ond": 896,
      "itt": 897,
      "Ġthings": 898,
      "Ġhá»ĩ": 899,
      "ĠtrÆ°á»Ŀng": 900,
      "áº¹": 901,
      "iff": 902,
      "ĠnhiÃªn": 903,
      "ĠtÃŃnh": 904,
      "iá»ħ": 905,
      "Ġwhere": 906,
      "ĠF": 907,
      "ĠtrÃ¬nh": 908,
      "ĠJ": 909,
      "Ġmáº¡": 910,
      "Ġtá»ĳt": 911,
      "ĠtÆ°á»Łng": 912,
      "Ã¡ch": 913,
      "Ġthan": 914,
      "áº¥u": 915,
      "Ġkáº¿t": 916,
      "ical": 917,
      "They": 918,
      "Ġsomet": 919,
      "Äĥng": 920,
      "Now": 921,
      "áº¥p": 922,
      "ĠTh": 923,
      "ĠváºŃt": 924,
      "Ġcl": 925,
      "ep": 926,
      "áº£y": 927,
      "Ġdiff": 928,
      "Ġhapp": 929,
      "ĠlÃ½": 930,
      "ĠhÃłng": 931,
      "Ã£y": 932,
      "Ġmake": 933,
      "wo": 934,
      "Ġhá»ıi": 935,
      "Ġneed": 936,
      "Ġany": 937,
      "ĠW": 938,
      "ry": 939,
      "£p": 940,
      "Ġun": 941,
      "Ġno": 942,
      "ĠmÃ¡y": 943,
      "áº¡c": 944,
      "Ġáº£nh": 945,
      "Ġgr": 946,
      "Ġ;": 947,
      "Ġbeen": 948,
      "so": 949,
      "ĠTÃ´i": 950,
      "fe": 951,
      "Ġhá»£p": 952,
      "Ġbu": 953,
      "ome": 954,
      "ge": 955,
      "ice": 956,
      "Ġimp": 957,
      "Ġmáº·t": 958,
      "irst": 959,
      "ro": 960,
      "áº¯n": 961,
      "NÃ³": 962,
      "ree": 963,
      "ĠhÃłnh": 964,
      "Ġtiáº¿p": 965,
      "Ġsaid": 966,
      "Ġstart": 967,
      "red": 968,
      "ite": 969,
      "Ġná»¯a": 970,
      "Ġar": 971,
      "Ġkinh": 972,
      "ory": 973,
      "ÄĲÃ¢y": 974,
      "Ġgian": 975,
      "Ġthá»©c": 976,
      "³ng": 977,
      "Ġhá»Ļi": 978,
      "Ġpart": 979,
      "alk": 980,
      "Ġtrá»į": 981,
      "Ġvá»ĭ": 982,
      "own": 983,
      "ĠCh": 984,
      "Ġthiáº¿t": 985,
      "Ãło": 986,
      "Ġchiáº¿": 987,
      "Ńa": 988,
      "Ġtuy": 989,
      "pt": 990,
      "orm": 991,
      "Ġxem": 992,
      "Ġliá»ĩu": 993,
      "ves": 994,
      "Ġrá»ĵi": 995,
      "ound": 996,
      "ass": 997,
      "Ġdi": 998,
      "Ġtrá»įng": 999,
      "Ġover": 1000,
      "Ġphá»¥": 1001,
      "ĠO": 1002,
      "ĠhoÃ¡": 1003,
      "uá»ķi": 1004,
      "Ġá»": 1005,
      "Ġsomething": 1006,
      "ĠthÃŃch": 1007,
      "Ġtwo": 1008,
      "Ġright": 1009,
      "Ġdis": 1010,
      "ount": 1011,
      "ĠcÃ´": 1012,
      "á»ĩnh": 1013,
      "ea": 1014,
      "ĠÄĳá»ĵng": 1015,
      "Ã¡t": 1016,
      "round": 1017,
      "iá»ħn": 1018,
      "ĠV": 1019,
      "Ġback": 1020,
      "Ġmuch": 1021,
      "Ġgiáº£i": 1022,
      "ue": 1023,
      "Ġdiffere": 1024,
      "iÃªu": 1025,
      "Ġfirst": 1026,
      "Ġnew": 1027,
      "ens": 1028,
      "sel": 1029,
      "nder": 1030,
      "Ġtráº»": 1031,
      "ell": 1032,
      "ĠlÆ°á»£ng": 1033,
      "Ġcall": 1034,
      "áº¯ng": 1035,
      "Ġhai": 1036,
      "Ġprob": 1037,
      "ving": 1038,
      "Ġai": 1039,
      "Ġco": 1040,
      "ĠthÆ°á»Ŀng": 1041,
      "Ġbáº¥t": 1042,
      "rong": 1043,
      "Ġthose": 1044,
      "ĠvÃłi": 1045,
      "ĠÄĳá»ģu": 1046,
      "ĠÄĳo": 1047,
      "ple": 1048,
      "Ġshe": 1049,
      "olog": 1050,
      "Ġalso": 1051,
      "á»©c": 1052,
      "ĠtiÃªn": 1053,
      "ec": 1054,
      "Ġgiá»¯": 1055,
      "ater": 1056,
      "ign": 1057,
      "ĠÄĳá»ĳi": 1058,
      "ĠsÃ¡ng": 1059,
      "á»Ļng": 1060,
      "Ġac": 1061,
      "á»ĥn": 1062,
      "Ġgot": 1063,
      "Ġhiá»ĥu": 1064,
      "ĠquÃ¡": 1065,
      "Ġnay": 1066,
      "ĠtÃ¢m": 1067,
      "Ġid": 1068,
      "Ġlife": 1069,
      "á»ĳc": 1070,
      "Ġcont": 1071,
      "ght": 1072,
      "Ġloáº¡i": 1073,
      "ÄĲÃ³": 1074,
      "ult": 1075,
      "Ġpo": 1076,
      "cent": 1077,
      "Ġgiá»ĳng": 1078,
      "Ġam": 1079,
      "Ġlot": 1080,
      "Ġláº§n": 1081,
      "Ġná»": 1082,
      "Ġkind": 1083,
      "ittle": 1084,
      "Ġcá»©u": 1085,
      "vel": 1086,
      "way": 1087,
      "ber": 1088,
      "Ġthá»ĳng": 1089,
      "Ġbá»ĩnh": 1090,
      "Ġbao": 1091,
      "áº£m": 1092,
      "Báº¡n": 1093,
      "Ġlittle": 1094,
      "Ã²ng": 1095,
      "able": 1096,
      "ody": 1097,
      "ĠviÃªn": 1098,
      "á»§": 1099,
      "Ġunder": 1100,
      "Ġbet": 1101,
      "Ġ5": 1102,
      "á»ĭch": 1103,
      "oss": 1104,
      "ru": 1105,
      "Ġhis": 1106,
      "Ãºng": 1107,
      "Ġmost": 1108,
      "Ġnghá»ĩ": 1109,
      "á»ĩt": 1110,
      "Ġmo": 1111,
      "Ġtrá»": 1112,
      "Ġchang": 1113,
      "iá»ģn": 1114,
      "ĠÄĳiá»ĥm": 1115,
      "000": 1116,
      "Ġngo": 1117,
      "ĠnghÄ©a": 1118,
      "Ãªm": 1119,
      "In": 1120,
      "Ġgá»įi": 1121,
      "Ġres": 1122,
      "ick": 1123,
      "Ġnhá»ı": 1124,
      "Ġday": 1125,
      "Ġonly": 1126,
      "ated": 1127,
      "ĠchÃº": 1128,
      "Ġeven": 1129,
      "ations": 1130,
      "What": 1131,
      "Ġher": 1132,
      "Ġ4": 1133,
      "ank": 1134,
      "ĠÄĳÆ°a": 1135,
      "ial": 1136,
      "ĠhoÃłn": 1137,
      "ĠtÆ°Æ¡ng": 1138,
      "ict": 1139,
      "Ġxu": 1140,
      "ĠU": 1141,
      "Ġnghiá»ĩm": 1142,
      "Ġbl": 1143,
      "Ġmay": 1144,
      "Ġpro": 1145,
      "Ġquáº£": 1146,
      "Ġdes": 1147,
      "Ġad": 1148,
      "VÃ¬": 1149,
      "ĠtÃ¡c": 1150,
      "ĠÄĳÆ°á»Ŀng": 1151,
      "uc": 1152,
      "ade": 1153,
      "Ġváº«n": 1154,
      "Ġmany": 1155,
      "Ġtake": 1156,
      "tern": 1157,
      "Ġ10": 1158,
      "Å©": 1159,
      "Äĥm": 1160,
      "Ġxáº£y": 1161,
      "ĠTr": 1162,
      "Ġdifferent": 1163,
      "rough": 1164,
      "Ġgood": 1165,
      "Ġshow": 1166,
      "Ġchiáº¿c": 1167,
      "Ġbo": 1168,
      "Ġnguy": 1169,
      "Ġsy": 1170,
      "Ġgen": 1171,
      "ew": 1172,
      "ood": 1173,
      "ĠthuáºŃt": 1174,
      "Má»Ļt": 1175,
      "Ġbiá»ĩt": 1176,
      "ĠdÃ¹ng": 1177,
      "áº³ng": 1178,
      "ĠÄĳáº¡i": 1179,
      "pl": 1180,
      "ance": 1181,
      "Ġhum": 1182,
      "ĠbÃªn": 1183,
      "Ġtá»«ng": 1184,
      "Ġreal": 1185,
      "lem": 1186,
      "Ġhoáº·c": 1187,
      "ĠdÃ¢n": 1188,
      "Ġcá»ĳ": 1189,
      "ase": 1190,
      "Ġtriá»ĥn": 1191,
      "Ã£o": 1192,
      "uyá»ģn": 1193,
      "iá»ĩp": 1194,
      "Ġchuyá»ĥn": 1195,
      "Ġ19": 1196,
      "ĠlÃºc": 1197,
      "Ġdiá»ħn": 1198,
      "ord": 1199,
      "VáºŃy": 1200,
      "áº©n": 1201,
      "ath": 1202,
      "ish": 1203,
      "ip": 1204,
      "int": 1205,
      "Ġaround": 1206,
      "Ġthrough": 1207,
      "Ġ20": 1208,
      "Ġdoes": 1209,
      "Ġtrá»ĭ": 1210,
      "Ġquyáº¿t": 1211,
      "«ng": 1212,
      "á»įn": 1213,
      "Ġcao": 1214,
      "other": 1215,
      "Ġnghe": 1216,
      "Ãºp": 1217,
      "Ã¡o": 1218,
      "ning": 1219,
      "ark": 1220,
      "ents": 1221,
      "ĠÄĥn": 1222,
      "Ġpre": 1223,
      "Ġdáº¡": 1224,
      "Ġcomm": 1225,
      "uá»ĳc": 1226,
      "ress": 1227,
      "Ġtuyá»ĩt": 1228,
      "Ġcáº§u": 1229,
      "Ġtá»ķ": 1230,
      "Ġmá»Ĺi": 1231,
      "uá»ĳi": 1232,
      "Ġkhoáº£ng": 1233,
      "Ġtalk": 1234,
      "That": 1235,
      "form": 1236,
      "Ġlá»±c": 1237,
      "Ġkáº¿": 1238,
      "Ġcháº¥t": 1239,
      "Ġtell": 1240,
      "Ġkhu": 1241,
      "Ġdown": 1242,
      "Ġbeing": 1243,
      "Ġoff": 1244,
      "CÃ³": 1245,
      "ary": 1246,
      "Ġput": 1247,
      "Ġlá»Ŀi": 1248,
      "ĠgiÃ¡o": 1249,
      "£i": 1250,
      "áº§m": 1251,
      "ĠÄĳáº¥t": 1252,
      "ĠgiÃºp": 1253,
      "Ġuse": 1254,
      "áº¯p": 1255,
      "²ng": 1256,
      "ĠÆ¡n": 1257,
      "Ġ&#": 1258,
      "ian": 1259,
      "ible": 1260,
      "Ãµ": 1261,
      "ful": 1262,
      "Ġthou": 1263,
      "ne": 1264,
      "©a": 1265,
      "Ġtrung": 1266,
      "Ġproblem": 1267,
      "ert": 1268,
      "ĠY": 1269,
      "Ġchá»§": 1270,
      "áº©m": 1271,
      "Ġbáº£o": 1272,
      "Há»į": 1273,
      "wn": 1274,
      "ors": 1275,
      "Ch": 1276,
      "ub": 1277,
      "xt": 1278,
      "Ġtiáº¿n": 1279,
      "Ġháº¿t": 1280,
      "Ġsc": 1281,
      "Ġsm": 1282,
      "ĠphÃ²ng": 1283,
      "Ġhappen": 1284,
      "Æ°á»Ľi": 1285,
      "ject": 1286,
      "ĠtÃ¬nh": 1287,
      "ĠnghiÃªn": 1288,
      "ĠchÆ°a": 1289,
      "lect": 1290,
      "Ġinc": 1291,
      "hÃ´ng": 1292,
      "Ġxuáº¥t": 1293,
      "Æ°á»Ľng": 1294,
      "ual": 1295,
      "Ġmang": 1296,
      "ether": 1297,
      "ak": 1298,
      "te": 1299,
      "ĠVÃł": 1300,
      "Well": 1301,
      "day": 1302,
      "Ġfact": 1303,
      "Ġxe": 1304,
      "Ġsame": 1305,
      "á»¹": 1306,
      "ĠliÃªn": 1307,
      "Ġcount": 1308,
      "ĠphÃ¢n": 1309,
      "Ġtranh": 1310,
      "ĠbÃłi": 1311,
      "á»ĳng": 1312,
      "ĠNh": 1313,
      "Ġro": 1314,
      "ĠkhÃ³": 1315,
      "ĠÄĳÆ¡n": 1316,
      "ĠnÃ£o": 1317,
      "ower": 1318,
      "ars": 1319,
      "ĠtáºŃp": 1320,
      "Ġtruyá»ģn": 1321,
      "Ġtuá»ķi": 1322,
      "ĠÄĳÃºng": 1323,
      "Ġvi": 1324,
      "ĠÄĳiá»ĩn": 1325,
      "ĠphÆ°Æ¡ng": 1326,
      "ĠbÃ¬nh": 1327,
      "áºŃu": 1328,
      "There": 1329,
      "ÄĲiá»ģu": 1330,
      "ĠÄĳáº·t": 1331,
      "Ġtry": 1332,
      "av": 1333,
      "ĠtÆ°á»£ng": 1334,
      "we": 1335,
      "Ġdá»": 1336,
      "Ġcome": 1337,
      "Ġbig": 1338,
      "Ġtay": 1339,
      "Ġbiáº¿n": 1340,
      "Ġcr": 1341,
      "stem": 1342,
      "urn": 1343,
      "Ġtiá»ģn": 1344,
      "Ġgiá»¯a": 1345,
      "ĠyÃªu": 1346,
      "ons": 1347,
      "Ġsáº£n": 1348,
      "Ġdec": 1349,
      "ting": 1350,
      "ED": 1351,
      "Ġtiáº¿ng": 1352,
      "Ġpers": 1353,
      "ile": 1354,
      "Ġfl": 1355,
      "á»ĵn": 1356,
      "Ġthree": 1357,
      "Ġnhá»": 1358,
      "Ġdoing": 1359,
      "Ġfind": 1360,
      "áº¡nh": 1361,
      "Ġtho": 1362,
      "ĠbÃ©": 1363,
      "áº·p": 1364,
      "Ġtráº£": 1365,
      "Ġkháº£": 1366,
      "iver": 1367,
      "Ġngay": 1368,
      "Ġgreat": 1369,
      "Ġkhoa": 1370,
      "Ġsur": 1371,
      "ved": 1372,
      "ĠhÃ£y": 1373,
      "ÃŃt": 1374,
      "chn": 1375,
      "ĠthÃº": 1376,
      "Ġbá»ı": 1377,
      "ft": 1378,
      "ically": 1379,
      "©p": 1380,
      "Ġláº¥y": 1381,
      "Ġ!": 1382,
      "Náº¿u": 1383,
      "ces": 1384,
      "Ġty": 1385,
      "Ġdr": 1386,
      "ric": 1387,
      "self": 1388,
      "Ġgáº§n": 1389,
      "Ġhuman": 1390,
      "ire": 1391,
      "Ġpercent": 1392,
      "ĠxÃ£": 1393,
      "Ġstud": 1394,
      "Ġhoáº¡t": 1395,
      "Ġquest": 1396,
      "fter": 1397,
      "Ġbrain": 1398,
      "Ġwell": 1399,
      "Nhá»¯ng": 1400,
      "Ġ..": 1401,
      "Ġchiáº¿n": 1402,
      "fore": 1403,
      "Ġchild": 1404,
      "Ġthá»ĭ": 1405,
      "ĠÄĳÃ¡ng": 1406,
      "Ġsystem": 1407,
      "ĠsÃ¡ch": 1408,
      "Ġapp": 1409,
      "Ġlear": 1410,
      "ail": 1411,
      "ics": 1412,
      "Ġpháº©m": 1413,
      "igh": 1414,
      "Ġind": 1415,
      "ĠthÃ¢n": 1416,
      "Ġlet": 1417,
      "Ġown": 1418,
      "áº¥m": 1419,
      "ĠphÃ¡p": 1420,
      "ates": 1421,
      "Ġhiá»ĩu": 1422,
      "ĠSt": 1423,
      "Ġcalled": 1424,
      "Ġcá»¥": 1425,
      "ĠkhÃŃ": 1426,
      "ĠIn": 1427,
      "Ġcuá»ĳi": 1428,
      "Ġlong": 1429,
      "ĠQ": 1430,
      "ĠÄĳá»Ŀi": 1431,
      "Ġtechn": 1432,
      "Ġwhy": 1433,
      "end": 1434,
      "ĠchÆ¡i": 1435,
      "Ã³c": 1436,
      "ating": 1437,
      "ition": 1438,
      "mer": 1439,
      "Ġsoci": 1440,
      "Ġsim": 1441,
      "Ġinv": 1442,
      "Ġbel": 1443,
      "thing": 1444,
      "Ġmáº¥t": 1445,
      "Ġminh": 1446,
      "Ġsá»©c": 1447,
      "ology": 1448,
      "ious": 1449,
      "illion": 1450,
      "Ġbuild": 1451,
      "Ġmade": 1452,
      "Ġká»ĥ": 1453,
      "Ġwom": 1454,
      "Ġla": 1455,
      "ĠphÃº": 1456,
      "áº«u": 1457,
      "Ġrem": 1458,
      "ĠMá»¹": 1459,
      "įng": 1460,
      "Ġagain": 1461,
      "per": 1462,
      "Ġshould": 1463,
      "con": 1464,
      "Ġmáº¡nh": 1465,
      "Ã©t": 1466,
      "Ġimport": 1467,
      "Ġnghiá»ĩp": 1468,
      "Ġend": 1469,
      "Ġcol": 1470,
      "ool": 1471,
      "ĠngoÃłi": 1472,
      "á»ķ": 1473,
      "Khi": 1474,
      "ĠÃŃt": 1475,
      "Ġdáº«n": 1476,
      "Ġunderst": 1477,
      "ĠláºŃp": 1478,
      "ren": 1479,
      "ĠtÃłi": 1480,
      "ĠÄĳáº¥y": 1481,
      "ks": 1482,
      "ize": 1483,
      "á»¥c": 1484,
      "Ġ...": 1485,
      "Ġexper": 1486,
      "Ġcreat": 1487,
      "Ġhel": 1488,
      "ĠmÃ´": 1489,
      "Ġsec": 1490,
      "If": 1491,
      "«a": 1492,
      "ĠloÃłi": 1493,
      "he": 1494,
      "ri": 1495,
      "Ġká»³": 1496,
      "Ġbá»©c": 1497,
      "les": 1498,
      "áºŃm": 1499,
      "Ġins": 1500,
      "Ġtinh": 1501,
      "Ġcour": 1502,
      "ĠTED": 1503,
      "ĠluÃ´n": 1504,
      "Ġdá»±ng": 1505,
      "ĠxÃ¢y": 1506,
      "Ġchange": 1507,
      "ĠtrÃŃ": 1508,
      "He": 1509,
      "olut": 1510,
      "ĠtiÃªu": 1511,
      "ities": 1512,
      "Ġperson": 1513,
      "Ġphá»ĳ": 1514,
      "á»Ń": 1515,
      "uá»ĳng": 1516,
      "ĠtÃªn": 1517,
      "ĠvÃ´": 1518,
      "uyáº¿t": 1519,
      "Ġcá»Ļng": 1520,
      "ĠvÄĥn": 1521,
      "Ġtoday": 1522,
      "ĠÃ¢m": 1523,
      "Ġchá»©ng": 1524,
      "Ġfeel": 1525,
      "Ġ6": 1526,
      "Ġsch": 1527,
      "Ġdidn": 1528,
      "ope": 1529,
      "Ġthought": 1530,
      "Ġtá»Ń": 1531,
      "Ġimportant": 1532,
      "áº§y": 1533,
      "Ng": 1534,
      "ĠhÆ°á»Ľng": 1535,
      "Ġafter": 1536,
      "Ġhá»ĵ": 1537,
      "ys": 1538,
      "Ġcar": 1539,
      "Ġnháº¡c": 1540,
      "Ġask": 1541,
      "Ġev": 1542,
      "Ġidea": 1543,
      "ise": 1544,
      "Ġmean": 1545,
      "Ġsci": 1546,
      "Ġthá»Ń": 1547,
      "Ġ200": 1548,
      "Ġob": 1549,
      "Ġviáº¿t": 1550,
      "Ġba": 1551,
      "ĠÄĳÃ¢u": 1552,
      "Ġchá»©c": 1553,
      "ĠnguyÃªn": 1554,
      "ull": 1555,
      "Ġchu": 1556,
      "Ġkiáº¿n": 1557,
      "Ġquá»ĳc": 1558,
      "Ġgiáº£": 1559,
      "Ġlast": 1560,
      "áº¡m": 1561,
      "Ġá»©ng": 1562,
      "Ġvá»Ŀi": 1563,
      "Ġstarted": 1564,
      "Ã¨": 1565,
      "ave": 1566,
      "ogr": 1567,
      "Ġexam": 1568,
      "Ġchá»įn": 1569,
      "erest": 1570,
      "Ã´m": 1571,
      "Ã¡m": 1572,
      "Ġgiáº£n": 1573,
      "ĠIt": 1574,
      "Ġquyá»ģn": 1575,
      "be": 1576,
      "Ġhu": 1577,
      "Ġcháº¿": 1578,
      "az": 1579,
      "Ġtrans": 1580,
      "Ġunderstand": 1581,
      "body": 1582,
      "ĠÄĳáº·c": 1583,
      "ĠThe": 1584,
      "ty": 1585,
      "Ġtá»¥": 1586,
      "Ġgl": 1587,
      "Ġsuy": 1588,
      "Ġbá»ĳ": 1589,
      "Ġcháº¿t": 1590,
      "ĠtÆ°": 1591,
      "Ġhelp": 1592,
      "als": 1593,
      "á»ıi": 1594,
      "iáº¿m": 1595,
      "ĠbÃło": 1596,
      "Ġwent": 1597,
      "áº¡ch": 1598,
      "ese": 1599,
      "Ġmáº¡ng": 1600,
      "Ġbas": 1601,
      "Ġits": 1602,
      "gan": 1603,
      "Ġcáº¥p": 1604,
      "Ġrel": 1605,
      "ĠÃ": 1606,
      "Ġvá»¥": 1607,
      "Ġtriá»ĩu": 1608,
      "ĠbÃł": 1609,
      "áº¡p": 1610,
      "ĠtÄĥng": 1611,
      "ough": 1612,
      "ork": 1613,
      "Trong": 1614,
      "Ġinst": 1615,
      "áº¹p": 1616,
      "Ġtháº§n": 1617,
      "Ġná»ģn": 1618,
      "Ġstory": 1619,
      "ĠÄĳáº¡o": 1620,
      "Ġwr": 1621,
      "Ġbefore": 1622,
      "Ġláº½": 1623,
      "Ġbelie": 1624,
      "³m": 1625,
      "Ġmight": 1626,
      "ĠÄĳá»©a": 1627,
      "Ġdesign": 1628,
      "ĠAnd": 1629,
      "Ġplay": 1630,
      "Ġpower": 1631,
      "Ġngu": 1632,
      "kes": 1633,
      "ph": 1634,
      "Ġtra": 1635,
      "ĠsÄ©": 1636,
      "Ġprod": 1637,
      "Ġpol": 1638,
      "Ġkhá»ıi": 1639,
      "ĠmÃłu": 1640,
      "CÃ¡c": 1641,
      "Ġ9": 1642,
      "Ġinterest": 1643,
      "Ġhim": 1644,
      "Ġnever": 1645,
      "Ġart": 1646,
      "ĠÄĳÃ¡nh": 1647,
      "Ġinter": 1648,
      "Ġgive": 1649,
      "Ġfound": 1650,
      "Ġcourse": 1651,
      "Ġmáº¹": 1652,
      "ular": 1653,
      "Ġent": 1654,
      "Ġbetter": 1655,
      "Ġ7": 1656,
      "Ġgáº·p": 1657,
      "áº¯m": 1658,
      "ĠthÃ¡ng": 1659,
      "Ġsl": 1660,
      "ĠdÆ°á»Ľi": 1661,
      "Ġrec": 1662,
      "atch": 1663,
      "Ġtá»ĵ": 1664,
      "Ġkid": 1665,
      "Ġcons": 1666,
      "Ġschool": 1667,
      "Ġturn": 1668,
      "Ġ8": 1669,
      "Ġstill": 1670,
      "Ġable": 1671,
      "ĠchÃºt": 1672,
      "Ġfam": 1673,
      "ists": 1674,
      "Ġbit": 1675,
      "Ġxuá»ĳng": 1676,
      "ility": 1677,
      "Ġtu": 1678,
      "amp": 1679,
      "ix": 1680,
      "ily": 1681,
      "lic": 1682,
      "Ġgáº¯ng": 1683,
      "Ġhand": 1684,
      "Ġpoint": 1685,
      "Ġimag": 1686,
      "Ã¢ng": 1687,
      "Ġfew": 1688,
      "Ġlearn": 1689,
      "ather": 1690,
      "ience": 1691,
      "When": 1692,
      "ween": 1693,
      "Ã¡p": 1694,
      "ĠphÃ©p": 1695,
      "oth": 1696,
      "ĠNew": 1697,
      "velop": 1698,
      "Ġquanh": 1699,
      "ĠnhÃ³m": 1700,
      "ock": 1701,
      "Ġdá»ĭch": 1702,
      "Ġmá»Ł": 1703,
      "Ġbay": 1704,
      "Ġ%": 1705,
      "Ġcame": 1706,
      "Ġacc": 1707,
      "ata": 1708,
      "Ġvá»±c": 1709,
      "Ġkhiáº¿n": 1710,
      "ĠxÃ¡c": 1711,
      "Ġdá»¯": 1712,
      "ĠÃ¡n": 1713,
      "Ġcommun": 1714,
      "Ġnext": 1715,
      "Ġchia": 1716,
      "ĠChÃºng": 1717,
      "Ã£i": 1718,
      "Ġtog": 1719,
      "Ġtogether": 1720,
      "ness": 1721,
      "Ġduy": 1722,
      "erg": 1723,
      "Ġrá»": 1724,
      "iss": 1725,
      "Ġtham": 1726,
      "ĠthÃªm": 1727,
      "Ġcell": 1728,
      "ĠtrÃ²": 1729,
      "¢u": 1730,
      "Ġanother": 1731,
      "Ġthuyáº¿t": 1732,
      "Ġeach": 1733,
      "Ġmá»©c": 1734,
      "Ġke": 1735,
      "Ġnhanh": 1736,
      "ĠAf": 1737,
      "Ġquay": 1738,
      "Ġcomple": 1739,
      "Ġlove": 1740,
      "ited": 1741,
      "read": 1742,
      "Ġdáº¡ng": 1743,
      "alth": 1744,
      "ĠÄĳÃłn": 1745,
      "Ã³ng": 1746,
      "Ġcá»±c": 1747,
      "ĠgÃ¢y": 1748,
      "ward": 1749,
      "ĠrÃµ": 1750,
      "Ġbetween": 1751,
      "Ġvá»įng": 1752,
      "ction": 1753,
      "ense": 1754,
      "Ġquestion": 1755,
      "Ġdevelop": 1756,
      "Ġcre": 1757,
      "Ġhigh": 1758,
      "ized": 1759,
      "Ġmod": 1760,
      "Ġnguá»ĵn": 1761,
      "ĠAnh": 1762,
      "Ġago": 1763,
      "Ġnum": 1764,
      "ĠvÃ¹ng": 1765,
      "arch": 1766,
      "Ġcáº£nh": 1767,
      "ied": 1768,
      "ĠÄĳáº¹p": 1769,
      "Ġ30": 1770,
      "ĠbÃ¡o": 1771,
      "Ġsort": 1772,
      "Ġtá»¥c": 1773,
      "ĠYou": 1774,
      "ĠdÃ¹": 1775,
      "ĠWe": 1776,
      "ĠgiÃ¡c": 1777,
      "á»ī": 1778,
      "Ġplace": 1779,
      "Ãºt": 1780,
      "meric": 1781,
      "Ġser": 1782,
      "Ġmin": 1783,
      "Ġcháº¯c": 1784,
      "ĠsÃ¡t": 1785,
      "Ġword": 1786,
      "iÃª": 1787,
      "Ġmon": 1788,
      "ĠcÃłng": 1789,
      "iness": 1790,
      "Ġdá»ħ": 1791,
      "Ġxa": 1792,
      "Ġdata": 1793,
      "ings": 1794,
      "ĠÄĳá»§": 1795,
      "Ġused": 1796,
      "vÃł": 1797,
      "91": 1798,
      "BÃ¢y": 1799,
      "93": 1800,
      "ms": 1801,
      "ĠcÃ¢y": 1802,
      "ĠbÃ¢y": 1803,
      "Ġtrang": 1804,
      "KhÃ´ng": 1805,
      "Ġpat": 1806,
      "aph": 1807,
      "ĠvÃŃ": 1808,
      "Ġphim": 1809,
      "ĠphÃŃa": 1810,
      "Ġnhá»Ľ": 1811,
      "pe": 1812,
      "Thank": 1813,
      "oney": 1814,
      "Ġfour": 1815,
      "ures": 1816,
      "Ġbi": 1817,
      "Ġbiá»ĥu": 1818,
      "ĠhÆ°á»Łng": 1819,
      "ways": 1820,
      "Ġvide": 1821,
      "Æ°u": 1822,
      "Ġgrow": 1823,
      "ĠhÃ´m": 1824,
      "ĠÄĳoáº¡n": 1825,
      "ote": 1826,
      "co": 1827,
      "Ġtoo": 1828,
      "Ġext": 1829,
      "Ġmet": 1830,
      "Ġvu": 1831,
      "Ġchá»ĭ": 1832,
      "Ġwomen": 1833,
      "ĠChÃ": 1834,
      "Ġmom": 1835,
      "ĠvÅ©": 1836,
      "ĠkÃ¬": 1837,
      "Ġcháº³ng": 1838,
      "ĠtrÃ¡i": 1839,
      "Ġplan": 1840,
      "Ġkiá»ĥm": 1841,
      "Ġatt": 1842,
      "iÃªng": 1843,
      "Ġmed": 1844,
      "Ġexample": 1845,
      "ĠthÆ°Æ¡ng": 1846,
      "ets": 1847,
      "Ġlight": 1848,
      "formation": 1849,
      "Ġfin": 1850,
      "Ķng": 1851,
      "Ġngá»": 1852,
      "Ġ50": 1853,
      "Ġwater": 1854,
      "ific": 1855,
      "ĠdÃłi": 1856,
      "ĠvÃ²ng": 1857,
      "ĠQuá»ĳc": 1858,
      "ered": 1859,
      "Ġold": 1860,
      "Ġread": 1861,
      "Ġop": 1862,
      "Ġchá»¯": 1863,
      "Ġngá»¯": 1864,
      "ĠAmeric": 1865,
      "ĠluáºŃn": 1866,
      "ale": 1867,
      "ecause": 1868,
      "Ġdone": 1869,
      "Ġpháº£n": 1870,
      "cept": 1871,
      "old": 1872,
      "Ġ15": 1873,
      "ins": 1874,
      "conom": 1875,
      "Ġlive": 1876,
      "Ġcent": 1877,
      "ĠÄĳÃ´i": 1878,
      "Ġcare": 1879,
      "air": 1880,
      "Ġ100": 1881,
      "áº¡y": 1882,
      "Ġsmall": 1883,
      "ĠÄĳáº§y": 1884,
      "Ġless": 1885,
      "Ġdoesn": 1886,
      "ands": 1887,
      "Ġdá»¥c": 1888,
      "Ġwanted": 1889,
      "ative": 1890,
      "Ġtechnology": 1891,
      "orn": 1892,
      "Ġlá»£i": 1893,
      "Ġsecond": 1894,
      "Ġmus": 1895,
      "iend": 1896,
      "Ġkia": 1897,
      "Ġcontr": 1898,
      "á»±a": 1899,
      "Ġgiáº£m": 1900,
      "Ġprodu": 1901,
      "Ġexpl": 1902,
      "Ġbeh": 1903,
      "áº±m": 1904,
      "Ġed": 1905,
      "HÃ£y": 1906,
      "ah": 1907,
      "Ġlooking": 1908,
      "Ġthuá»ĳc": 1909,
      "ternet": 1910,
      "ably": 1911,
      "Ġalways": 1912,
      "oy": 1913,
      "ĠtháºŃm": 1914,
      "Ġkiáº¿m": 1915,
      "ont": 1916,
      "alking": 1917,
      "Ġbelieve": 1918,
      "Ġvá»«a": 1919,
      "ĠchÃ¢n": 1920,
      "selves": 1921,
      "Tr": 1922,
      "ĠtÃŃch": 1923,
      "Ġmoney": 1924,
      "ĠthÆ°": 1925,
      "ĠtrÄĥm": 1926,
      "Ġeconom": 1927,
      "ĠthÃ´i": 1928,
      "Ġeff": 1929,
      "oll": 1930,
      "Ġchildren": 1931,
      "Ġvideo": 1932,
      "Ġpartic": 1933,
      "Æ°á»¡": 1934,
      "Ġhá»Ļ": 1935,
      "Ġgener": 1936,
      "ĠTrung": 1937,
      "ĠÄĳÃ¬nh": 1938,
      "iáº¿u": 1939,
      "Ġworking": 1940,
      "Ġcomput": 1941,
      "Ġháº¡n": 1942,
      "cc": 1943,
      "Ãłu": 1944,
      "Ġbus": 1945,
      "Ġgiao": 1946,
      "ĠbÆ°á»Ľc": 1947,
      "ational": 1948,
      "Ġlá»ĩ": 1949,
      "Ġlai": 1950,
      "Ġter": 1951,
      "Ġreas": 1952,
      "pr": 1953,
      "Ġposs": 1954,
      "Ġproc": 1955,
      "Ġrun": 1956,
      "Ġdem": 1957,
      "ĠÄĳÃ´": 1958,
      "Ġwhole": 1959,
      "nce": 1960,
      "Tháº¿": 1961,
      "Ġteach": 1962,
      "ĠsÃ¢u": 1963,
      "Ġca": 1964,
      "Ġrob": 1965,
      "Ġfar": 1966,
      "Ġbook": 1967,
      "Ġaway": 1968,
      "Ġtá»ī": 1969,
      "ĠmÃ´i": 1970,
      "Ġhy": 1971,
      "ĠtoÃ¡n": 1972,
      "Ġguy": 1973,
      "Ġproject": 1974,
      "Ġtráº£i": 1975,
      "Ġtrá»Ŀi": 1976,
      "Ġhard": 1977,
      "iá»ģm": 1978,
      "Ġear": 1979,
      "Ġtá»ĵn": 1980,
      "Ġinformation": 1981,
      "Ġdiá»ĩn": 1982,
      "Ġel": 1983,
      "Ġmove": 1984,
      "hip": 1985,
      "Ġrá»Ļng": 1986,
      "Ġnat": 1987,
      "Ġphá»¥c": 1988,
      "Ġcountry": 1989,
      "Ġthanh": 1990,
      "Ġtrying": 1991,
      "Ġhome": 1992,
      "Ġchi": 1993,
      "io": 1994,
      "Ġkids": 1995,
      "ĠdÃłnh": 1996,
      "Ġná»ĳi": 1997,
      "Ġfood": 1998,
      "ĠÄĳá»ĭa": 1999,
      "Ġcreate": 2000,
      "ĠÄĳoÃ¡n": 2001,
      "ee": 2002,
      "Ġmind": 2003,
      "ĠlÃ²ng": 2004,
      "ural": 2005,
      "Ġthuá»Ļc": 2006,
      "uá»ĳt": 2007,
      "Ġhealth": 2008,
      "ries": 2009,
      "ĠriÃªng": 2010,
      "Ġreg": 2011,
      "Ġvá»ĩ": 2012,
      "led": 2013,
      "Ġtáº¡p": 2014,
      "ird": 2015,
      "Ġresp": 2016,
      "Because": 2017,
      "Ġlar": 2018,
      "Ġsá»£": 2019,
      "Ġmáº¯t": 2020,
      "ĠÄĳá»©ng": 2021,
      "Ġmá»¥c": 2022,
      "hÃ¡": 2023,
      "Ġná»ķi": 2024,
      "įc": 2025,
      "Ġfriend": 2026,
      "Ġdáº¡y": 2027,
      "ĠlÃ£": 2028,
      "Ġphá»§": 2029,
      "nect": 2030,
      "ten": 2031,
      "ĠthÃŃ": 2032,
      "ĠAr": 2033,
      "ism": 2034,
      "Ġsai": 2035,
      "olution": 2036,
      "Ġváº»": 2037,
      "ĠÄĳáº¡t": 2038,
      "atter": 2039,
      "Ġlead": 2040,
      "Ġmillion": 2041,
      "Ġusing": 2042,
      "Ġnghi": 2043,
      "Ġdoll": 2044,
      "Ġfive": 2045,
      "Ġeng": 2046,
      "Ġmeans": 2047,
      "ĠcÄĥn": 2048,
      "ĠthÃºc": 2049,
      "ĠnghÃ": 2050,
      "Ġká»¹": 2051,
      "ĠluáºŃt": 2052,
      "Ġsáº»": 2053,
      "ines": 2054,
      "bo": 2055,
      "Ġtá»ĳi": 2056,
      "Ġmáº«u": 2057,
      "Ġxung": 2058,
      "its": 2059,
      "aces": 2060,
      "Ġsk": 2061,
      "Ġlá»ĭch": 2062,
      "Ġvis": 2063,
      "ĠInternet": 2064,
      "man": 2065,
      "ĠNg": 2066,
      "Ġpict": 2067,
      "Ġsing": 2068,
      "Ġsupp": 2069,
      "Ġbecome": 2070,
      "ĠSo": 2071,
      "ina": 2072,
      "ck": 2073,
      "ĠÃ¡nh": 2074,
      "Ġopen": 2075,
      "ĠbÃłn": 2076,
      "Ġsub": 2077,
      "Ġprocess": 2078,
      "ĠÄĳá»įc": 2079,
      "Ġmaybe": 2080,
      "áº·ng": 2081,
      "Ġspace": 2082,
      "Ġlá»Ľp": 2083,
      "Ġrobot": 2084,
      "áº¡ng": 2085,
      "Ġfut": 2086,
      "ruct": 2087,
      "ĠUn": 2088,
      "Ġtrá»¥": 2089,
      "Ġinf": 2090,
      "Ġstr": 2091,
      "Ġká»·": 2092,
      "gg": 2093,
      "ories": 2094,
      "Ġyáº¿u": 2095,
      "Ġconf": 2096,
      "Ġpub": 2097,
      "ments": 2098,
      "Ãłm": 2099,
      "Ġtook": 2100,
      "Ġthinking": 2101,
      "Ġkháº¯p": 2102,
      "sw": 2103,
      "kay": 2104,
      "Ġcompan": 2105,
      "ble": 2106,
      "Ġeverything": 2107,
      "wh": 2108,
      "Ġform": 2109,
      "Ġshare": 2110,
      "Ġvui": 2111,
      "ĠtrÃ´ng": 2112,
      "Ġkhoáº»": 2113,
      "Ġanim": 2114,
      "Ġorgan": 2115,
      "Ġelect": 2116,
      "Ġfuture": 2117,
      "á»©": 2118,
      "Ġtiáº¿t": 2119,
      "Ġcap": 2120,
      "ĠchÆ°Æ¡ng": 2121,
      "ran": 2122,
      "Ġcháº¡y": 2123,
      "Ġbest": 2124,
      "Ġngá»ĵi": 2125,
      "ĠphÃŃ": 2126,
      "iew": 2127,
      "ier": 2128,
      "ues": 2129,
      "Ġenerg": 2130,
      "ĠgÃ¡i": 2131,
      "Ġsays": 2132,
      "aut": 2133,
      "Ġfun": 2134,
      "ĠphÃºt": 2135,
      "Ġpass": 2136,
      "Ġquite": 2137,
      "roup": 2138,
      "cer": 2139,
      "Ġchá»¥": 2140,
      "ĠcáºŃu": 2141,
      "Ġpop": 2142,
      "ĠX": 2143,
      "ention": 2144,
      "Ġtrá»£": 2145,
      "ĠAl": 2146,
      "Ġcuá»ĳn": 2147,
      "Ġmá»ĳi": 2148,
      "Ġsocial": 2149,
      "Ġsol": 2150,
      "ĠkÃ©": 2151,
      "--": 2152,
      "Ġsáº¯c": 2153,
      "Ġbuá»ķi": 2154,
      "Æ°á»£t": 2155,
      "Ġrep": 2156,
      "Ġnumber": 2157,
      "Ġcháº¯n": 2158,
      "Ġlang": 2159,
      "ouse": 2160,
      "á»ĵng": 2161,
      "Ġ12": 2162,
      "Ġsuá»ĳt": 2163,
      "iting": 2164,
      "Ġenough": 2165,
      "Ġhead": 2166,
      "Ġuniver": 2167,
      "alf": 2168,
      "How": 2169,
      "Ġháº§u": 2170,
      "vern": 2171,
      "Ġleft": 2172,
      "ĠWh": 2173,
      "Ġkiá»ĩn": 2174,
      "Ġansw": 2175,
      "uff": 2176,
      "oh": 2177,
      "Ġlives": 2178,
      "Ġbiá»ĥn": 2179,
      "ety": 2180,
      "ever": 2181,
      "ĠtrÃºc": 2182,
      "Ġcomes": 2183,
      "ĠmÃ¹": 2184,
      "á»įc": 2185,
      "ÃĶng": 2186,
      "Ġcle": 2187,
      "Ġchung": 2188,
      "eas": 2189,
      "imes": 2190,
      "ertain": 2191,
      "Ġenergy": 2192,
      "Ġgetting": 2193,
      "und": 2194,
      "ĠngÃ´n": 2195,
      "alle": 2196,
      "Ġmua": 2197,
      "Ġgroup": 2198,
      "cial": 2199,
      "Ġdoanh": 2200,
      "á»ĥ": 2201,
      "Ġbody": 2202,
      "Ġbeg": 2203,
      "Ġcou": 2204,
      "Ġwar": 2205,
      "Ġkiá»ĥu": 2206,
      "ital": 2207,
      "ĠsÆ°": 2208,
      "ĠPhi": 2209,
      "Ġmaking": 2210,
      "ĠAfric": 2211,
      "ĠHe": 2212,
      "Ġpres": 2213,
      "ĠIs": 2214,
      "ĠYork": 2215,
      "Ġweb": 2216,
      "vir": 2217,
      "enc": 2218,
      "Ġcá»Ńa": 2219,
      "ake": 2220,
      "Ġáº": 2221,
      "ĠváºŃn": 2222,
      "ices": 2223,
      "ĠcÃ¡nh": 2224,
      "ĠkhÃ¡m": 2225,
      "Ġtimes": 2226,
      "Ġsá»Ł": 2227,
      "Ġngáº¡c": 2228,
      "Ġglob": 2229,
      "Ġmonth": 2230,
      "Ġset": 2231,
      "ĠInd": 2232,
      "ĠxÃºc": 2233,
      "Ġmen": 2234,
      "ĠxÃ©t": 2235,
      "Ġrese": 2236,
      "ron": 2237,
      "Ġspec": 2238,
      "Ġaut": 2239,
      "Ġroom": 2240,
      "ĠrÃłng": 2241,
      "Ġmoment": 2242,
      "ĠlÃ¢u": 2243,
      "Ġban": 2244,
      "Ġhappened": 2245,
      "Ġthoáº¡i": 2246,
      "Ġtuáº§n": 2247,
      "Ġsense": 2248,
      "ĠbÃ¡n": 2249,
      "ering": 2250,
      "Ġcountries": 2251,
      "Ġ/": 2252,
      "Ġsound": 2253,
      "Ġhiá»ĥm": 2254,
      "Ġtop": 2255,
      "Ġmakes": 2256,
      "ross": 2257,
      "Ġprobably": 2258,
      "Ġhá»ĵi": 2259,
      "ember": 2260,
      "tty": 2261,
      "Ġdollars": 2262,
      "viron": 2263,
      "Ġjob": 2264,
      "ĠPh": 2265,
      "reen": 2266,
      "Ġwithout": 2267,
      "Giá»": 2268,
      "ĠchÃ¡": 2269,
      "Ġgovern": 2270,
      "Ġcáº¥u": 2271,
      "Ġconnect": 2272,
      "Ġbusiness": 2273,
      "idd": 2274,
      "ex": 2275,
      "ĠWhat": 2276,
      "Ġphot": 2277,
      "Ġtalking": 2278,
      "Ġkeep": 2279,
      "Ġnhiá»ĩm": 2280,
      "land": 2281,
      "ĠHo": 2282,
      "Ġinteresting": 2283,
      "uring": 2284,
      "ĠNÃ³": 2285,
      "Æ°á»¡ng": 2286,
      "ner": 2287,
      "aps": 2288,
      "Ġwond": 2289,
      "Ġpie": 2290,
      "Ġphá»©c": 2291,
      "Ġmusic": 2292,
      "ĠthiÃªn": 2293,
      "Ġbeaut": 2294,
      "Ġresearch": 2295,
      "Ġval": 2296,
      "Ġred": 2297,
      "Ġseem": 2298,
      "ĠkÃŃch": 2299,
      "Anh": 2300,
      "Ġdist": 2301,
      "Ġcung": 2302,
      "ott": 2303,
      "Ä©nh": 2304,
      "Ġreason": 2305,
      "Ġexperience": 2306,
      "Ġnáº±m": 2307,
      "ĠnháºŃp": 2308,
      "Ġtold": 2309,
      "ĠchuyÃªn": 2310,
      "Ġchá»¥p": 2311,
      "Ġstre": 2312,
      "Ġadd": 2313,
      "up": 2314,
      "Ġpretty": 2315,
      "Ġenviron": 2316,
      "ĠbÃ³ng": 2317,
      "very": 2318,
      "á»§ng": 2319,
      "Ġeduc": 2320,
      "One": 2321,
      "Ġhist": 2322,
      "vers": 2323,
      "á»ĳt": 2324,
      "Ġwee": 2325,
      "Ġelse": 2326,
      "ĠBáº¡n": 2327,
      "Ġscience": 2328,
      "ĠngÃ´i": 2329,
      "Ġminut": 2330,
      "Bá»Łi": 2331,
      "Ġda": 2332,
      "Ġyoung": 2333,
      "Ġcur": 2334,
      "ĠthÃ¡i": 2335,
      "Ġcáº¡nh": 2336,
      "Ġey": 2337,
      "Ġsuch": 2338,
      "ior": 2339,
      "Ġkáº»": 2340,
      "Ġ40": 2341,
      "âĢ": 2342,
      "uyá»ĩn": 2343,
      "Ġacross": 2344,
      "Ġcult": 2345,
      "br": 2346,
      "ov": 2347,
      "á»¯u": 2348,
      "Ġphys": 2349,
      "Ġallow": 2350,
      "Ġsimple": 2351,
      "att": 2352,
      "Ġstand": 2353,
      "ĠâĢ": 2354,
      "Ġopp": 2355,
      "uyÃªn": 2356,
      "Ġdet": 2357,
      "ided": 2358,
      "Ġ18": 2359,
      "ĠÄĳá»Ļc": 2360,
      "Ġpolit": 2361,
      "Ġnam": 2362,
      "Ġprot": 2363,
      "Ġviá»ĩn": 2364,
      "ately": 2365,
      "Ġmatter": 2366,
      "Ġcells": 2367,
      "Ġháº¡nh": 2368,
      "My": 2369,
      "ĠbÄĥng": 2370,
      "Ġhá»¯u": 2371,
      "Ġlangu": 2372,
      "áºµ": 2373,
      "áº¿p": 2374,
      "Ġsaw": 2375,
      "ead": 2376,
      "Ġsign": 2377,
      "Ġhalf": 2378,
      "These": 2379,
      "Ġstuff": 2380,
      "ĠhoÃł": 2381,
      "ĠngÃłnh": 2382,
      "Ġchá»©": 2383,
      "Ġchá»Ĺ": 2384,
      "ograph": 2385,
      "ash": 2386,
      "Ġeas": 2387,
      "Ġcase": 2388,
      "Ġdung": 2389,
      "ĠtrÆ°á»Łng": 2390,
      "der": 2391,
      "ient": 2392,
      "Ġvo": 2393,
      "Ġgu": 2394,
      "Ġways": 2395,
      "Ġasked": 2396,
      "Ġváº½": 2397,
      "Ġkhá»§ng": 2398,
      "Ġliving": 2399,
      "ĠtháºŃp": 2400,
      "lf": 2401,
      "Ġside": 2402,
      "Ġmark": 2403,
      "ĠBr": 2404,
      "ortun": 2405,
      "ĠÃŃch": 2406,
      "Ġmor": 2407,
      "áºµn": 2408,
      "Ġstop": 2409,
      "Ġinside": 2410,
      "Ġmodel": 2411,
      "ĠÄĳa": 2412,
      "Ġscient": 2413,
      "Ġfamily": 2414,
      "ĠGo": 2415,
      "Ġlist": 2416,
      "Ġhour": 2417,
      "Ġhope": 2418,
      "Ġanything": 2419,
      "gs": 2420,
      "Ġdep": 2421,
      "Ġchuáº©n": 2422,
      "ger": 2423,
      "ality": 2424,
      "Ġbuilding": 2425,
      "Do": 2426,
      "ĠbÃ¡c": 2427,
      "aw": 2428,
      "Ġbad": 2429,
      "ĠquÃ½": 2430,
      "áº©y": 2431,
      "Ġbring": 2432,
      "ĠphÃºc": 2433,
      "Ġghi": 2434,
      "Ġthiáº¿u": 2435,
      "ince": 2436,
      "Ġhappens": 2437,
      "ilt": 2438,
      "Ġlater": 2439,
      "Ġvir": 2440,
      "Ġchá»ĭu": 2441,
      "where": 2442,
      "Ġair": 2443,
      "ime": 2444,
      "Ġgoes": 2445,
      "ling": 2446,
      "Ġlab": 2447,
      "ike": 2448,
      "rib": 2449,
      "Ġhá»ģ": 2450,
      "NgÆ°á»Ŀi": 2451,
      "Ġláº¯ng": 2452,
      "Ġhoáº¡": 2453,
      "Ġxanh": 2454,
      "Ġcoming": 2455,
      "Ġtáº¥m": 2456,
      "Ġwhile": 2457,
      "ulation": 2458,
      "Ġtá»ĩ": 2459,
      "Ġsáºµn": 2460,
      "Ġniá»ĩm": 2461,
      "Ġwrong": 2462,
      "Ġchar": 2463,
      "Ġpain": 2464,
      "á»Ńi": 2465,
      "Ġglobal": 2466,
      "Ġcor": 2467,
      "á»Ļn": 2468,
      "á»ĳn": 2469,
      "Ġparticular": 2470,
      "Ġbre": 2471,
      "ĠnhiÃªu": 2472,
      "Ġpháº¡m": 2473,
      "Ġrest": 2474,
      "Ġtá»©c": 2475,
      "Ġsingle": 2476,
      "ĠkhÄĥn": 2477,
      "ĠKhÃ´ng": 2478,
      "ĠtÃ¡i": 2479,
      "Ph": 2480,
      "ĠÄĳau": 2481,
      "Sau": 2482,
      "Ġtrai": 2483,
      "Ġenvironment": 2484,
      "Ġwatch": 2485,
      "Ġyet": 2486,
      "Ġref": 2487,
      "acy": 2488,
      "Ġspea": 2489,
      "most": 2490,
      "ĠÃ¡p": 2491,
      "Ġsáº¯p": 2492,
      "Ã³n": 2493,
      "Ãºi": 2494,
      "Ġproblems": 2495,
      "For": 2496,
      "ĠhÆ¡i": 2497,
      "She": 2498,
      "iter": 2499,
      "Ġgir": 2500,
      "Ġláº¡": 2501,
      "Ġgá»": 2502,
      "ape": 2503,
      "Ġfig": 2504,
      "ivid": 2505,
      "Ġprof": 2506,
      "Ġchá»ĳng": 2507,
      "Ġláº¡c": 2508,
      "Ġequ": 2509,
      "Ġtháº¥t": 2510,
      "Ġsit": 2511,
      "arth": 2512,
      "Ġprop": 2513,
      "arent": 2514,
      "uÃ´i": 2515,
      "Ġhaving": 2516,
      "Ġ25": 2517,
      "Ġdays": 2518,
      "Ġcam": 2519,
      "ĠSh": 2520,
      "Táº¥t": 2521,
      "Ġmáº·c": 2522,
      "Ġheart": 2523,
      "ĠNhÆ°ng": 2524,
      "eg": 2525,
      "Ġdef": 2526,
      "Ġmach": 2527,
      "ogram": 2528,
      "Ġcáº£i": 2529,
      "ĠÄĳÃ¡": 2530,
      "ĠmÃ£": 2531,
      "Ġmong": 2532,
      "Ġdá»±a": 2533,
      "Ġtest": 2534,
      "Ġthous": 2535,
      "ĠchÃ¢u": 2536,
      "ĠÄĳÃ³ng": 2537,
      "Ġdev": 2538,
      "Ġcomplete": 2539,
      "Ġbegin": 2540,
      "Ġloc": 2541,
      "Ġseen": 2542,
      "Ġcontrol": 2543,
      "Ġsomeone": 2544,
      "Ġxá»Ń": 2545,
      "Ġmyself": 2546,
      "ny": 2547,
      "Ġcha": 2548,
      "ters": 2549,
      "Ġwords": 2550,
      "Ġbillion": 2551,
      "ying": 2552,
      "Ġeffect": 2553,
      "Ġpublic": 2554,
      "Ġtre": 2555,
      "As": 2556,
      "Cáº£m": 2557,
      "ization": 2558,
      "aterial": 2559,
      "Ġcertain": 2560,
      "Ġlá»±a": 2561,
      "Ġtrá»±c": 2562,
      "Ġmem": 2563,
      "Ġoften": 2564,
      "Ġlevel": 2565,
      "Ġsaying": 2566,
      "á»ŀ": 2567,
      "Ġamaz": 2568,
      "NÃªn": 2569,
      "Ġpos": 2570,
      "ĠÄĳá»Ļi": 2571,
      "row": 2572,
      "ĠbÃ¡nh": 2573,
      "Ġwalk": 2574,
      "ĠháºŃu": 2575,
      "Ġgame": 2576,
      "Ġcá»ķ": 2577,
      "Ġpicture": 2578,
      "Ġwithin": 2579,
      "Ġhear": 2580,
      "side": 2581,
      "Ġideas": 2582,
      "Ġtá»ķng": 2583,
      "á»Ľi": 2584,
      "Ġsix": 2585,
      "Ġlooked": 2586,
      "itive": 2587,
      "Ġkhá»ķ": 2588,
      "Ġxin": 2589,
      "Ġgirl": 2590,
      "Ġná»Ļi": 2591,
      "Ġsure": 2592,
      "Ġself": 2593,
      "Ġwhether": 2594,
      "Ġboth": 2595,
      "ene": 2596,
      "Ġpossible": 2597,
      "Ġcity": 2598,
      "Ġkháº¯c": 2599,
      "Ġproduct": 2600,
      "ĠmáºŃt": 2601,
      "ĠvÆ°á»£t": 2602,
      "Ġkill": 2603,
      "Ġxáº¥u": 2604,
      "ants": 2605,
      "Ġtáº§m": 2606,
      "ĠchÄĥm": 2607,
      "Ġcomputer": 2608,
      "Ġáº©n": 2609,
      "Ġfore": 2610,
      "Ġtá»·": 2611,
      "Ġcommunity": 2612,
      "Táº¡i": 2613,
      "Ġdáº§n": 2614,
      "Ġonce": 2615,
      "ĠtoÃł": 2616,
      "lish": 2617,
      "Ġgá»Ńi": 2618,
      "Ġnhu": 2619,
      "unch": 2620,
      "Ġnothing": 2621,
      "Ġanswer": 2622,
      "less": 2623,
      "Ġfil": 2624,
      "Ġlanguage": 2625,
      "Ġthiá»ĩn": 2626,
      "Ġhá»©ng": 2627,
      "Ġexc": 2628,
      "Ġháº¡t": 2629,
      "Ġtrue": 2630,
      "Ġexact": 2631,
      "anc": 2632,
      "Ġpar": 2633,
      "Ġclass": 2634,
      "oot": 2635,
      "Ġmag": 2636,
      "ĠEarth": 2637,
      "Let": 2638,
      "¨o": 2639,
      "aper": 2640,
      "istan": 2641,
      "ury": 2642,
      "¤n": 2643,
      "Ġmaterial": 2644,
      "Ġunt": 2645,
      "Ġindivid": 2646,
      "ĠlÆ°u": 2647,
      "Ġage": 2648,
      "Ġdanh": 2649,
      "Ġalmost": 2650,
      "Ġworks": 2651,
      "Ġnews": 2652,
      "ts": 2653,
      "ĠtÃŃ": 2654,
      "Ġcond": 2655,
      "alleng": 2656,
      "Ġtráº¡ng": 2657,
      "Ġchiá»ģu": 2658,
      "Ġspend": 2659,
      "Ġentire": 2660,
      "ĠAfrica": 2661,
      "pect": 2662,
      "Ġnhiá»ĩt": 2663,
      "Ġiss": 2664,
      "ĠlÃ£nh": 2665,
      "Here": 2666,
      "Ġnight": 2667,
      "Ġsang": 2668,
      "ready": 2669,
      "Ġamazing": 2670,
      "ĠÄĳá»Ļt": 2671,
      "Ġface": 2672,
      "ush": 2673,
      "Ġsw": 2674,
      "Ġdáº§u": 2675,
      "Ġniá»ģm": 2676,
      "rect": 2677,
      "Ġbeautif": 2678,
      "Ġincred": 2679,
      "iddle": 2680,
      "Ġdisco": 2681,
      "Ġremember": 2682,
      "ĠHow": 2683,
      "rop": 2684,
      "Ġchalleng": 2685,
      "Ġbasically": 2686,
      "Ġindividual": 2687,
      "Ġtá»Ļi": 2688,
      "ages": 2689,
      "Ġheard": 2690,
      "ĠnghÃ¨o": 2691,
      "Ġnhiá»ħ": 2692,
      "ocr": 2693,
      "line": 2694,
      "ĠWell": 2695,
      "Ġnáº¡n": 2696,
      "ield": 2697,
      "Ġngoáº¡i": 2698,
      "ustr": 2699,
      "Giá»Ŀ": 2700,
      "ĠcáºŃn": 2701,
      "atic": 2702,
      "Ġimagine": 2703,
      "Ġthá»§": 2704,
      "Ġcost": 2705,
      "ives": 2706,
      "Ġáº¤n": 2707,
      "Ġmar": 2708,
      "Ġung": 2709,
      "Ġdecided": 2710,
      "Ġlooks": 2711,
      "Ġchá»¯a": 2712,
      "Ġtreat": 2713,
      "ream": 2714,
      "Ġass": 2715,
      "ĠkÃŃnh": 2716,
      "era": 2717,
      "ones": 2718,
      "Ġalready": 2719,
      "Ġfull": 2720,
      "Ġxo": 2721,
      "Ġsucc": 2722,
      "Ġhistory": 2723,
      "ĠÄĳáº¥u": 2724,
      "Ġaff": 2725,
      "Ġpast": 2726,
      "imate": 2727,
      "Ġspe": 2728,
      "Ġnet": 2729,
      "Ġdáº¥u": 2730,
      "ĠÄĳáº©y": 2731,
      "Thá»±c": 2732,
      "Ġfriends": 2733,
      "Ġaw": 2734,
      "Ġtool": 2735,
      "Ġexperim": 2736,
      "NA": 2737,
      "ĠÄĲÃ³": 2738,
      "Ġá»ķ": 2739,
      "Ġche": 2740,
      "NhÆ°": 2741,
      "Ġbuilt": 2742,
      "Ġná»Ĺi": 2743,
      "ollow": 2744,
      "Ġcontin": 2745,
      "ton": 2746,
      "Ġwonder": 2747,
      "ely": 2748,
      "ats": 2749,
      "ĠUnited": 2750,
      "Ġret": 2751,
      "á»ĵm": 2752,
      "eah": 2753,
      "Ġadv": 2754,
      "Ġsuccess": 2755,
      "ogle": 2756,
      "ĠhÃ¡t": 2757,
      "ĠghÃ": 2758,
      "Ġstories": 2759,
      "osed": 2760,
      "ndred": 2761,
      "Ġhundred": 2762,
      "ĠkÃ©o": 2763,
      "vious": 2764,
      "Ġngá»§": 2765,
      "Ġcollect": 2766,
      "Ġfigure": 2767,
      "ĠthÃ¡ch": 2768,
      "ĠÄĳen": 2769,
      "Ġfund": 2770,
      "Ġfollow": 2771,
      "Ġpay": 2772,
      "Ġ11": 2773,
      "ĠkhÃ¡ch": 2774,
      "Ġcouple": 2775,
      "Ġtáº¯c": 2776,
      "Ġmil": 2777,
      "ĠâĢĶ": 2778,
      "Ġbeautiful": 2779,
      "ĠÃ´": 2780,
      "Ġwa": 2781,
      "outh": 2782,
      "Ġinn": 2783,
      "Ġwasn": 2784,
      "ĠÄĲá»Ļ": 2785,
      "Ġresult": 2786,
      "Ġmonths": 2787,
      "Ġgiáº¥y": 2788,
      "ĠChÃ¢u": 2789,
      "Ġgovernment": 2790,
      "Ġpiece": 2791,
      "Ġeducation": 2792,
      "ern": 2793,
      "Ġfree": 2794,
      "Ġtrain": 2795,
      "Ġphi": 2796,
      "ental": 2797,
      "ĠngÆ°á»£c": 2798,
      "Ġlarge": 2799,
      "ional": 2800,
      "Ġprogram": 2801,
      "ĠnuÃ´i": 2802,
      "ared": 2803,
      "bon": 2804,
      "xy": 2805,
      "iáº¿p": 2806,
      "Ġhuge": 2807,
      "Ġminutes": 2808,
      "sy": 2809,
      "Ġbáº¡i": 2810,
      "Ġorder": 2811,
      "Ġbecame": 2812,
      "ĠÆ°á»Ľc": 2813,
      "ivity": 2814,
      "Ġdeep": 2815,
      "bers": 2816,
      "ising": 2817,
      "Ġrad": 2818,
      "raz": 2819,
      "VÃ¢ng": 2820,
      "aster": 2821,
      "Ġtaking": 2822,
      "ĠTÃ¢y": 2823,
      "ocus": 2824,
      "Ġuntil": 2825,
      "Ġquáº£n": 2826,
      "ove": 2827,
      "work": 2828,
      "ĠsoÃ¡t": 2829,
      "Ġuniverse": 2830,
      "Ġview": 2831,
      "Ġconst": 2832,
      "Ġthough": 2833,
      "Ġsociety": 2834,
      "ĠThis": 2835,
      "Ġ80": 2836,
      "ision": 2837,
      "ined": 2838,
      "etic": 2839,
      "Ġlá»Ĺi": 2840,
      "Ġeverybody": 2841,
      "Ġcomplex": 2842,
      "ames": 2843,
      "Ġtiá»ĩn": 2844,
      "ĠlÄ©nh": 2845,
      "Ġcá»Ń": 2846,
      "Ġná»Ńa": 2847,
      "Ġmáº¯c": 2848,
      "Ġquick": 2849,
      "ange": 2850,
      "Ġhoáº¡ch": 2851,
      "Ġthemselves": 2852,
      "ĠThey": 2853,
      "ĠmÆ¡": 2854,
      "Ġwoman": 2855,
      "Ġlearned": 2856,
      "ĠlÃŃ": 2857,
      "Ġmust": 2858,
      "Ġfront": 2859,
      "áº©u": 2860,
      "Ġplanet": 2861,
      "Ġengine": 2862,
      "med": 2863,
      "Ġgá»ĵm": 2864,
      "Ġincre": 2865,
      "ony": 2866,
      "Ġteam": 2867,
      "Ġnhiá»ħm": 2868,
      "ĠdÆ°Æ¡ng": 2869,
      "Ġtá»ĳc": 2870,
      "Ġexactly": 2871,
      "Ġchim": 2872,
      "Ġkhiá»ĥn": 2873,
      "ians": 2874,
      "to": 2875,
      "omes": 2876,
      "ÄĲá»ĥ": 2877,
      "Ġcreated": 2878,
      "Ġtáº£": 2879,
      "ĠsÃ³c": 2880,
      "Ġfocus": 2881,
      "ĠStates": 2882,
      "Ġcáº¯t": 2883,
      "Ġcancer": 2884,
      "Ġgets": 2885,
      "Ġbehav": 2886,
      "Ãµi": 2887,
      "ohn": 2888,
      "den": 2889,
      "ĠgÃ³": 2890,
      "ĠZ": 2891,
      "©t": 2892,
      "Ġháº¡i": 2893,
      "ane": 2894,
      "Ġgiáº¿t": 2895,
      "Ġcompletely": 2896,
      "All": 2897,
      "Ġmic": 2898,
      "Ġhouse": 2899,
      "Ġtháº³ng": 2900,
      "ĠMá»Ļt": 2901,
      "ik": 2902,
      "Ġhappening": 2903,
      "Ġstudy": 2904,
      "Xin": 2905,
      "Ġquen": 2906,
      "ĠGoogle": 2907,
      "ĠbÃły": 2908,
      "ĠdÃ¢y": 2909,
      "oud": 2910,
      "ĠquÃ¢n": 2911,
      "Ġ60": 2912,
      "ĠtÃłu": 2913,
      "Ġkhá»ĳi": 2914,
      "TháºŃt": 2915,
      "Ġknew": 2916,
      "ĠÄĳÃ´ng": 2917,
      "thers": 2918,
      "ired": 2919,
      "Ġstruct": 2920,
      "ĠÄĳÃŃch": 2921,
      "Ġchiáº¿u": 2922,
      "ĠNhá»¯ng": 2923,
      "ĠlÆ°á»Ľi": 2924,
      "Ġbá»": 2925,
      "ĠÄĳá»©c": 2926,
      "CÃ¡i": 2927,
      "ev": 2928,
      "Ġname": 2929,
      "ability": 2930,
      "Ġquestions": 2931,
      "Ġhours": 2932,
      "ret": 2933,
      "cul": 2934,
      "ua": 2935,
      "Ġtháº¥p": 2936,
      "Ġsomebody": 2937,
      "Ġnhá»Ŀ": 2938,
      "ĠdÃ²ng": 2939,
      "ĠmÃª": 2940,
      "Ġshows": 2941,
      "Ġbáº§u": 2942,
      "ĠCÃ³": 2943,
      "Ġplaces": 2944,
      "Ġprov": 2945,
      "Ġngá»Ŀ": 2946,
      "Ġnature": 2947,
      "ĠcÆ°": 2948,
      "ĠniÃªn": 2949,
      "ĠÄĳÃªm": 2950,
      "ĠlÃ¡i": 2951,
      "Ġisn": 2952,
      "Ġkinds": 2953,
      "Ġbab": 2954,
      "Ġitself": 2955,
      "ĠÄĳá»ķ": 2956,
      "Ġnon": 2957,
      "ĠdÃłng": 2958,
      "ential": 2959,
      "ĠphÃ³ng": 2960,
      "Ġlaw": 2961,
      "Sá»±": 2962,
      "iqu": 2963,
      "ĠcÆ°á»Ŀi": 2964,
      "Ġthi": 2965,
      "Ġkhai": 2966,
      "ĠsÃłng": 2967,
      "icult": 2968,
      "Ġhá»Ĺ": 2969,
      "Ġav": 2970,
      "Ġourselves": 2971,
      "Ġcháº¥p": 2972,
      "Ġngáº¯n": 2973,
      "Ġrá»ĳi": 2974,
      "Ġxáº¿p": 2975,
      "áº·n": 2976,
      "els": 2977,
      "Ġagainst": 2978,
      "Ġgá»ĳc": 2979,
      "Ġmeet": 2980,
      "Ġones": 2981,
      "Ġdifference": 2982,
      "ĠtáºŃn": 2983,
      "Ġabs": 2984,
      "ogn": 2985,
      "Ġká»ī": 2986,
      "itting": 2987,
      "ĠChina": 2988,
      "cle": 2989,
      "Ġeveryone": 2990,
      "Ġphong": 2991,
      "ute": 2992,
      "Ġlisten": 2993,
      "ĠnÃ´ng": 2994,
      "Ġgáº¥p": 2995,
      "asure": 2996,
      "ĠÄĲÃ¢y": 2997,
      "ease": 2998,
      "ĠÄĳem": 2999,
      "á»¯a": 3000,
      "ĠÄĳá»¡": 3001,
      "Ġstate": 3002,
      "uá»·": 3003,
      "Ġothers": 3004,
      "Ġopportun": 3005,
      "Ġsong": 3006,
      "Ġsince": 3007,
      "Ġbáº¡o": 3008,
      "ĠgiÃ¢y": 3009,
      "Ġmarket": 3010,
      "Ġspeak": 3011,
      "ĠsÃ¢n": 3012,
      "Ġláº¯m": 3013,
      "Ġparent": 3014,
      "Ġneur": 3015,
      "raw": 3016,
      "Ġthá»¥": 3017,
      "omet": 3018,
      "ĠThat": 3019,
      "Ġclear": 3020,
      "Ġexpect": 3021,
      "Ġstudents": 3022,
      "Ġobject": 3023,
      "eria": 3024,
      "Ġclose": 3025,
      "ption": 3026,
      "ĠtrÃ¡ch": 3027,
      "Ġris": 3028,
      "Ġsex": 3029,
      "Why": 3030,
      "Ġgáº¯n": 3031,
      "Ġgave": 3032,
      "ator": 3033,
      "ĠEng": 3034,
      "Ġworked": 3035,
      "Ġsometimes": 3036,
      "Ġinvest": 3037,
      "Ġrelations": 3038,
      "Ġinnov": 3039,
      "IV": 3040,
      "īnh": 3041,
      "Ġmess": 3042,
      "Ġmother": 3043,
      "Ġvai": 3044,
      "ĠcÃ¡o": 3045,
      "Ġbá»ĳn": 3046,
      "Ġexplain": 3047,
      "get": 3048,
      "ract": 3049,
      "olved": 3050,
      "Ġhold": 3051,
      "ĠAmerican": 3052,
      "ĠcÃ¢n": 3053,
      "istic": 3054,
      "ler": 3055,
      "Ġline": 3056,
      "ĠbÃŃ": 3057,
      "ature": 3058,
      "ider": 3059,
      "ĠCan": 3060,
      "ĠChr": 3061,
      "Ġcompany": 3062,
      "ĠDNA": 3063,
      "Ġdifficult": 3064,
      "Ġtrá»«": 3065,
      "Ġrather": 3066,
      "ĠÄĳá»£i": 3067,
      "ney": 3068,
      "CÃ´": 3069,
      "Ġdru": 3070,
      "ĠGod": 3071,
      "Ġwon": 3072,
      "rem": 3073,
      "Ġpot": 3074,
      "ĠngÃłn": 3075,
      "Ġfail": 3076,
      "urs": 3077,
      "ĠEur": 3078,
      "ĠtÃ´n": 3079,
      "Ġthird": 3080,
      "Ġaud": 3081,
      "Ġpháº«u": 3082,
      "ma": 3083,
      "Ġmass": 3084,
      "áº§ng": 3085,
      "ump": 3086,
      "Ġcouldn": 3087,
      "Ġdisease": 3088,
      "Ġtyp": 3089,
      "lud": 3090,
      "ÃĿ": 3091,
      "ĠhÃłi": 3092,
      "Ġsurpr": 3093,
      "Ġthousands": 3094,
      "haps": 3095,
      "ences": 3096,
      "Ġinteract": 3097,
      "by": 3098,
      "Ġz": 3099,
      "ĠxuyÃªn": 3100,
      "ĠHIV": 3101,
      "Ġdeal": 3102,
      "ibly": 3103,
      "ĠthÆ¡": 3104,
      "Ġbott": 3105,
      "Ġhoa": 3106,
      "ife": 3107,
      "ĠÃĤ": 3108,
      "Ġmiss": 3109,
      "Ġbuy": 3110,
      "Ġnháº£y": 3111,
      "aring": 3112,
      "Ġcoll": 3113,
      "ĠAmerica": 3114,
      "Ġland": 3115,
      "ination": 3116,
      "Ġchuyáº¿n": 3117,
      "gest": 3118,
      "ĠsiÃªu": 3119,
      "Ġill": 3120,
      "Ġhappy": 3121,
      "Ġamount": 3122,
      "Ġdá»«ng": 3123,
      "Ġoper": 3124,
      "oph": 3125,
      "illions": 3126,
      "uá»Ĺi": 3127,
      "Ġarch": 3128,
      "Ġnorm": 3129,
      "ĠBut": 3130,
      "Ġoutside": 3131,
      "Ã¨n": 3132,
      "sych": 3133,
      "Ġliter": 3134,
      "ode": 3135,
      "Ġchanged": 3136,
      "Ġlearning": 3137,
      "ĠIndia": 3138,
      "Äĳ": 3139,
      "Ġcir": 3140,
      "ĠkÄ©": 3141,
      "uss": 3142,
      "Ġdel": 3143,
      "Ġpowerful": 3144,
      "rew": 3145,
      "Ġnghá»ĭ": 3146,
      "Ġstep": 3147,
      "ĠmÃłn": 3148,
      "ĠHÃ£y": 3149,
      "Ġemot": 3150,
      "ium": 3151,
      "Ġoil": 3152,
      "ĠkÃ½": 3153,
      "Ġtakes": 3154,
      "Ġalong": 3155,
      "Ġsystems": 3156,
      "Ġearly": 3157,
      "ming": 3158,
      "Ġlao": 3159,
      "Ġwind": 3160,
      "Ġgh": 3161,
      "Then": 3162,
      "Ġident": 3163,
      "Ġbehavior": 3164,
      "Ġtáº§ng": 3165,
      "Ġgiai": 3166,
      "Ġrev": 3167,
      "elt": 3168,
      "book": 3169,
      "Ġpopulation": 3170,
      "not": 3171,
      "ĠÄĳáº£m": 3172,
      "oke": 3173,
      "Ġáº£o": 3174,
      "Ġtáº£i": 3175,
      "ĠThank": 3176,
      "Ġsens": 3177,
      "Ġele": 3178,
      "Ġimpro": 3179,
      "Ġháº¥p": 3180,
      "ases": 3181,
      "Ġdeath": 3182,
      "Ġspecies": 3183,
      "Ġturns": 3184,
      "Ġpred": 3185,
      "Ġleast": 3186,
      "Ġappro": 3187,
      "wards": 3188,
      "ots": 3189,
      "Ġfear": 3190,
      "Ġ16": 3191,
      "Ġblack": 3192,
      "Ġ199": 3193,
      "Every": 3194,
      "ken": 3195,
      "Ġfly": 3196,
      "Ġphá»ķ": 3197,
      "ement": 3198,
      "Ġshort": 3199,
      "Ġjour": 3200,
      "sh": 3201,
      "Ġduring": 3202,
      "ples": 3203,
      "Ġinstead": 3204,
      "Ġterr": 3205,
      "Ġguys": 3206,
      "Ġpresent": 3207,
      "Ġlá»ĵ": 3208,
      "ison": 3209,
      "50": 3210,
      "Ġcal": 3211,
      "erv": 3212,
      "ĠOh": 3213,
      "Ġmachine": 3214,
      "Ġkhá»Łi": 3215,
      "Ġá»§": 3216,
      "Ġculture": 3217,
      "ĠngÄĥn": 3218,
      "Ġlots": 3219,
      "uck": 3220,
      "To": 3221,
      "á»³": 3222,
      "ĠtÃ¹": 3223,
      "Ġmot": 3224,
      "Ġnháº¯c": 3225,
      "ĠJohn": 3226,
      "ident": 3227,
      "ĠNo": 3228,
      "aged": 3229,
      "Ġrá»«ng": 3230,
      "Ġdemocr": 3231,
      "Ġanimals": 3232,
      "ply": 3233,
      "³n": 3234,
      "Ġmiddle": 3235,
      "ides": 3236,
      "Ġchá»īnh": 3237,
      "Ġgrand": 3238,
      "ither": 3239,
      "Ġrealized": 3240,
      "Ġeasy": 3241,
      "Tuy": 3242,
      "ients": 3243,
      "Ġeat": 3244,
      "fect": 3245,
      "á»«": 3246,
      "Ġpaper": 3247,
      "ĠgÃ³c": 3248,
      "orth": 3249,
      "ows": 3250,
      "Ġyourself": 3251,
      "Ġes": 3252,
      "áº³n": 3253,
      "Ġtháº£i": 3254,
      "Ġfre": 3255,
      "Ġfall": 3256,
      "leep": 3257,
      "ĠkhÃ¡i": 3258,
      "ivers": 3259,
      "Or": 3260,
      "jor": 3261,
      "iáº¿ng": 3262,
      "Ġgiven": 3263,
      "Ġrecent": 3264,
      "Ġprotect": 3265,
      "ook": 3266,
      "Ġtem": 3267,
      "Ġbom": 3268,
      "ĠhÃºt": 3269,
      "Ġvar": 3270,
      "Ġdig": 3271,
      "ased": 3272,
      "Ġ90": 3273,
      "ĠAfgh": 3274,
      "Ġimage": 3275,
      "Ġarg": 3276,
      "ĠNam": 3277,
      "astic": 3278,
      "Ġmole": 3279,
      "Ġhá»Ļp": 3280,
      "ĠnghiÃªm": 3281,
      "Ġmain": 3282,
      "Ġdream": 3283,
      "ĠCar": 3284,
      "ully": 3285,
      "Ġbehind": 3286,
      "Ġnatural": 3287,
      "Ġcut": 3288,
      "Ġluyá»ĩn": 3289,
      "ĠmÃ³n": 3290,
      "ama": 3291,
      "verage": 3292,
      "com": 3293,
      "enn": 3294,
      "apt": 3295,
      "Ġ14": 3296,
      "Ġant": 3297,
      "Ġneeded": 3298,
      "ĠChÃº": 3299,
      "Ġmath": 3300,
      "ĠkÃª": 3301,
      "Ġ201": 3302,
      "Ġsimply": 3303,
      "Ġá»ķn": 3304,
      "ĠÃĤu": 3305,
      "la": 3306,
      "ĠkhuÃ´n": 3307,
      "ĠlÃ¡": 3308,
      "itch": 3309,
      "Ġneeds": 3310,
      "ĠgiÃłu": 3311,
      "Ġviol": 3312,
      "Ġpersonal": 3313,
      "ĠtÃŃn": 3314,
      "Ġrelationship": 3315,
      "ĠcáºŃp": 3316,
      "Ġfight": 3317,
      "Ġfather": 3318,
      "Ġchuá»Ļt": 3319,
      "Ġpsych": 3320,
      "Ġseven": 3321,
      "Ġexist": 3322,
      "Ġeyes": 3323,
      "ĠAfghan": 3324,
      "Ġhands": 3325,
      "vered": 3326,
      "ĠgiÃł": 3327,
      "Ġdoct": 3328,
      "Ġcolle": 3329,
      "Ġfinally": 3330,
      "face": 3331,
      "ann": 3332,
      "Ġfield": 3333,
      "Ġpract": 3334,
      "Má»įi": 3335,
      "Ġlim": 3336,
      "Ġliá»ĩt": 3337,
      "Ġcoi": 3338,
      "ĠngÃ¢n": 3339,
      "Ġleave": 3340,
      "Ġcompanies": 3341,
      "ģm": 3342,
      "á»·": 3343,
      "Ġlow": 3344,
      "Ġtrad": 3345,
      "ĠÄĳá»ı": 3346,
      "Ġcentury": 3347,
      "year": 3348,
      "ĠÄĳÃ¡m": 3349,
      "Ã³t": 3350,
      "Ġstat": 3351,
      "ĠpháºŃn": 3352,
      "Ġstay": 3353,
      "Ġtuyáº¿n": 3354,
      "Ġeconomic": 3355,
      "ced": 3356,
      "mb": 3357,
      "Ġtáº¥n": 3358,
      "Ġtháº¯ng": 3359,
      "Ġfac": 3360,
      "itions": 3361,
      "Ġlan": 3362,
      "Ġfelt": 3363,
      "inary": 3364,
      "Ġperform": 3365,
      "Ġdirect": 3366,
      "á»Ĺi": 3367,
      "ĠTV": 3368,
      "ĠHá»į": 3369,
      "Ġmedia": 3370,
      "ledge": 3371,
      "Ġlocal": 3372,
      "ho": 3373,
      "Ġtrao": 3374,
      "ĠCal": 3375,
      "Ġmajor": 3376,
      "ource": 3377,
      "ĠFr": 3378,
      "ipp": 3379,
      "Ġsun": 3380,
      "Ġ70": 3381,
      "Ġsupport": 3382,
      "Ġpolitical": 3383,
      "Rá»ĵi": 3384,
      "osp": 3385,
      "Ġru": 3386,
      "Ġtai": 3387,
      "Ġ13": 3388,
      "Ġarea": 3389,
      "Ġfeet": 3390,
      "Ġturned": 3391,
      "ĠEurope": 3392,
      "cl": 3393,
      "ĠÄĳáº£o": 3394,
      "Ġhuá»·": 3395,
      "ived": 3396,
      "room": 3397,
      "Ġaccess": 3398,
      "Qu": 3399,
      "eople": 3400,
      "Ġnáº·ng": 3401,
      "ĠmÃ´n": 3402,
      "Ġdu": 3403,
      "ĠTáº¡i": 3404,
      "ills": 3405,
      "ological": 3406,
      "Ġobvious": 3407,
      "Ġextra": 3408,
      "Ġvalue": 3409,
      "Ġbreak": 3410,
      "Vá»Ľi": 3411,
      "ially": 3412,
      "Ġháº³n": 3413,
      "Ġple": 3414,
      "Ġchá»©a": 3415,
      "Ġsuper": 3416,
      "Ġcommon": 3417,
      "Ġfamil": 3418,
      "ĠdáºŃy": 3419,
      "ĠNáº¿u": 3420,
      "Ġmá»ģm": 3421,
      "ains": 3422,
      "aught": 3423,
      "Ġtaken": 3424,
      "Ġcannot": 3425,
      "Ġserv": 3426,
      "Ġpattern": 3427,
      "ĠHoa": 3428,
      "bor": 3429,
      "ĠvÃ¢n": 3430,
      "Ġchem": 3431,
      "Ġspent": 3432,
      "Ġperhaps": 3433,
      "avid": 3434,
      "Ġcommunic": 3435,
      "Ġkey": 3436,
      "Ġbeginning": 3437,
      "ĠnÃ³ng": 3438,
      "idence": 3439,
      "Ġstrong": 3440,
      "Ġprote": 3441,
      "á»Ŀi": 3442,
      "inal": 3443,
      "Ġseeing": 3444,
      "Ġrecord": 3445,
      "Some": 3446,
      "Ġmáº¥y": 3447,
      "ĠphÃ¹": 3448,
      "Ġmoving": 3449,
      "ĠchÃ³": 3450,
      "ĠCon": 3451,
      "Ġorig": 3452,
      "ument": 3453,
      "Ġlonger": 3454,
      "Ġextrem": 3455,
      "Ġsent": 3456,
      "Ã²i": 3457,
      "ĠPr": 3458,
      "Ġmáº¡ch": 3459,
      "ĠchÃ³ng": 3460,
      "Ġleg": 3461,
      "Chá»ī": 3462,
      "ency": 3463,
      "ĠchÃ¡u": 3464,
      "LÃłm": 3465,
      "Ġá»ĳng": 3466,
      "Ġmáº½": 3467,
      "orld": 3468,
      "Ġ17": 3469,
      "Ġsend": 3470,
      "á»ĭp": 3471,
      "ĠBáº¯c": 3472,
      "iving": 3473,
      "Ġparts": 3474,
      "Ġleaders": 3475,
      "ĠmÃ¹a": 3476,
      "ĠÄĳiá»ĥn": 3477,
      "Ġmult": 3478,
      "Ġbuá»Ļc": 3479,
      "Ġvac": 3480,
      "rought": 3481,
      "Ġquyá»ĥn": 3482,
      "Ġthiá»ĩu": 3483,
      "ĠsÃ³ng": 3484,
      "ĠdÆ°á»¡ng": 3485,
      "ĠtrÃ¹ng": 3486,
      "ĠmÃ¡u": 3487,
      "Ġeight": 3488,
      "fully": 3489,
      "ĠhÃ£i": 3490,
      "uth": 3491,
      "Ġ$": 3492,
      "ıng": 3493,
      "Ġháº¡": 3494,
      "Ġdraw": 3495,
      "áº¥c": 3496,
      "Ġlinh": 3497,
      "Ġperfect": 3498,
      "Ġenc": 3499,
      "Ġsurv": 3500,
      "Ġphotograph": 3501,
      "Ġwonderful": 3502,
      "Ġquickly": 3503,
      "eal": 3504,
      "ĠcÅ©": 3505,
      "Ġtháº£o": 3506,
      "Ġbegan": 3507,
      "Ġreach": 3508,
      "Ġrá»Ŀi": 3509,
      "Ġfilm": 3510,
      "ĠChÃºa": 3511,
      "ĠsÆ¡": 3512,
      "eter": 3513,
      "Ġdesc": 3514,
      "Ġchá»§ng": 3515,
      "Ġgrowth": 3516,
      "VÃŃ": 3517,
      "vent": 3518,
      "ĠÄĳe": 3519,
      "ĠkhÃ¡n": 3520,
      "ources": 3521,
      "avor": 3522,
      "Ġevent": 3523,
      "At": 3524,
      "Ġsize": 3525,
      "Ġground": 3526,
      "ĠdÃµi": 3527,
      "Ġuá»ĳng": 3528,
      "Ġinclud": 3529,
      "Ġweek": 3530,
      "lt": 3531,
      "ĠÄĳiÃªn": 3532,
      "ĠHar": 3533,
      "Ġcool": 3534,
      "Ġtáº£ng": 3535,
      "Ġchá»Ŀ": 3536,
      "Ġtá»ĵi": 3537,
      "yr": 3538,
      "Ġlá»Ļ": 3539,
      "Ġterms": 3540,
      "ĠWhy": 3541,
      "Ġexperiment": 3542,
      "rent": 3543,
      "Ġloáº¡n": 3544,
      "Ġparents": 3545,
      "yl": 3546,
      "Ġess": 3547,
      "Ġláº§m": 3548,
      "itect": 3549,
      "ley": 3550,
      "Ġdisc": 3551,
      "Ġcarbon": 3552,
      "Ġabsolut": 3553,
      "Okay": 3554,
      "ĠÄĳÃ¡p": 3555,
      "Ġsqu": 3556,
      "Ġvá»¯ng": 3557,
      "Ġrequ": 3558,
      "Ġimpact": 3559,
      "Ġspecial": 3560,
      "ĠAs": 3561,
      "Ġbuá»ĵn": 3562,
      "Ġlost": 3563,
      "cious": 3564,
      "ĠÄĲiá»ģu": 3565,
      "eh": 3566,
      "gn": 3567,
      "Ġmáº¯n": 3568,
      "Ġbang": 3569,
      "Ġpick": 3570,
      "asc": 3571,
      "Ġsá»Ńa": 3572,
      "Ġciv": 3573,
      "Ġwin": 3574,
      "ales": 3575,
      "ĠkhÃ´": 3576,
      "Ho": 3577,
      "ĠthÆ°á»Łng": 3578,
      "Ġtot": 3579,
      "Ġbox": 3580,
      "ĠgÃ³p": 3581,
      "ĠIran": 3582,
      "ĠDo": 3583,
      "Ġwrite": 3584,
      "Ġcities": 3585,
      "Ġanal": 3586,
      "ĠKá»³": 3587,
      "ĠTrÃ¡i": 3588,
      "Ġtravel": 3589,
      "ChÃ": 3590,
      "ĠtÆ°á»Ŀng": 3591,
      "ĠtrÃ¡nh": 3592,
      "ĠTháº¿": 3593,
      "Ġkhá»ķng": 3594,
      "Ġvers": 3595,
      "Ġmorning": 3596,
      "ĠAfghanistan": 3597,
      "hood": 3598,
      "Ġoce": 3599,
      "Ġocc": 3600,
      "Ġtried": 3601,
      "ĠAm": 3602,
      "Ġnear": 3603,
      "Ġimages": 3604,
      "Ġrepres": 3605,
      "Ġmiá»ħn": 3606,
      "Ġgreen": 3607,
      "erm": 3608,
      "ĠÄĳÃ³i": 3609,
      "rael": 3610,
      "Ġkhoáº£n": 3611,
      "ards": 3612,
      "Ġcamera": 3613,
      "ĠÄĳÃ¨n": 3614,
      "Ġláº¡nh": 3615,
      "Ã¡u": 3616,
      "ilar": 3617,
      "Ġknowledge": 3618,
      "Hiá»ĩn": 3619,
      "On": 3620,
      "Ġong": 3621,
      "ĠchÃłng": 3622,
      "ĠAn": 3623,
      "ised": 3624,
      "ustain": 3625,
      "Ġvirus": 3626,
      "ĠmÃ¡i": 3627,
      "Ġdead": 3628,
      "ĠLe": 3629,
      "Ġ198": 3630,
      "Ġrecogn": 3631,
      "Ġapproach": 3632,
      "Ġá»§ng": 3633,
      "Ġbene": 3634,
      "Ġ21": 3635,
      "Ġtá»ķn": 3636,
      "ĠcÆ¡n": 3637,
      "Ġbáº£ng": 3638,
      "Ġtráº¯ng": 3639,
      "ĠTrong": 3640,
      "ively": 3641,
      "Ġtá»Ļc": 3642,
      "Ġláº«n": 3643,
      "ites": 3644,
      "ution": 3645,
      "Ġspread": 3646,
      "Ġinsp": 3647,
      "Ġsitu": 3648,
      "Ġarchitect": 3649,
      "An": 3650,
      "Ġsum": 3651,
      "Ġmáº£nh": 3652,
      "ĠMar": 3653,
      "cially": 3654,
      "Ġpoor": 3655,
      "Ġaverage": 3656,
      "ĠÄĳá»īnh": 3657,
      "Ġconv": 3658,
      "Ġintr": 3659,
      "á»ıng": 3660,
      "Ġfeed": 3661,
      "Ġconsum": 3662,
      "Ġweeks": 3663,
      "Ġrisk": 3664,
      "Ġdiá»ĩu": 3665,
      "Ġmeasure": 3666,
      "Ġattention": 3667,
      "eed": 3668,
      "oon": 3669,
      "Ġsitting": 3670,
      "Ġsleep": 3671,
      "Ġtá»Ŀ": 3672,
      "Ġobs": 3673,
      "Ġopportunity": 3674,
      "ral": 3675,
      "Ľm": 3676,
      "Ġcamp": 3677,
      "ĠnÃºi": 3678,
      "Ġap": 3679,
      "Ġonline": 3680,
      "Ġreality": 3681,
      "Ġfeeling": 3682,
      "Ġauth": 3683,
      "ext": 3684,
      "Ġdest": 3685,
      "Ġrele": 3686,
      "ĠGi": 3687,
      "Ġwouldn": 3688,
      "Ġmeaning": 3689,
      "Ġcaus": 3690,
      "Ġeither": 3691,
      "Ġphá»ıng": 3692,
      "iction": 3693,
      "ression": 3694,
      "Ġtiá»ĥu": 3695,
      "ators": 3696,
      "ops": 3697,
      "Ġwhatever": 3698,
      "ĠSp": 3699,
      "ateg": 3700,
      "ĠWorld": 3701,
      "ĠEnglish": 3702,
      "No": 3703,
      "ĠÄĳÃło": 3704,
      "ana": 3705,
      "Ġcomb": 3706,
      "ĠBl": 3707,
      "Ġbá»ģ": 3708,
      "Ġborn": 3709,
      "ĠtrÃ¬": 3710,
      "urb": 3711,
      "ĠÄĲÃ´ng": 3712,
      "Ġchanges": 3713,
      "ried": 3714,
      "Con": 3715,
      "Ġbrought": 3716,
      "Ġfoot": 3717,
      "izing": 3718,
      "Ġeconomy": 3719,
      "ggest": 3720,
      "Ġopt": 3721,
      "Ġfast": 3722,
      "Ġyes": 3723,
      "anger": 3724,
      "Ġgiá»įng": 3725,
      "Ġsuggest": 3726,
      "Ġtá»ĳn": 3727,
      "ĠIsrael": 3728,
      "Ġstructure": 3729,
      "cu": 3730,
      "Ġáº¥n": 3731,
      "ĠÃ¡o": 3732,
      "ĠtráºŃn": 3733,
      "Ġgiving": 3734,
      "ibility": 3735,
      "Ġbased": 3736,
      "Ġinterested": 3737,
      "Ġrespons": 3738,
      "Ńnh": 3739,
      "Ġháº£o": 3740,
      "Ġtrá»ĵng": 3741,
      "ĠquÃªn": 3742,
      "ĠCÃ¡c": 3743,
      "ored": 3744,
      "Ġsud": 3745,
      "Ġphysical": 3746,
      "unt": 3747,
      "Ġstage": 3748,
      "Ġchá»ĵ": 3749,
      "Ġgiá»ıi": 3750,
      "ades": 3751,
      "Ġice": 3752,
      "Ġdie": 3753,
      "ĠrÆ¡i": 3754,
      "Ã¹a": 3755,
      "Ġblue": 3756,
      "Ġgrowing": 3757,
      "Ġprofess": 3758,
      "CÃ¢u": 3759,
      "of": 3760,
      "Ġbar": 3761,
      "ances": 3762,
      "Ġquáº£ng": 3763,
      "Ġability": 3764,
      "Ġsudden": 3765,
      "ya": 3766,
      "yn": 3767,
      "ĠmÃ£i": 3768,
      "Ġkim": 3769,
      "Ġfavor": 3770,
      "ico": 3771,
      "Ġindust": 3772,
      "Ġdeveloped": 3773,
      "ĠNgÆ°á»Ŀi": 3774,
      "Ġanimal": 3775,
      "Ġseems": 3776,
      "Ġvoice": 3777,
      "Ġtools": 3778,
      "Ġhosp": 3779,
      "Ġgone": 3780,
      "Ġcháº¡m": 3781,
      "ĠBe": 3782,
      "ĠChin": 3783,
      "Cho": 3784,
      "Ġmodern": 3785,
      "Ġhar": 3786,
      "Ġstress": 3787,
      "Ġsoft": 3788,
      "umb": 3789,
      "Ġknown": 3790,
      "Ġbooks": 3791,
      "CÃ²n": 3792,
      "son": 3793,
      "Ġti": 3794,
      "Ġcáº§m": 3795,
      "Ġcá»¡": 3796,
      "ploy": 3797,
      "Ġhon": 3798,
      "chie": 3799,
      "VÃło": 3800,
      "Ġkhuáº©n": 3801,
      "ĠbáºŃt": 3802,
      "omen": 3803,
      "ĠGe": 3804,
      "ĠEm": 3805,
      "Ġrealize": 3806,
      "Ġsmart": 3807,
      "Ġproduc": 3808,
      "ware": 3809,
      "Ġbá»ģn": 3810,
      "Ġvá»ĳn": 3811,
      "Ġunivers": 3812,
      "Ġaffect": 3813,
      "Ġoxy": 3814,
      "ister": 3815,
      "Ġpháº¥n": 3816,
      "Ġpriv": 3817,
      "ĠnghÃ¬n": 3818,
      "Ġcharact": 3819,
      "rom": 3820,
      "Ġsil": 3821,
      "ĠsÃ¡nh": 3822,
      "Ġdark": 3823,
      "ouch": 3824,
      "aul": 3825,
      "lu": 3826,
      "Ġtiá»ģm": 3827,
      "ĠÄĳÆ°Æ¡ng": 3828,
      "Ġpress": 3829,
      "Ġfire": 3830,
      "Ġjo": 3831,
      "Ġtext": 3832,
      "Ġdeveloping": 3833,
      "Ġeye": 3834,
      "People": 3835,
      "ted": 3836,
      "ĠhÃ´n": 3837,
      "ĠkhoÃ¡": 3838,
      "Ġnumbers": 3839,
      "ĠlÆ°Æ¡ng": 3840,
      "Ġnghá»ī": 3841,
      "Ġcrit": 3842,
      "Ġwrote": 3843,
      "Ġissue": 3844,
      "Ġchallenge": 3845,
      "Ġnice": 3846,
      "Ġpull": 3847,
      "Ġcháº¥m": 3848,
      "ĠvÃłng": 3849,
      "ĠSouth": 3850,
      "Ġthank": 3851,
      "Ġchiáº¿m": 3852,
      "Ġinvent": 3853,
      "Ġdescrib": 3854,
      "lict": 3855,
      "oad": 3856,
      "ug": 3857,
      "Ġhoáº£ng": 3858,
      "Ġmá»Ŀi": 3859,
      "acebook": 3860,
      "Ġclimate": 3861,
      "Ġrunning": 3862,
      "Ġwebs": 3863,
      "Ġscientists": 3864,
      "Ġincredible": 3865,
      "Ġnáº¯m": 3866,
      "Ġhot": 3867,
      "ĠkÃŃ": 3868,
      "Ġpost": 3869,
      "Ġrich": 3870,
      "ĠRob": 3871,
      "ĠkhÃŃch": 3872,
      "Ġunderstanding": 3873,
      "ID": 3874,
      "Má»Ĺi": 3875,
      "Ġbá»¯a": 3876,
      "Ġhiá»ĥn": 3877,
      "Ġpur": 3878,
      "Ġpath": 3879,
      "Ġvá»£": 3880,
      "Ġphá»ĳi": 3881,
      "Ġstarting": 3882,
      "Ġpoll": 3883,
      "Ġhumans": 3884,
      "Ġcreating": 3885,
      "Ġngá»«ng": 3886,
      "par": 3887,
      "Ġcy": 3888,
      "ĠhÃło": 3889,
      "Ġge": 3890,
      "Ġsave": 3891,
      "Ġ24": 3892,
      "Ġbottom": 3893,
      "Ġtradition": 3894,
      "ught": 3895,
      "Ġtw": 3896,
      "ĠÄĳiá»ĩu": 3897,
      "Ġhi": 3898,
      "Ġhor": 3899,
      "ĠlÃłng": 3900,
      "Ġvá»¡": 3901,
      "Ġlá»Ńa": 3902,
      "Ġaudience": 3903,
      "Ġcivil": 3904,
      "á»«ng": 3905,
      "Ġsustain": 3906,
      "ĠVÃ¬": 3907,
      "Ġ500": 3908,
      "Ġroad": 3909,
      "Ġthá»ĭt": 3910,
      "Our": 3911,
      "li": 3912,
      "ĠtÃ¡ch": 3913,
      "Ġmillions": 3914,
      "ĠvÄ©": 3915,
      "iti": 3916,
      "Ġaren": 3917,
      "Ġhá»ķ": 3918,
      "ensive": 3919,
      "ĠQu": 3920,
      "Ġgirls": 3921,
      "Ġgháº¿": 3922,
      "Ġquáº§n": 3923,
      "ĠxÆ°Æ¡ng": 3924,
      "ĠKen": 3925,
      "Ġplaying": 3926,
      "Ġnetwork": 3927,
      "Ġsolution": 3928,
      "erence": 3929,
      "áº·m": 3930,
      "ĠFacebook": 3931,
      "Ġscale": 3932,
      "ĠChinese": 3933,
      "iet": 3934,
      "Ġchuá»Ĺi": 3935,
      "ĠIf": 3936,
      "ĠMy": 3937,
      "Ġknows": 3938,
      "Ġná»ķ": 3939,
      "Ġcolor": 3940,
      "Ġwriting": 3941,
      "May": 3942,
      "port": 3943,
      "uce": 3944,
      "ĠdÆ°á»Ŀng": 3945,
      "Ġtrack": 3946,
      "ĠrÃºt": 3947,
      "ĠÄĳá»«ng": 3948,
      "Ġconvers": 3949,
      "Ġneigh": 3950,
      "ĠHá»ĵi": 3951,
      "Ġbenef": 3952,
      "cess": 3953,
      "Ġlay": 3954,
      "Ġká»ĭch": 3955,
      "Ã³m": 3956,
      "Ġtri": 3957,
      "Ġkháº©u": 3958,
      "Ġalone": 3959,
      "Ġliterally": 3960,
      "St": 3961,
      "ĠsÃ³t": 3962,
      "ĠbiÃªn": 3963,
      "ero": 3964,
      "Ġcháº£y": 3965,
      "Ġrelig": 3966,
      "pecially": 3967,
      "ĠÄĳáº±ng": 3968,
      "Ġanyone": 3969,
      "Ġarr": 3970,
      "Ġblood": 3971,
      "Ġslow": 3972,
      "ĠThÃ¡": 3973,
      "Ġareas": 3974,
      "Ġdeg": 3975,
      "Ġtend": 3976,
      "Ġemail": 3977,
      "Ġmov": 3978,
      "Ġblog": 3979,
      "Ġ197": 3980,
      "Ġrul": 3981,
      "ĠgiÃ³": 3982,
      "idge": 3983,
      "anda": 3984,
      "iforn": 3985,
      "ĠKhi": 3986,
      "Ġtelling": 3987,
      "Ġbaby": 3988,
      "Ġsn": 3989,
      "Ġfem": 3990,
      "Ġgives": 3991,
      "Ġconcept": 3992,
      "ste": 3993,
      "Ġloáº¡t": 3994,
      "Ġsá»Ľm": 3995,
      "Ġtele": 3996,
      "uá»µ": 3997,
      "ĠThere": 3998,
      "ĠthoÃ¡t": 3999,
      "Ġguess": 4000,
      "Ġinnovation": 4001,
      "Ġwall": 4002,
      "Ġgames": 4003,
      "Ġtruth": 4004,
      "ada": 4005,
      "Ġprotein": 4006,
      "Ġvill": 4007,
      "ĠcháºŃm": 4008,
      "ala": 4009,
      "Ġkhuy": 4010,
      "Ġkhá»©": 4011,
      "Ġworth": 4012,
      "Ġdevelopment": 4013,
      "ĠCaliforn": 4014,
      "chan": 4015,
      "Ġasking": 4016,
      "Ġexperi": 4017,
      "Ġpolic": 4018,
      "Ġpredict": 4019,
      "Ġchá»ĵng": 4020,
      "uel": 4021,
      "Ġsáº¡ch": 4022,
      "Ġrate": 4023,
      "Ġphone": 4024,
      "Ġsoon": 4025,
      "ĠSc": 4026,
      "áº¹n": 4027,
      "Ġsolve": 4028,
      "ique": 4029,
      "Is": 4030,
      "ĠtÃłn": 4031,
      "Ġtáº¯t": 4032,
      "ĠdÄ©": 4033,
      "arr": 4034,
      "Ġforward": 4035,
      "Ġprom": 4036,
      "obody": 4037,
      "ept": 4038,
      "ologies": 4039,
      "ĠÃĶng": 4040,
      "Ġpatients": 4041,
      "Ġhundreds": 4042,
      "ĠbÃ¨": 4043,
      "Ġgiáº¥c": 4044,
      "Ġprog": 4045,
      "ĠSch": 4046,
      "ĠÄĲáº¡i": 4047,
      "ĠVáºŃy": 4048,
      "ube": 4049,
      "Ġsounds": 4050,
      "Ġdepend": 4051,
      "ĠCalifornia": 4052,
      "ĠOK": 4053,
      "Ġpatient": 4054,
      "Ġwhite": 4055,
      "Ġlog": 4056,
      "ĠDavid": 4057,
      "ĠVÃ¢ng": 4058,
      "por": 4059,
      "Ġláº·p": 4060,
      "Ġtheory": 4061,
      "Ġnghá»ģ": 4062,
      "irth": 4063,
      "Ġpeace": 4064,
      "Ġshowed": 4065,
      "Ġtransform": 4066,
      "Ġdiscovered": 4067,
      "Ta": 4068,
      "Ġimm": 4069,
      "Ġsuáº¥t": 4070,
      "Ġsuff": 4071,
      "Ġgá»£i": 4072,
      "ox": 4073,
      "Ġer": 4074,
      "Ġcop": 4075,
      "ĠmÅ©": 4076,
      "Ġforce": 4077,
      "ĠMc": 4078,
      "ellig": 4079,
      "Ġavail": 4080,
      "Ġnormal": 4081,
      "Tá»«": 4082,
      "usion": 4083,
      "Ġquá»¹": 4084,
      "Ġrepl": 4085,
      "ĠAd": 4086,
      "Ġemp": 4087,
      "raq": 4088,
      "Ġvacc": 4089,
      "ros": 4090,
      "á»Ľ": 4091,
      "Ġast": 4092,
      "Ġbur": 4093,
      "Ġvol": 4094,
      "Ġtrust": 4095,
      "entially": 4096,
      "ĠMex": 4097,
      "Æ°Æ¡i": 4098,
      "Ã©p": 4099,
      "ondon": 4100,
      "Ġcurrent": 4101,
      "oes": 4102,
      "Ġson": 4103,
      "Ġokay": 4104,
      "ĠchÃ¬": 4105,
      "ified": 4106,
      "Ġcenter": 4107,
      "Ġproduce": 4108,
      "Ġgeneration": 4109,
      "Ġpictures": 4110,
      "Ġespecially": 4111,
      "asing": 4112,
      "ĠAt": 4113,
      "akes": 4114,
      "Ġtype": 4115,
      "Ġsubject": 4116,
      "Ġrepresent": 4117,
      "Ġindustry": 4118,
      "Al": 4119,
      "Ġlá»ĳi": 4120,
      "ĠtrÆ°ng": 4121,
      "Ġintern": 4122,
      "ĠphÃª": 4123,
      "Ġlá»Ĺ": 4124,
      "Ġmovement": 4125,
      "Ġfundam": 4126,
      "Ġcu": 4127,
      "Ġngáº¡i": 4128,
      "ify": 4129,
      "ĠLondon": 4130,
      "ĠDe": 4131,
      "Ġplant": 4132,
      "Ġsimilar": 4133,
      "Ġincredibly": 4134,
      "ĠtÃºi": 4135,
      "ĠsÃ´ng": 4136,
      "Ã³i": 4137,
      "ĠnhÃ©": 4138,
      "Ġchanging": 4139,
      "Ġtalked": 4140,
      "Ġmaterials": 4141,
      "Ġocean": 4142,
      "ey": 4143,
      "ĠtÃ¡n": 4144,
      "Ġbed": 4145,
      "Ġtráº¡i": 4146,
      "Ġserious": 4147,
      "Ġpotential": 4148,
      "Ġcars": 4149,
      "Ġtrá»¯": 4150,
      "Ġcompet": 4151,
      "Ġteachers": 4152,
      "Ġwebsite": 4153,
      "Not": 4154,
      "Ngh": 4155,
      "ped": 4156,
      "Ġtouch": 4157,
      "Ġlif": 4158,
      "Ġsand": 4159,
      "Ġnguyá»ĩn": 4160,
      "phere": 4161,
      "IDS": 4162,
      "Ráº¥t": 4163,
      "oor": 4164,
      "Ġest": 4165,
      "Ġdáº·m": 4166,
      "ĠIraq": 4167,
      "illi": 4168,
      "abor": 4169,
      "Ġsurface": 4170,
      "ĠthÆ°á»Ľc": 4171,
      "Ġang": 4172,
      "Ġkiá»ĩm": 4173,
      "osing": 4174,
      "Ġhaven": 4175,
      "amm": 4176,
      "imens": 4177,
      "Ġlea": 4178,
      "NgÃły": 4179,
      "razil": 4180,
      "stein": 4181,
      "iod": 4182,
      "Ġchance": 4183,
      "ĠChar": 4184,
      "eck": 4185,
      "Ġresources": 4186,
      "Ġinvolved": 4187,
      "Ġabsolutely": 4188,
      "DP": 4189,
      "ĠÄĳÄĥng": 4190,
      "Ġachie": 4191,
      "Ġviá»ħn": 4192,
      "ask": 4193,
      "ĠCl": 4194,
      "ival": 4195,
      "Ġconflict": 4196,
      "Ġball": 4197,
      "isions": 4198,
      "let": 4199,
      "lex": 4200,
      "Ġtable": 4201,
      "Thá»©": 4202,
      "Ġemb": 4203,
      "Ġdefin": 4204,
      "Ġissues": 4205,
      "bit": 4206,
      "Ġ0": 4207,
      "ouble": 4208,
      "Ġcá»Ŀ": 4209,
      "Ġhang": 4210,
      "Ġevolution": 4211,
      "yond": 4212,
      "±ng": 4213,
      "Ġsell": 4214,
      "Ġshape": 4215,
      "ilities": 4216,
      "Ġhappiness": 4217,
      "ĠWest": 4218,
      "assion": 4219,
      "head": 4220,
      "Ġjourney": 4221,
      "pre": 4222,
      "wit": 4223,
      "ĠnÃ©": 4224,
      "Ġhit": 4225,
      "Ġquang": 4226,
      "Ġsá»¹": 4227,
      "Ġperiod": 4228,
      "ĠÄĳuá»ķi": 4229,
      "Ġbá»¥": 4230,
      "ara": 4231,
      "ĠCáº£m": 4232,
      "Ä©a": 4233,
      "ĠkhÃ¡ng": 4234,
      "Ġamong": 4235,
      "like": 4236,
      "ĠcÃł": 4237,
      "ĠnÃ¢ng": 4238,
      "Ġdanger": 4239,
      "Ġrece": 4240,
      "Ġfunction": 4241,
      "Ġgroups": 4242,
      "Ġdetail": 4243,
      "ĠbÆ¡i": 4244,
      "Ġbirth": 4245,
      "Ġbeyond": 4246,
      "Ġult": 4247,
      "Ġintellig": 4248,
      "Ġtiny": 4249,
      "Ġschools": 4250,
      "Ġgeneral": 4251,
      "Ġvisual": 4252,
      "Ġavailable": 4253,
      "Ġsat": 4254,
      "Ġvá»ı": 4255,
      "Ġnecess": 4256,
      "Ġflow": 4257,
      "Ġtechnologies": 4258,
      "ĠkÃ©m": 4259,
      "uct": 4260,
      "Ġnháº¯n": 4261,
      "Ġfur": 4262,
      "Ġstru": 4263,
      "Ġmeth": 4264,
      "ĠghÃ©p": 4265,
      "Ġmessage": 4266,
      "bs": 4267,
      "ĠcÃº": 4268,
      "ĠthÄĥm": 4269,
      "Ġthá»Ł": 4270,
      "Ġchoice": 4271,
      "Ġprin": 4272,
      "ĠBrazil": 4273,
      "Æ°á»¡i": 4274,
      "Ġvision": 4275,
      "Ġstreet": 4276,
      "Ġdemocracy": 4277,
      "Ġsituation": 4278,
      "Just": 4279,
      "ĠphiÃªn": 4280,
      "Ġsá»ĳt": 4281,
      "Ġsold": 4282,
      "Ġ300": 4283,
      "roll": 4284,
      "Ġmiles": 4285,
      "Ġrules": 4286,
      "Váº¥n": 4287,
      "Ġráº»": 4288,
      "eth": 4289,
      "ips": 4290,
      "Ġelectric": 4291,
      "Ġdevice": 4292,
      "Ġrecently": 4293,
      "oo": 4294,
      "Ġtháº£m": 4295,
      "Ġbreat": 4296,
      "Ġwish": 4297,
      "orge": 4298,
      "Ġreact": 4299,
      "Ġsafe": 4300,
      "ĠAIDS": 4301,
      "ĠHa": 4302,
      "Ġkhoáº£nh": 4303,
      "Ġslide": 4304,
      "Ġprojects": 4305,
      "iar": 4306,
      "ram": 4307,
      "Ġcause": 4308,
      "oring": 4309,
      "eles": 4310,
      "une": 4311,
      "Ġmedic": 4312,
      "By": 4313,
      "tÃ´i": 4314,
      "ĠtÃłng": 4315,
      "ĠnháºŃt": 4316,
      "TrÃªn": 4317,
      "Ġcraz": 4318,
      "Ġláº·ng": 4319,
      "Ġváº¿t": 4320,
      "Ġfair": 4321,
      "ishing": 4322,
      "á»įt": 4323,
      "Ġná»Ĺ": 4324,
      "Ġthoáº£": 4325,
      "Ġmap": 4326,
      "Ġbá»įn": 4327,
      "Ġaccount": 4328,
      "Ġattack": 4329,
      "Ġindividuals": 4330,
      "Ġrevolution": 4331,
      "Ġdigital": 4332,
      "SA": 4333,
      "light": 4334,
      "ĠsÃ¡u": 4335,
      "Ġnháº¹": 4336,
      "Ġhoang": 4337,
      "odies": 4338,
      "Ġneg": 4339,
      "antly": 4340,
      "Ġlikely": 4341,
      "Ġbecomes": 4342,
      "ĠOkay": 4343,
      "Ġputting": 4344,
      "Ġinstit": 4345,
      "Ġsá»¥": 4346,
      "Ġwalking": 4347,
      "Ġsea": 4348,
      "ĠMich": 4349,
      "Ġtells": 4350,
      "Ġoffice": 4351,
      "Ġmemory": 4352,
      "Ġxoay": 4353,
      "NÄĥm": 4354,
      "more": 4355,
      "Ġlá»įc": 4356,
      "ĠtrÃ²n": 4357,
      "apan": 4358,
      "str": 4359,
      "Ġboy": 4360,
      "Ġcross": 4361,
      "TrÆ°á»Ľc": 4362,
      "aur": 4363,
      "ĠhÃ¹ng": 4364,
      "Ġtrá»ĳng": 4365,
      "edom": 4366,
      "ster": 4367,
      "ĠCol": 4368,
      "ĠPhÃ¡": 4369,
      "Ġactiv": 4370,
      "Ġbigger": 4371,
      "Ġdrive": 4372,
      "Ġbá»Ŀ": 4373,
      "ĠChrist": 4374,
      "ĠÄĳiá»ĩp": 4375,
      "Ġgt": 4376,
      "arily": 4377,
      "Ġdied": 4378,
      "Ġdrop": 4379,
      "Ġpassion": 4380,
      "uly": 4381,
      "Ġmob": 4382,
      "ĠPar": 4383,
      "ĠKh": 4384,
      "Ġcreative": 4385,
      "Ġevidence": 4386,
      "fort": 4387,
      "ires": 4388,
      "Ġlt": 4389,
      "oming": 4390,
      "ashing": 4391,
      "Ġmechan": 4392,
      "Ġexcept": 4393,
      "cient": 4394,
      "Ġarm": 4395,
      "Ġ196": 4396,
      "Ġdesigned": 4397,
      "Ġreasons": 4398,
      "ned": 4399,
      "oid": 4400,
      "ĠÆ°u": 4401,
      "Ã£ng": 4402,
      "ĠCam": 4403,
      "agn": 4404,
      "ĠNháºŃt": 4405,
      "Ġmedical": 4406,
      "ĠBrit": 4407,
      "ĠÄĳáº³ng": 4408,
      "itiz": 4409,
      "Ġsearch": 4410,
      "ĠLÃłm": 4411,
      "Ġaction": 4412,
      "ously": 4413,
      "ĠmÃ¹i": 4414,
      "Ġresults": 4415,
      "col": 4416,
      "ford": 4417,
      "ĠÄĳáº¿": 4418,
      "Ġdiv": 4419,
      "Ġngáº«u": 4420,
      "Ġcompassion": 4421,
      "ĠYeah": 4422,
      "Ġvoi": 4423,
      "fer": 4424,
      "Ġlá»¥c": 4425,
      "Ġep": 4426,
      "Ġdoáº¡": 4427,
      "ĠEast": 4428,
      "Ġimprove": 4429,
      "BÃł": 4430,
      "Ġtar": 4431,
      "ĠbÃ²": 4432,
      "Ġtowards": 4433,
      "ĠlÃłnh": 4434,
      "ĠCÃ´": 4435,
      "ĠSte": 4436,
      "Ġemerg": 4437,
      "Ġeverywhere": 4438,
      "Ġgrad": 4439,
      "Ġcris": 4440,
      "Ġdrug": 4441,
      "ges": 4442,
      "zz": 4443,
      "Ġnine": 4444,
      "ĠÄĳam": 4445,
      "ĠlÃŃnh": 4446,
      "Ġphil": 4447,
      "Ġlived": 4448,
      "ĠJapan": 4449,
      "Ġblind": 4450,
      "Ġclean": 4451,
      "Ġaware": 4452,
      "medi": 4453,
      "ĠMexico": 4454,
      "Ġcrazy": 4455,
      "view": 4456,
      "ĠtÃ´": 4457,
      "ngth": 4458,
      "Ġled": 4459,
      "Ġlose": 4460,
      "ained": 4461,
      "Ġconscious": 4462,
      "Ġready": 4463,
      "Ġfavorite": 4464,
      "Ġsoftware": 4465,
      "NhÃ": 4466,
      "ĠÄĳá»±ng": 4467,
      "oms": 4468,
      "Ġprim": 4469,
      "Ãºa": 4470,
      "ÄĲÆ°á»£c": 4471,
      "ĠSan": 4472,
      "ĠNow": 4473,
      "ĠGr": 4474,
      "Ġstarts": 4475,
      "ĠYes": 4476,
      "Ġbasic": 4477,
      "Ġparticip": 4478,
      "Ġteacher": 4479,
      "£n": 4480,
      "Ġcart": 4481,
      "Ġcode": 4482,
      "Ġbird": 4483,
      "estern": 4484,
      "Ġthá»«a": 4485,
      "ĠthuáºŃn": 4486,
      "olutions": 4487,
      "With": 4488,
      "ky": 4489,
      "put": 4490,
      "Ġtan": 4491,
      "ĠthÃ¡c": 4492,
      "urt": 4493,
      "Ġshif": 4494,
      "ĠÄĲáº¥t": 4495,
      "Ġunf": 4496,
      "ished": 4497,
      "Ġcertainly": 4498,
      "Liá»ĩu": 4499,
      "á»©ng": 4500,
      "Ġbact": 4501,
      "onse": 4502,
      "ĠrÃ¡c": 4503,
      "Ġtaught": 4504,
      "Ġwaste": 4505,
      "oles": 4506,
      "Ġthuá»·": 4507,
      "Ġbiggest": 4508,
      "Ġexamples": 4509,
      "Ġscientific": 4510,
      "how": 4511,
      "Ġtrial": 4512,
      "Ġonto": 4513,
      "ĠBá»Łi": 4514,
      "ĠNorth": 4515,
      "ores": 4516,
      "ĠÄĳoÃłn": 4517,
      "Ġminds": 4518,
      "Gi": 4519,
      "Ġcáº¥y": 4520,
      "Ġmis": 4521,
      "imb": 4522,
      "Ġprint": 4523,
      "ĠBill": 4524,
      "ude": 4525,
      "Ġmoved": 4526,
      "Ġtransl": 4527,
      "Ġobviously": 4528,
      "Ġfurther": 4529,
      "chÃºng": 4530,
      "ged": 4531,
      "Ġcitiz": 4532,
      "Ġlau": 4533,
      "ĠtrÃŃch": 4534,
      "edia": 4535,
      "Ġquality": 4536,
      "Ġsever": 4537,
      "ÄĲáº§u": 4538,
      "izations": 4539,
      "Ġ400": 4540,
      "Ġscreen": 4541,
      "others": 4542,
      "Ġcomputers": 4543,
      "Ġmoral": 4544,
      "Ġparticularly": 4545,
      "Ġviolence": 4546,
      "Ġintrod": 4547,
      "Ġprogress": 4548,
      "lin": 4549,
      "nal": 4550,
      "Ġthang": 4551,
      "Ġcháº·t": 4552,
      "ett": 4553,
      "Ġmeant": 4554,
      "Ġcontent": 4555,
      "Ġcontext": 4556,
      "ruction": 4557,
      "Ġshowing": 4558,
      "ĠnhuáºŃn": 4559,
      "ĠCanada": 4560,
      "Ġextraord": 4561,
      "Ġneighbor": 4562,
      "Ġdin": 4563,
      "Ġrock": 4564,
      "Ġfaster": 4565,
      "ays": 4566,
      "urity": 4567,
      "Ġste": 4568,
      "ĠAD": 4569,
      "ĠOr": 4570,
      "Ġcommunities": 4571,
      "ground": 4572,
      "ĠÄĳáº¡p": 4573,
      "Ġhuy": 4574,
      "Ġpu": 4575,
      "Ġgiáº£ng": 4576,
      "Ġhá»įp": 4577,
      "Ġchoose": 4578,
      "ĠWar": 4579,
      "Ġgraph": 4580,
      "Ġconsider": 4581,
      "ĠArab": 4582,
      "iversity": 4583,
      "Ġapart": 4584,
      "Ġnational": 4585,
      "Ġmount": 4586,
      "ĠShe": 4587,
      "tend": 4588,
      "Ġreport": 4589,
      "Ġthreat": 4590,
      "ĠlÆ°á»£c": 4591,
      "Ġmiáº¿ng": 4592,
      "any": 4593,
      "ĠAll": 4594,
      "Ġexpert": 4595,
      "Ġindeed": 4596,
      "ĠlÃ£ng": 4597,
      "come": 4598,
      "ĠcÃ£i": 4599,
      "Ġaf": 4600,
      "Ġnhá»±a": 4601,
      "Ġdoor": 4602,
      "olf": 4603,
      "Æ°á»Ŀn": 4604,
      "ĠGDP": 4605,
      "Ġcloud": 4606,
      "Ġadm": 4607,
      "Ġdecisions": 4608,
      "Ġflu": 4609,
      "Ġregion": 4610,
      "Ġresponse": 4611,
      "Ġradio": 4612,
      "Ġsurprising": 4613,
      "Ġauthor": 4614,
      "ĠtáºŃt": 4615,
      "Ġláº¯p": 4616,
      "Ġwhe": 4617,
      "Ġkháº¥u": 4618,
      "ims": 4619,
      "Ġconc": 4620,
      "ĠSw": 4621,
      "ucle": 4622,
      "Ġstudent": 4623,
      "Ġsolar": 4624,
      "Ġhospital": 4625,
      "Ġseveral": 4626,
      "nces": 4627,
      "Ġcháº·n": 4628,
      "ured": 4629,
      "ĠRe": 4630,
      "ressed": 4631,
      "Ġforest": 4632,
      "Ġmagic": 4633,
      "Ġdrugs": 4634,
      "Ġtotally": 4635,
      "After": 4636,
      "oint": 4637,
      "Ġrid": 4638,
      "ald": 4639,
      "ĠMo": 4640,
      "ander": 4641,
      "Ġbrains": 4642,
      "Ġconnected": 4643,
      "Ġthai": 4644,
      "Ġhung": 4645,
      "osh": 4646,
      "Ġrap": 4647,
      "Ġfish": 4648,
      "Ġec": 4649,
      "Ġworse": 4650,
      "ĠgiÃ¡m": 4651,
      "ĠngoÃ¡i": 4652,
      "Ġsociet": 4653,
      "Ġvari": 4654,
      "ĠKenya": 4655,
      "aking": 4656,
      "cis": 4657,
      "Ġce": 4658,
      "ĠchÃło": 4659,
      "Ġrain": 4660,
      "Ġlá»ħ": 4661,
      "Ġmá»«ng": 4662,
      "Ġremark": 4663,
      "Ġpositive": 4664,
      "ĠChris": 4665,
      "30": 4666,
      "cr": 4667,
      "ĠÄĳÃ²i": 4668,
      "Ġgra": 4669,
      "Ġdam": 4670,
      "Ġngang": 4671,
      "ĠyÃªn": 4672,
      "ĠSm": 4673,
      "ĠEd": 4674,
      "Ġstrateg": 4675,
      "Ġáº¢": 4676,
      "ChÃŃnh": 4677,
      "Can": 4678,
      "Im": 4679,
      "Viá»ĩc": 4680,
      "wor": 4681,
      "ĠtháºŃn": 4682,
      "Ġnobody": 4683,
      "Ġhuá»ĳng": 4684,
      "Ġther": 4685,
      "Ġdiá»ĩt": 4686,
      "Ġfant": 4687,
      "Ġfix": 4688,
      "Ġstick": 4689,
      "Ġprison": 4690,
      "oken": 4691,
      "Ġimmedi": 4692,
      "rof": 4693,
      "Ġvirt": 4694,
      "Ġassum": 4695,
      "Ġwait": 4696,
      "Ġcollabor": 4697,
      "20": 4698,
      "ring": 4699,
      "Ġthao": 4700,
      "Ġmáº¡i": 4701,
      "ĠmÃ¢y": 4702,
      "Ġpin": 4703,
      "Ġdom": 4704,
      "Ġcáº£n": 4705,
      "Ġwants": 4706,
      "ĠÄĲá»©c": 4707,
      "NÃ³i": 4708,
      "Ġcarry": 4709,
      "Ġ150": 4710,
      "Ġjobs": 4711,
      "Ġwatching": 4712,
      "witter": 4713,
      "dom": 4714,
      "Ġlink": 4715,
      "Ġmine": 4716,
      "Ġmental": 4717,
      "ĠhÆ°Æ¡ng": 4718,
      "Ġko": 4719,
      "Ġgrew": 4720,
      "atory": 4721,
      "verty": 4722,
      "Ġshown": 4723,
      "ĠNgh": 4724,
      "aging": 4725,
      "ĠPal": 4726,
      "Ġchemical": 4727,
      "win": 4728,
      "ĠmÃ¬": 4729,
      "Ġoh": 4730,
      "Ġpush": 4731,
      "Ġdá»ĭ": 4732,
      "Ġnotice": 4733,
      "Ġsá»ķ": 4734,
      "Ġadult": 4735,
      "Ġinflu": 4736,
      "Ġallowed": 4737,
      "ĠxoÃ¡": 4738,
      "Ġtraining": 4739,
      "Hay": 4740,
      "ror": 4741,
      "Ġcorn": 4742,
      "oub": 4743,
      "ĠchÃ©p": 4744,
      "Ġspir": 4745,
      "Ġperspect": 4746,
      "Ġdetect": 4747,
      "Ġreturn": 4748,
      "Ġtháº¥u": 4749,
      "ĠÄĳá»ĳng": 4750,
      "ĠÄĳÃ¹a": 4751,
      "Ġbodies": 4752,
      "Ġvong": 4753,
      "icle": 4754,
      "ĠTwitter": 4755,
      "agine": 4756,
      "Ġsá»£i": 4757,
      "Ġsyn": 4758,
      "Ġdecision": 4759,
      "Ġskin": 4760,
      "Ġinfect": 4761,
      "Ġcirc": 4762,
      "aughter": 4763,
      "Ġincluding": 4764,
      "Maybe": 4765,
      "Ġvillage": 4766,
      "Ġmethod": 4767,
      "ĠthÃ¹": 4768,
      "Ġnucle": 4769,
      "ĠvÃº": 4770,
      "Ġkil": 4771,
      "ĠtrÃłn": 4772,
      "instein": 4773,
      "ĠcÃ¡t": 4774,
      "Ġ2000": 4775,
      "Ġanybody": 4776,
      "Ġstudies": 4777,
      "Ġappear": 4778,
      "Ġtrees": 4779,
      "Ġposition": 4780,
      "Ġcontinue": 4781,
      "Ġobjects": 4782,
      "Ġdiscuss": 4783,
      "Ġsuddenly": 4784,
      "Ġcharacter": 4785,
      "Ġcáº·p": 4786,
      "Ġnan": 4787,
      "Ġsan": 4788,
      "Ġfasc": 4789,
      "Ġcá»©ng": 4790,
      "soci": 4791,
      "ologist": 4792,
      "Ġmulti": 4793,
      "Ġmovie": 4794,
      "Cuá»ĳi": 4795,
      "IT": 4796,
      "ĠÃ¡m": 4797,
      "Ġbank": 4798,
      "Ġhop": 4799,
      "Ġfill": 4800,
      "Ġtá»ı": 4801,
      "ief": 4802,
      "Ġactivity": 4803,
      "ĠFran": 4804,
      "Ġbuildings": 4805,
      "Ã¨o": 4806,
      "Ġfarm": 4807,
      "Ġlargest": 4808,
      "Ġnamed": 4809,
      "Ġfreedom": 4810,
      "ĠmáºŃp": 4811,
      "Ġign": 4812,
      "ought": 4813,
      "Ġfine": 4814,
      "itary": 4815,
      "urg": 4816,
      "ocks": 4817,
      "Ġeventually": 4818,
      "cy": 4819,
      "Ġmá»±c": 4820,
      "Ġwife": 4821,
      "Ġnháº±m": 4822,
      "ener": 4823,
      "inct": 4824,
      "ĠcÃ¡m": 4825,
      "Ġphiáº¿u": 4826,
      "Ġsepar": 4827,
      "ĠPaul": 4828,
      "Ġemploy": 4829,
      "itten": 4830,
      "ĠFl": 4831,
      "Ġclos": 4832,
      "ĠtuyÃªn": 4833,
      "Ġpoverty": 4834,
      "Ġtemper": 4835,
      "Ġcrisis": 4836,
      "for": 4837,
      "kn": 4838,
      "erve": 4839,
      "Ġtruly": 4840,
      "Ġfa": 4841,
      "ica": 4842,
      "ellow": 4843,
      "Ġminute": 4844,
      "ping": 4845,
      "vision": 4846,
      "ĠsÃºng": 4847,
      "Ġswe": 4848,
      "Ġnhá»ĭp": 4849,
      "ĠkhÃŃa": 4850,
      "Ġforms": 4851,
      "ĠCO": 4852,
      "Ġdeb": 4853,
      "Ġluck": 4854,
      "ffic": 4855,
      "Ġincome": 4856,
      "Ngay": 4857,
      "Ã¨m": 4858,
      "Ġartist": 4859,
      "Ġelectr": 4860,
      "Ġkilled": 4861,
      "Ġconditions": 4862,
      "Ġtraditional": 4863,
      "Ġconversation": 4864,
      "Even": 4865,
      "ners": 4866,
      "oe": 4867,
      "Ġsource": 4868,
      "Ġmist": 4869,
      "Ġbá»ĳi": 4870,
      "Ġbáº¯n": 4871,
      "Ġhiáº¿m": 4872,
      "ĠtrÃło": 4873,
      "oday": 4874,
      "ĠBang": 4875,
      "istics": 4876,
      "Ġplants": 4877,
      "Ġanymore": 4878,
      "Ġamp": 4879,
      "Ġended": 4880,
      "Ġsupposed": 4881,
      "Ġspecific": 4882,
      "ĠchÃ¡n": 4883,
      "Ġexcited": 4884,
      "Ġsá»¥p": 4885,
      "ashington": 4886,
      "ĠtÃ¡": 4887,
      "Ġcong": 4888,
      "rest": 4889,
      "Ġgas": 4890,
      "ĠAb": 4891,
      "ulate": 4892,
      "ĠNig": 4893,
      "Ġcapt": 4894,
      "Ġsignific": 4895,
      "Ġproducts": 4896,
      "Ġspeed": 4897,
      "Ġextremely": 4898,
      "ĠtiÃªm": 4899,
      "ĠADN": 4900,
      "LÃºc": 4901,
      "ael": 4902,
      "cape": 4903,
      "Ġsolutions": 4904,
      "ĠhÃł": 4905,
      "ĠkÃªu": 4906,
      "Ġpack": 4907,
      "osphere": 4908,
      "Ġclin": 4909,
      "Ġeffort": 4910,
      "Ġrespond": 4911,
      "Ġrobots": 4912,
      "Ġpolitics": 4913,
      "Ġlabor": 4914,
      "cise": 4915,
      "ĠmÃ³c": 4916,
      "Ġhig": 4917,
      "nhÆ°ng": 4918,
      "Ġngá»įn": 4919,
      "vert": 4920,
      "ĠDan": 4921,
      "Ġaccept": 4922,
      "Ġfinding": 4923,
      "Ġprovide": 4924,
      "Ľt": 4925,
      "Ġkept": 4926,
      "áºŃc": 4927,
      "Ġkhung": 4928,
      "sect": 4929,
      "Ġgoal": 4930,
      "Ġlá»«a": 4931,
      "Ġalive": 4932,
      "Ġfell": 4933,
      "ĠWashington": 4934,
      "Ġdisapp": 4935,
      "Ġcook": 4936,
      "ossible": 4937,
      "Ġrole": 4938,
      "Ġsecret": 4939,
      "ĠÃģ": 4940,
      "Ġpoints": 4941,
      "Ġsorts": 4942,
      "Ġfinan": 4943,
      "Ġskills": 4944,
      "Ġallows": 4945,
      "Ġexciting": 4946,
      "Ġcollege": 4947,
      "Most": 4948,
      "joy": 4949,
      "uf": 4950,
      "ĠÃ³c": 4951,
      "Ġcases": 4952,
      "Ġliá»ģn": 4953,
      "Ġdá»ĳi": 4954,
      "Ġtriáº¿t": 4955,
      "ently": 4956,
      "ĠhoÃłng": 4957,
      "ĠAng": 4958,
      "eless": 4959,
      "ĠDon": 4960,
      "Ġcomplic": 4961,
      "ĠPhÃ¡p": 4962,
      "CÃ¡ch": 4963,
      "ham": 4964,
      "ze": 4965,
      "ĠhÃ¨": 4966,
      "useum": 4967,
      "ĠbÃ©o": 4968,
      "Ġreading": 4969,
      "Ġpublish": 4970,
      "ĠXin": 4971,
      "ĠAfrican": 4972,
      "Ġgá»Ĺ": 4973,
      "Ġlistening": 4974,
      "Ġsocieties": 4975,
      "Ġhigher": 4976,
      "First": 4977,
      "ging": 4978,
      "ĠcÃ´n": 4979,
      "ĠÄĳua": 4980,
      "Ġwild": 4981,
      "Æ°á»£u": 4982,
      "Ġdoc": 4983,
      "Ġabove": 4984,
      "emic": 4985,
      "Ġjud": 4986,
      "NhÃł": 4987,
      "Ġcá»¥c": 4988,
      "Ġseries": 4989,
      "ĠIsl": 4990,
      "Ġthousand": 4991,
      "Ġmathem": 4992,
      "Ġservice": 4993,
      "Ġextraordinary": 4994,
      "CÃ´ng": 4995,
      "Ġlate": 4996,
      "Ġthá»Ŀ": 4997,
      "Ġweight": 4998,
      "Ġann": 4999,
      "ĠAi": 5000,
      "uá»³": 5001,
      "Ġdoctor": 5002,
      "Ġprinci": 5003,
      "KhÃ¡": 5004,
      "go": 5005,
      "Ġcat": 5006,
      "ĠmÆ°a": 5007,
      "alia": 5008,
      "omm": 5009,
      "Ġstra": 5010,
      "ulf": 5011,
      "ĠUniversity": 5012,
      "Ġdeterm": 5013,
      "Ġmodels": 5014,
      "Ġafford": 5015,
      "Ġsuccessful": 5016,
      "Ġfamilies": 5017,
      "Ġpurp": 5018,
      "Ġstrugg": 5019,
      "Ġfascin": 5020,
      "ĠcÄĥng": 5021,
      "Ġtháº§y": 5022,
      "Ġbá»ķ": 5023,
      "Ġbunch": 5024,
      "Ġkháº£o": 5025,
      "Ġloved": 5026,
      "Ġsmell": 5027,
      "Ġsurg": 5028,
      "egr": 5029,
      "Ġcalcul": 5030,
      "Ġfundamental": 5031,
      "aid": 5032,
      "Ġquot": 5033,
      "Ġsus": 5034,
      "Ġbal": 5035,
      "ĠbáºŃc": 5036,
      "Ġhá»ĳi": 5037,
      "erman": 5038,
      "aly": 5039,
      "ids": 5040,
      "ĠGiá»": 5041,
      "Ġmáº¡c": 5042,
      "Ġthoáº£i": 5043,
      "Ġpolicy": 5044,
      "CÃ¡m": 5045,
      "Ġnáº¥m": 5046,
      "ĠÄĳáºŃp": 5047,
      "ĠlÅ©": 5048,
      "Ġlands": 5049,
      "oun": 5050,
      "ĠngÆ°á»¡ng": 5051,
      "Ġconcer": 5052,
      "ĠLa": 5053,
      "Ġexpensive": 5054,
      "ĠTháºŃt": 5055,
      "Ġanywhere": 5056,
      "Ġimpossible": 5057,
      "Ġslight": 5058,
      "Ġcapital": 5059,
      "Ġmachines": 5060,
      "cules": 5061,
      "Ġneurons": 5062,
      "Ġchá»ĳt": 5063,
      "ĠSá»±": 5064,
      "Ġmá»ı": 5065,
      "Ġdistrib": 5066,
      "Ġfamiliar": 5067,
      "Sh": 5068,
      "uit": 5069,
      "ĠÃ¡c": 5070,
      "Ġthr": 5071,
      "Ġchá»ĳi": 5072,
      "ĠCong": 5073,
      "iven": 5074,
      "Ġenjoy": 5075,
      "Ġeffic": 5076,
      "enced": 5077,
      "Ġcolleag": 5078,
      "Ġcritical": 5079,
      "Of": 5080,
      "dr": 5081,
      "ĠtÃ¡o": 5082,
      "Ġcry": 5083,
      "Ġthuyá»ģn": 5084,
      "Ġsou": 5085,
      "Ġlad": 5086,
      "Ġlower": 5087,
      "ĠmÃ©t": 5088,
      "Theo": 5089,
      "Ġplastic": 5090,
      "ĠWestern": 5091,
      "Ġhuáº¥n": 5092,
      "Ġfunny": 5093,
      "Ġstraight": 5094,
      "CÅ©ng": 5095,
      "gr": 5096,
      "omas": 5097,
      "iced": 5098,
      "Ġrand": 5099,
      "ĠMIT": 5100,
      "erson": 5101,
      "Ġsomewhere": 5102,
      "ounds": 5103,
      "Ġgenetic": 5104,
      "Ġdemon": 5105,
      "Ġlarger": 5106,
      "Ġswim": 5107,
      "Ġtypes": 5108,
      "Ġdoctors": 5109,
      "ĠThÃ¡i": 5110,
      "ray": 5111,
      "ĠnhÅ©ng": 5112,
      "Ġtráº§m": 5113,
      "ĠrÆ°á»£u": 5114,
      "aries": 5115,
      "Ġhack": 5116,
      "igr": 5117,
      "ÄĲá»ĳi": 5118,
      "Ġusually": 5119,
      "unk": 5120,
      "Ġupon": 5121,
      "Ġactual": 5122,
      "Ġá»Ĵ": 5123,
      "Ġcold": 5124,
      "Ġroll": 5125,
      "Ġfamous": 5126,
      "Ġpieces": 5127,
      "Ġreflect": 5128,
      "Ġcontinu": 5129,
      "Ġhá»Ĺn": 5130,
      "Ġpatterns": 5131,
      "Ġrecognize": 5132,
      "ax": 5133,
      "word": 5134,
      "Ġmir": 5135,
      "ami": 5136,
      "Ġraise": 5137,
      "ĠMay": 5138,
      "Ġjump": 5139,
      "Ġmá»ĵ": 5140,
      "Ġbecoming": 5141,
      "ĠWik": 5142,
      "Ġboard": 5143,
      "Ġtalks": 5144,
      "ript": 5145,
      "Ġglass": 5146,
      "Ġrespect": 5147,
      "Ġtreatment": 5148,
      "ĠghÃ©t": 5149,
      "Ġdeliver": 5150,
      "Ġsquare": 5151,
      "Ġphilos": 5152,
      "back": 5153,
      "lier": 5154,
      "á»ķi": 5155,
      "ĠCity": 5156,
      "Ġgreater": 5157,
      "Ġseconds": 5158,
      "Ġexplore": 5159,
      "Ġearth": 5160,
      "Ġperspective": 5161,
      "PS": 5162,
      "na": 5163,
      "off": 5164,
      "ogen": 5165,
      "Ġá»©c": 5166,
      "Ġlaunch": 5167,
      "attle": 5168,
      "Ġmagn": 5169,
      "ustrial": 5170,
      "urban": 5171,
      "Ġcitizens": 5172,
      "LÃł": 5173,
      "Ġsite": 5174,
      "Ġbiá»ĩn": 5175,
      "Ġbáº£y": 5176,
      "Ġsaving": 5177,
      "ĠLet": 5178,
      "Ġsomehow": 5179,
      "Ġrights": 5180,
      "Ġ2008": 5181,
      "ĠAmericans": 5182,
      "Ġteaching": 5183,
      "Ġkhuyáº¿n": 5184,
      "ĠFrancis": 5185,
      "Ġtiss": 5186,
      "Ġly": 5187,
      "ĠvÃ¢ng": 5188,
      "rection": 5189,
      "Ġrá»§": 5190,
      "Ġrise": 5191,
      "Ġet": 5192,
      "the": 5193,
      "Ġshark": 5194,
      "ĠBáº£n": 5195,
      "Ġwilling": 5196,
      "akistan": 5197,
      "Ġeffective": 5198,
      "Ġmolecules": 5199,
      "Ġdemonstr": 5200,
      "NÃło": 5201,
      "ball": 5202,
      "ĠnÃºt": 5203,
      "ĠÄĳáº¯t": 5204,
      "Ġtruy": 5205,
      "apes": 5206,
      "ĠCÃ´ng": 5207,
      "uments": 5208,
      "Ġlegs": 5209,
      "Ġgenes": 5210,
      "Ġsmaller": 5211,
      "Ġtá»īnh": 5212,
      "Ġbeauty": 5213,
      "Ġnetwor": 5214,
      "Hoáº·c": 5215,
      "Ġinstitut": 5216,
      "Ġspirit": 5217,
      "Ġcomplicated": 5218,
      "Ġrandom": 5219,
      "Today": 5220,
      "Ġsam": 5221,
      "Ġport": 5222,
      "Ġtrib": 5223,
      "ĠngÃ³n": 5224,
      "Ġran": 5225,
      "Ġcá»ı": 5226,
      "Ġeth": 5227,
      "Thay": 5228,
      "Ġtá»ĭ": 5229,
      "ctor": 5230,
      "key": 5231,
      "Ġwritten": 5232,
      "Ġshared": 5233,
      "ĠchÃ¡y": 5234,
      "Ġpainting": 5235,
      "Ġversion": 5236,
      "Ġfemale": 5237,
      "Ġáº¡": 5238,
      "Ġpage": 5239,
      "Ġyeah": 5240,
      "Ã£n": 5241,
      "amic": 5242,
      "Ġstore": 5243,
      "ĠBar": 5244,
      "ĠNe": 5245,
      "ĠphÃ¡n": 5246,
      "ĠThuá»µ": 5247,
      "epend": 5248,
      "ologists": 5249,
      "Ġsecurity": 5250,
      "Ġhá»ĵn": 5251,
      "Ġcontrib": 5252,
      "ortunately": 5253,
      "Ġincreasing": 5254,
      "Ġfinancial": 5255,
      "MÃł": 5256,
      "ef": 5257,
      "Ġthrow": 5258,
      "Ġhous": 5259,
      "Ġthá»į": 5260,
      "Ġxá»©ng": 5261,
      "ĠSe": 5262,
      "Ġuses": 5263,
      "Ġgene": 5264,
      "Ġstanding": 5265,
      "Ġdiscover": 5266,
      "Ġoptim": 5267,
      "mp": 5268,
      "xi": 5269,
      "Ġmáº¡o": 5270,
      "itation": 5271,
      "omp": 5272,
      "Ġassoci": 5273,
      "Ġ35": 5274,
      "Ġprep": 5275,
      "Ġdecades": 5276,
      "Ġhealthy": 5277,
      "Ġorganizations": 5278,
      "Ġcosts": 5279,
      "Ġincrease": 5280,
      "Ġbabies": 5281,
      "Imagine": 5282,
      "ĠtÃºc": 5283,
      "Ġthiá»ĥu": 5284,
      "Ġsal": 5285,
      "Ġháº¯n": 5286,
      "Ġtrick": 5287,
      "lebr": 5288,
      "Ġstar": 5289,
      "iring": 5290,
      "iling": 5291,
      "Nhiá»ģu": 5292,
      "ĠPl": 5293,
      "ĠPakistan": 5294,
      "ĠÄĲÆ°á»£c": 5295,
      "Ġexpress": 5296,
      "Ġ45": 5297,
      "Ġhumanity": 5298,
      "eech": 5299,
      "Ġorganization": 5300,
      "Ġconnection": 5301,
      "Ġcorru": 5302,
      "Ġlevels": 5303,
      "Ġachieve": 5304,
      "Ġbacteria": 5305,
      "time": 5306,
      "£t": 5307,
      "Ġtháº£": 5308,
      "ĠsÄĥn": 5309,
      "Ġgá»įn": 5310,
      "ĠBig": 5311,
      "Ġessentially": 5312,
      "ĠmÅ©i": 5313,
      "och": 5314,
      "Ġcard": 5315,
      "Ġbread": 5316,
      "repre": 5317,
      "orrow": 5318,
      "arm": 5319,
      "ining": 5320,
      "ĠgiáºŃn": 5321,
      "ĠkhÃ¡t": 5322,
      "acity": 5323,
      "ĠDr": 5324,
      "thern": 5325,
      "Ġbeings": 5326,
      "Ġcá»¥t": 5327,
      "Ġolder": 5328,
      "Ġplease": 5329,
      "Ġdangerous": 5330,
      "reprene": 5331,
      "DÃ¹": 5332,
      "aign": 5333,
      "lant": 5334,
      "Ġtháº¡ch": 5335,
      "ĠbÃ´ng": 5336,
      "Ġdinh": 5337,
      "Ġcá»Ĺ": 5338,
      "Ġphen": 5339,
      "Ġforth": 5340,
      "verse": 5341,
      "ĠCÃ¡i": 5342,
      "Ġpros": 5343,
      "ĠBen": 5344,
      "agement": 5345,
      "Ġspeech": 5346,
      "ĠGu": 5347,
      "ĠDar": 5348,
      "Ġtrá»©ng": 5349,
      "Ġpractice": 5350,
      "za": 5351,
      "ĠÃł": 5352,
      "Ġmix": 5353,
      "Ġinh": 5354,
      "atically": 5355,
      "itor": 5356,
      "Ġkhiáº¿p": 5357,
      "ulner": 5358,
      "Ġalg": 5359,
      "Ġmai": 5360,
      "ĠGPS": 5361,
      "raft": 5362,
      "ĠOb": 5363,
      "Ġdesp": 5364,
      "Ġthroughout": 5365,
      "Ġremind": 5366,
      "Ġfinal": 5367,
      "Ġengineering": 5368,
      "Ġremarkable": 5369,
      "Ġimmediately": 5370,
      "Ai": 5371,
      "Vá»ģ": 5372,
      "sc": 5373,
      "Ġtia": 5374,
      "Ġthiá»ĩp": 5375,
      "ĠdÃły": 5376,
      "Ġcomfort": 5377,
      "ables": 5378,
      "ĠthuÃª": 5379,
      "ĠJe": 5380,
      "Ġcreativity": 5381,
      "Ġarchitecture": 5382,
      "Ġelectricity": 5383,
      "Ġsurgery": 5384,
      "Ġrá»§i": 5385,
      "&#": 5386,
      "Ġcust": 5387,
      "Ġnáº¥u": 5388,
      "ĠÄĳáº¯n": 5389,
      "Ġfit": 5390,
      "istry": 5391,
      "cience": 5392,
      "Where": 5393,
      "ĠEinstein": 5394,
      "Ġbelief": 5395,
      "Ġbiology": 5396,
      "Ġmobile": 5397,
      "Ġfantastic": 5398,
      "Ľn": 5399,
      "Ġcá»Ļt": 5400,
      "ĠthÃ¡nh": 5401,
      "Ġnation": 5402,
      "Ġlá»Ļn": 5403,
      "Ġmá»Ļ": 5404,
      "ĠmÃ²": 5405,
      "Ġbinh": 5406,
      "ĠhÆ°á»Ľc": 5407,
      "oses": 5408,
      "Ġxong": 5409,
      "Ġteen": 5410,
      "ission": 5411,
      "Ġenvironmental": 5412,
      "gen": 5413,
      "Ġmention": 5414,
      "Ġbá»Ļt": 5415,
      "ĠbÃ£i": 5416,
      "Ġkáº¹": 5417,
      "Ġpan": 5418,
      "Ġpark": 5419,
      "Ġdad": 5420,
      "oty": 5421,
      "itude": 5422,
      "ĠgiÃłnh": 5423,
      "Ġhole": 5424,
      "ÄĲÃºng": 5425,
      "ĠÄĲÃºng": 5426,
      "ĠRight": 5427,
      "Ġcover": 5428,
      "Ġcoff": 5429,
      "uced": 5430,
      "Ġscan": 5431,
      "Ġevolved": 5432,
      "Ġpolice": 5433,
      "Ġelectron": 5434,
      "Ġstandard": 5435,
      "Ġhonest": 5436,
      "Ġtelevision": 5437,
      "Ġurban": 5438,
      "ĠtÃ³c": 5439,
      "ĠÄĳá»ĳc": 5440,
      "Ġmal": 5441,
      "Ġmatch": 5442,
      "Ġchair": 5443,
      "ĠngÅ©": 5444,
      "Ġstars": 5445,
      "ola": 5446,
      "ĠTo": 5447,
      "Æ°á»Ľt": 5448,
      "ĠHy": 5449,
      "ĠLiÃªn": 5450,
      "Ġdiagn": 5451,
      "Ġoffic": 5452,
      "Ġinterview": 5453,
      "ception": 5454,
      "Ġproduction": 5455,
      "Ġearlier": 5456,
      "Ġpropert": 5457,
      "Ġfollowing": 5458,
      "Ġclearly": 5459,
      "Ġencour": 5460,
      "af": 5461,
      "yle": 5462,
      "Ĺng": 5463,
      "ĠÄĳÃłi": 5464,
      "ĠÄĳá»ĳt": 5465,
      "Ġtruyá»ĩn": 5466,
      "Ġcháº©n": 5467,
      "Ġcheck": 5468,
      "ĠrÄĥng": 5469,
      "ĠxÆ°a": 5470,
      "ams": 5471,
      "ĠphÃ³": 5472,
      "sequ": 5473,
      "ĠMus": 5474,
      "ĠAustr": 5475,
      "resh": 5476,
      "berg": 5477,
      "Ġaddress": 5478,
      "Ġwalked": 5479,
      "Ġchallenges": 5480,
      "Ġservices": 5481,
      "Ġinternational": 5482,
      "ole": 5483,
      "Ġdá»įc": 5484,
      "Ġtrade": 5485,
      "arian": 5486,
      "iá»ĩng": 5487,
      "iding": 5488,
      "Ġprice": 5489,
      "Ġord": 5490,
      "Ġspect": 5491,
      "Ġthuáº§n": 5492,
      "ĠmÃ¡t": 5493,
      "ĠNhÃł": 5494,
      "Ġapply": 5495,
      "Ġstrange": 5496,
      "Ġwaiting": 5497,
      "Ġcelebr": 5498,
      "Any": 5499,
      "Kh": 5500,
      "Ġnut": 5501,
      "Ġbáº¡c": 5502,
      "Ġhuyáº¿t": 5503,
      "Ġvict": 5504,
      "Ġveh": 5505,
      "ĠrÆ°á»¡i": 5506,
      "oper": 5507,
      "ĠCent": 5508,
      "ĠTáº¥t": 5509,
      "Ġsequ": 5510,
      "ĠLos": 5511,
      "Ġunique": 5512,
      "Ġuseful": 5513,
      "Ġunderstood": 5514,
      "Ġhelped": 5515,
      "Ġcareer": 5516,
      "Ġoppos": 5517,
      "Ġcondition": 5518,
      "Ġmilitary": 5519,
      "Ġmassive": 5520,
      "Ġemotional": 5521,
      "Ġ2010": 5522,
      "Ġprivate": 5523,
      "ees": 5524,
      "ris": 5525,
      "Ġtur": 5526,
      "ĠnÆ¡": 5527,
      "Ġmiá»ģn": 5528,
      "Ġrace": 5529,
      "Ġchá»«ng": 5530,
      "rench": 5531,
      "Ġentreprene": 5532,
      "board": 5533,
      "Ġpopular": 5534,
      "Ġperformance": 5535,
      "ĠNigeria": 5536,
      "Hai": 5537,
      "RI": 5538,
      "ThÃ": 5539,
      "aff": 5540,
      "bu": 5541,
      "fl": 5542,
      "ps": 5543,
      "Ġtáº·ng": 5544,
      "ĠÄĳÄ©a": 5545,
      "reet": 5546,
      "ĠgÆ°Æ¡ng": 5547,
      "ises": 5548,
      "Ġwhose": 5549,
      "imately": 5550,
      "though": 5551,
      "ĠMan": 5552,
      "Ã½t": 5553,
      "Cháº³ng": 5554,
      "Ġsurround": 5555,
      "Ġhimself": 5556,
      "Ġautom": 5557,
      "ĠPhil": 5558,
      "Ġsexual": 5559,
      "Ġintelligence": 5560,
      "Ġcoffee": 5561,
      "iest": 5562,
      "Ġáº¥m": 5563,
      "Ġtask": 5564,
      "ĠbÃ³": 5565,
      "Ġhiáº¿n": 5566,
      "Ġnháº¥n": 5567,
      "Ġráº¯c": 5568,
      "ĠxÃ¢m": 5569,
      "Ġchoices": 5570,
      "Ġtherefore": 5571,
      "Ġspaces": 5572,
      "Ġprevent": 5573,
      "Ġhistor": 5574,
      "Ġclassroom": 5575,
      "Ġexperiments": 5576,
      "ĠnÃ©m": 5577,
      "ĠHaiti": 5578,
      "Ġneighborhood": 5579,
      "Ġphenomen": 5580,
      "vard": 5581,
      "ĠvÆ°á»Ŀn": 5582,
      "Ã¡y": 5583,
      "ĠngÃłi": 5584,
      "Ġfold": 5585,
      "ĠGerman": 5586,
      "econd": 5587,
      "Ġcá»ĳt": 5588,
      "Ġnhá»ī": 5589,
      "olly": 5590,
      "ashion": 5591,
      "Ġspeaking": 5592,
      "Ġmedicine": 5593,
      "Ġslightly": 5594,
      "Don": 5595,
      "Ġlines": 5596,
      "Ġvan": 5597,
      "Ġir": 5598,
      "rees": 5599,
      "Ġtrá»Ļn": 5600,
      "Ġchai": 5601,
      "edd": 5602,
      "iáº¿c": 5603,
      "Those": 5604,
      "Ġxáº¡": 5605,
      "Ġdog": 5606,
      "imin": 5607,
      "ĠApp": 5608,
      "ĠBer": 5609,
      "Ġexh": 5610,
      "ichard": 5611,
      "ĠLan": 5612,
      "Ġweren": 5613,
      "ĠEl": 5614,
      "ĠFor": 5615,
      "wood": 5616,
      "ĠkhÃ³c": 5617,
      "Ġdecide": 5618,
      "Ġsimpl": 5619,
      "Ġcreates": 5620,
      "ĠÃĿ": 5621,
      "ĠIndian": 5622,
      "Ġvalues": 5623,
      "ancy": 5624,
      "ĠWhen": 5625,
      "Ġláº»": 5626,
      "Ġmale": 5627,
      "Ġhus": 5628,
      "Ġvulner": 5629,
      "ĠiPh": 5630,
      "Ġgay": 5631,
      "Ġdance": 5632,
      "Ġwealth": 5633,
      "ĠquÃª": 5634,
      "Ġforget": 5635,
      "Ã¹i": 5636,
      "Ġworry": 5637,
      "ĠNA": 5638,
      "Which": 5639,
      "Ġparty": 5640,
      "Ġcentral": 5641,
      "Ġphysics": 5642,
      "cope": 5643,
      "Ġtuá»³": 5644,
      "Ġcáº©n": 5645,
      "Ġwood": 5646,
      "Ġdai": 5647,
      "Ġinsect": 5648,
      "Ġdirection": 5649,
      "Ġhighly": 5650,
      "Ġcomplexity": 5651,
      "Ġmeeting": 5652,
      "Ġdestro": 5653,
      "Ġetc": 5654,
      "Háº§u": 5655,
      "Somet": 5656,
      "Ġhall": 5657,
      "Ġpen": 5658,
      "ĠdÃŃnh": 5659,
      "Ġnho": 5660,
      "ening": 5661,
      "Ġselect": 5662,
      "Ġlights": 5663,
      "Ġcoun": 5664,
      "Ġmotiv": 5665,
      "Another": 5666,
      "Ġvaccine": 5667,
      "Ġnetworks": 5668,
      "Kho": 5669,
      "Right": 5670,
      "Ġmiá»ĩng": 5671,
      "Ġdaughter": 5672,
      "ĠrÃło": 5673,
      "isms": 5674,
      "ĠÄĳá»Ľn": 5675,
      "Ġeating": 5676,
      "ĠChi": 5677,
      "Ġshop": 5678,
      "iles": 5679,
      "ĠGreen": 5680,
      "Ġinstance": 5681,
      "Ġfocused": 5682,
      "Ġmicr": 5683,
      "ĠHarvard": 5684,
      "Ġsummer": 5685,
      "Ġnuclear": 5686,
      "Ġpurpose": 5687,
      "load": 5688,
      "mm": 5689,
      "rast": 5690,
      "Ġtáº¡m": 5691,
      "Ġtháº©m": 5692,
      "Ġbáº¯c": 5693,
      "reg": 5694,
      "ceed": 5695,
      "ago": 5696,
      "Ġdrink": 5697,
      "Ġ75": 5698,
      "Ġtuá»ĩ": 5699,
      "Ġanswers": 5700,
      "eases": 5701,
      "Ġphoto": 5702,
      "Ġcultural": 5703,
      "Ġcampaign": 5704,
      "Ġinvented": 5705,
      "ystem": 5706,
      "įt": 5707,
      "Ġcatch": 5708,
      "Ġahead": 5709,
      "ĠmiÃªu": 5710,
      "Ġháº¹n": 5711,
      "icians": 5712,
      "ĠÄĳÃ³n": 5713,
      "stead": 5714,
      "Ġshot": 5715,
      "ĠBá»Ļ": 5716,
      "ĠBro": 5717,
      "aced": 5718,
      "Ġenorm": 5719,
      "Ġdifferences": 5720,
      "Ġtransport": 5721,
      "Ġattract": 5722,
      "Ġstreets": 5723,
      "Ġprofound": 5724,
      "Ġspending": 5725,
      "ĠFrank": 5726,
      "Ġsurvive": 5727,
      "ĠGeorge": 5728,
      "ĠCharles": 5729,
      "Ġtemperature": 5730,
      "CáºŃu": 5731,
      "dd": 5732,
      "ios": 5733,
      "Ġtree": 5734,
      "Ġcá»ĳc": 5735,
      "Ġmáº©u": 5736,
      "Ġngáº§m": 5737,
      "Ġinj": 5738,
      "Ġphá»ķi": 5739,
      "Ġstates": 5740,
      "olve": 5741,
      "Ġlá»ıng": 5742,
      "ĠOne": 5743,
      "Ġdispl": 5744,
      "Ġboys": 5745,
      "order": 5746,
      "Ġdecade": 5747,
      "Ġdriving": 5748,
      "ĠWeb": 5749,
      "Ġlaws": 5750,
      "Ġtarget": 5751,
      "Ġbirds": 5752,
      "ĠtÃ²": 5753,
      "Ġbase": 5754,
      "ĠgÃł": 5755,
      "Ġdying": 5756,
      "Ġnháº¡y": 5757,
      "urd": 5758,
      "Ġworst": 5759,
      "ĠnhÃ¡": 5760,
      "ĠGl": 5761,
      "Ġcrow": 5762,
      "Ġgreatest": 5763,
      "ĠÄĳÃ¡y": 5764,
      "Ġoccur": 5765,
      "Ġcustom": 5766,
      "aj": 5767,
      "Ġcand": 5768,
      "ĠÄĳáºŃu": 5769,
      "rel": 5770,
      "Ġgent": 5771,
      "atives": 5772,
      "Ġrange": 5773,
      "used": 5774,
      "Ġreve": 5775,
      "ĠNational": 5776,
      "Ġbrings": 5777,
      "apped": 5778,
      "Ġadapt": 5779,
      "Ġsymb": 5780,
      "Ġartists": 5781,
      "ĠvuÃ´ng": 5782,
      "Ġterm": 5783,
      "Ġshares": 5784,
      "Ġpassword": 5785,
      "Ġidentity": 5786,
      "Ġvarious": 5787,
      "Ġanaly": 5788,
      "Ġinspired": 5789,
      "cing": 5790,
      "ĠÆ¡i": 5791,
      "Ġbáº¡ch": 5792,
      "Ġhiá»ĩp": 5793,
      "Ġháº¡ng": 5794,
      "á»ĳm": 5795,
      "Ġbeat": 5796,
      "urch": 5797,
      "imer": 5798,
      "ĠMiddle": 5799,
      "raid": 5800,
      "Ġdiseases": 5801,
      "Ġthoáº£ng": 5802,
      "azz": 5803,
      "Ġinstr": 5804,
      "Ġsky": 5805,
      "Ġbreast": 5806,
      "Ġcauses": 5807,
      "Ġlaugh": 5808,
      "Ġhusb": 5809,
      "iation": 5810,
      "á»Ŀ": 5811,
      "ĠcÆ°á»Ŀng": 5812,
      "ĠlÃ£o": 5813,
      "Ġtown": 5814,
      "orith": 5815,
      "Ġliber": 5816,
      "Ġ23": 5817,
      "Ġterrible": 5818,
      "Ġgradu": 5819,
      "Ġafraid": 5820,
      "iers": 5821,
      "ĠtÃ¢y": 5822,
      "Ġmut": 5823,
      "Ġwis": 5824,
      "ĠkiÃªn": 5825,
      "Ġdimens": 5826,
      "ĠtrÃ´i": 5827,
      "ani": 5828,
      "ĠquÃ¡i": 5829,
      "ĠTalk": 5830,
      "thetic": 5831,
      "odes": 5832,
      "ĠMin": 5833,
      "Ġnoticed": 5834,
      "Ġactive": 5835,
      "ĠJul": 5836,
      "Ġresist": 5837,
      "Ġ194": 5838,
      "Ġfloor": 5839,
      "Ġcommunicate": 5840,
      "Ġdocument": 5841,
      "Báº±ng": 5842,
      "PM": 5843,
      "my": 5844,
      "Ġlapt": 5845,
      "ĠdÃłn": 5846,
      "Ġrá»ĵ": 5847,
      "Ġfat": 5848,
      "orry": 5849,
      "Ġthá»£": 5850,
      "Ġweap": 5851,
      "Ġconsequ": 5852,
      "Ġhoáº¡i": 5853,
      "Ġframe": 5854,
      "athy": 5855,
      "Ġscientist": 5856,
      "Ġflying": 5857,
      "Ġdirectly": 5858,
      "Ġpublished": 5859,
      "Ġalgorith": 5860,
      "HÃ´m": 5861,
      "Sáº½": 5862,
      "here": 5863,
      "iot": 5864,
      "uction": 5865,
      "wise": 5866,
      "Ġloss": 5867,
      "Ġháº±ng": 5868,
      "Ġvast": 5869,
      "Ġpaid": 5870,
      "Ġtráº¯c": 5871,
      "Ġfing": 5872,
      "ĠquÃ¡n": 5873,
      "uted": 5874,
      "ĠTimes": 5875,
      "ĠMars": 5876,
      "ĠBecause": 5877,
      "Ġbub": 5878,
      "Ġdram": 5879,
      "ĠTEDx": 5880,
      "Ġ2007": 5881,
      "Ġcapacity": 5882,
      "Pháº§n": 5883,
      "anced": 5884,
      "Ġrule": 5885,
      "Ġsustainable": 5886,
      "Ġmathemat": 5887,
      "ĠiPhone": 5888,
      "ĠtÃ³m": 5889,
      "ĠnÆ°á»Ľng": 5890,
      "Ġing": 5891,
      "Ġgala": 5892,
      "Ġcháº¥n": 5893,
      "ĠMÄ©": 5894,
      "Ġhá»©a": 5895,
      "ager": 5896,
      "áº»o": 5897,
      "Ġintegr": 5898,
      "Ġknowing": 5899,
      "ĠEn": 5900,
      "Ġleo": 5901,
      "Ġtraffic": 5902,
      "Ġstrength": 5903,
      "Ġtrem": 5904,
      "Ġmissing": 5905,
      "Ġtwice": 5906,
      "Ġexperiences": 5907,
      "Be": 5908,
      "gar": 5909,
      "ĠÄĳáº£ng": 5910,
      "Ġax": 5911,
      "ĠlÃ¢y": 5912,
      "Ġtráº¡m": 5913,
      "Ġtrouble": 5914,
      "ĠquÃ©t": 5915,
      "lyn": 5916,
      "ĠgiÆ°á»Ŀng": 5917,
      "ĠgiÃły": 5918,
      "Ġsad": 5919,
      "ĠBa": 5920,
      "artin": 5921,
      "Ġunc": 5922,
      "Ġcommer": 5923,
      "Ġrelative": 5924,
      "Ġsupply": 5925,
      "Ġzero": 5926,
      "Ġjournal": 5927,
      "Ġleadership": 5928,
      "cule": 5929,
      "ĠMichael": 5930,
      "Ġut": 5931,
      "ngu": 5932,
      "ĠnÃ©t": 5933,
      "ĠngÃ£": 5934,
      "Ġngá»±a": 5935,
      "ĠMe": 5936,
      "Ġatm": 5937,
      "Ġcompon": 5938,
      "itted": 5939,
      "ĠThomas": 5940,
      "elling": 5941,
      "Ġmostly": 5942,
      "ipedia": 5943,
      "Ġapplic": 5944,
      "Ġindepend": 5945,
      "Ġpossibly": 5946,
      "Ġstopped": 5947,
      "Ġmembers": 5948,
      "Ġcloser": 5949,
      "Ġinstitutions": 5950,
      "gain": 5951,
      "Ġaid": 5952,
      "Ġdoub": 5953,
      "ĠchÄĥng": 5954,
      "ĠrÃ´": 5955,
      "Ġrough": 5956,
      "Ġgift": 5957,
      "Ġforg": 5958,
      "ĠCá»±c": 5959,
      "ĠSau": 5960,
      "Ġclick": 5961,
      "Ġdivers": 5962,
      "Ġbelow": 5963,
      "Ġbasis": 5964,
      "idden": 5965,
      "Ġdevices": 5966,
      "Ġemotion": 5967,
      "ĠÄĳeo": 5968,
      "Ġjoin": 5969,
      "ĠSmith": 5970,
      "gy": 5971,
      "Ġtens": 5972,
      "Ġnarr": 5973,
      "ĠlÆ°ng": 5974,
      "ened": 5975,
      "Ã¬a": 5976,
      "vey": 5977,
      "ĠphÃ¬": 5978,
      "empt": 5979,
      "ĠMr": 5980,
      "aining": 5981,
      "Ġbroad": 5982,
      "udd": 5983,
      "Ġcontroll": 5984,
      "Ġ99": 5985,
      "Ġconference": 5986,
      "Ġautism": 5987,
      "Ġforeign": 5988,
      "Ġcolleagues": 5989,
      "ĠObama": 5990,
      "rastruct": 5991,
      "Like": 5992,
      "men": 5993,
      "uh": 5994,
      "Ġlack": 5995,
      "Ġmáº»": 5996,
      "Ġden": 5997,
      "Ġdyn": 5998,
      "ĠII": 5999,
      "amin": 6000,
      "Ġforces": 6001,
      "ĠNob": 6002,
      "áº«m": 6003,
      "izes": 6004,
      "Ġtuyáº¿t": 6005,
      "ording": 6006,
      "Ġmoments": 6007,
      "Ġdollar": 6008,
      "Ġphotos": 6009,
      "Ġreduce": 6010,
      "ĠmÃ£n": 6011,
      "Ġopportunities": 6012,
      "Ġmolecule": 6013,
      "ĠParis": 6014,
      "Ġwheel": 6015,
      "Ġphilosoph": 6016,
      "Ġcorruption": 6017,
      "fr": 6018,
      "oáº¡i": 6019,
      "ta": 6020,
      "ĠtÄ©nh": 6021,
      "Ġváº¯c": 6022,
      "Ġpig": 6023,
      "Ġsharing": 6024,
      "Ġ22": 6025,
      "ĠGh": 6026,
      "ĠLib": 6027,
      "Ġtiáº¿c": 6028,
      "ĠRuss": 6029,
      "Ġnovel": 6030,
      "Ġairpl": 6031,
      "Ġswitch": 6032,
      "Ġmicro": 6033,
      "Ġcommunication": 6034,
      "Ġproduced": 6035,
      "ĠÄĳáº¿m": 6036,
      "ĠFrancisco": 6037,
      "Ġtissue": 6038,
      "ºc": 6039,
      "ĠmÃ¨o": 6040,
      "imp": 6041,
      "erek": 6042,
      "Ġnote": 6043,
      "ession": 6044,
      "ela": 6045,
      "ĠJer": 6046,
      "Ġfeels": 6047,
      "Ġhelping": 6048,
      "Ġplayed": 6049,
      "Ġbringing": 6050,
      "Ġhearing": 6051,
      "Ġavoid": 6052,
      "OK": 6053,
      "Ġninh": 6054,
      "Ġlung": 6055,
      "Ġver": 6056,
      "ĠkÃ¨m": 6057,
      "ĠtrÄĥng": 6058,
      "ester": 6059,
      "Ġfashion": 6060,
      "ino": 6061,
      "Ġfort": 6062,
      "irt": 6063,
      "Ġshoot": 6064,
      "Ġpengu": 6065,
      "ears": 6066,
      "ĠPer": 6067,
      "Ġbrand": 6068,
      "Ġagree": 6069,
      "Ġamb": 6070,
      "Ġappl": 6071,
      "othes": 6072,
      "Ġinfrastruct": 6073,
      "Ġpassed": 6074,
      "Ġprograms": 6075,
      "Ġmission": 6076,
      "Ġoriginal": 6077,
      "ĠRobert": 6078,
      "Ġbá»¥ng": 6079,
      "ufact": 6080,
      "ĠWikipedia": 6081,
      "Ġcrowd": 6082,
      "Oh": 6083,
      "Yeah": 6084,
      "vant": 6085,
      "ĠtÃ¡m": 6086,
      "ĠhÃ´": 6087,
      "Ġgun": 6088,
      "ĠdÃ²": 6089,
      "ĠdÃ¡n": 6090,
      "ĠTom": 6091,
      "Ġjoy": 6092,
      "áº«y": 6093,
      "Ġsuc": 6094,
      "ĠKing": 6095,
      "Ġpoet": 6096,
      "ricult": 6097,
      "Ġhyp": 6098,
      "ervation": 6099,
      "Ġnearly": 6100,
      "Ġvolunt": 6101,
      "Ġopposite": 6102,
      "Look": 6103,
      "ĠlÄĥn": 6104,
      "ĠdÃ£": 6105,
      "Ġfaces": 6106,
      "vere": 6107,
      "icon": 6108,
      "icking": 6109,
      "Ġrare": 6110,
      "Ġstem": 6111,
      "Ġseed": 6112,
      "Ġhá»ıng": 6113,
      "Ġorg": 6114,
      "Ġblock": 6115,
      "Ġstudying": 6116,
      "Ġ2009": 6117,
      "Ġaccur": 6118,
      "Ġvisit": 6119,
      "Ġaddition": 6120,
      "attan": 6121,
      "ĠgÃ³i": 6122,
      "Ġoxygen": 6123,
      "Ġsignificant": 6124,
      "Ar": 6125,
      "Tube": 6126,
      "ij": 6127,
      "lim": 6128,
      "oÃłi": 6129,
      "toc": 6130,
      "Ġtom": 6131,
      "Ġinch": 6132,
      "ĠquÃł": 6133,
      "ĠkhuyÃªn": 6134,
      "TháºŃm": 6135,
      "cell": 6136,
      "stit": 6137,
      "ĠNor": 6138,
      "ĠPark": 6139,
      "Who": 6140,
      "Ġinsight": 6141,
      "Ġstructures": 6142,
      "Ġemotions": 6143,
      "Ġrelationships": 6144,
      "Ġreligion": 6145,
      "Ġdegrees": 6146,
      "Ġconsciousness": 6147,
      "Ġshift": 6148,
      "Ġpuzz": 6149,
      "ĠNASA": 6150,
      "Ġhusband": 6151,
      "tocin": 6152,
      "PA": 6153,
      "Two": 6154,
      "ĠÃ©p": 6155,
      "Ġtiá»ĩc": 6156,
      "Ġvinh": 6157,
      "Ġtráº§n": 6158,
      "Ġfuel": 6159,
      "aria": 6160,
      "Ġcá»±": 6161,
      "ason": 6162,
      "Ġrecon": 6163,
      "ocking": 6164,
      "Ġmanufact": 6165,
      "Ġimportantly": 6166,
      "ĠHey": 6167,
      "Ġcorrect": 6168,
      "Ġgá»¡": 6169,
      "Ġtherap": 6170,
      "Many": 6171,
      "me": 6172,
      "oom": 6173,
      "tr": 6174,
      "ĠthÃ³i": 6175,
      "ĠlÃ´i": 6176,
      "Ġbought": 6177,
      "ĠhÆ°": 6178,
      "Ġhom": 6179,
      "osqu": 6180,
      "Ġtoile": 6181,
      "Ġgiáº¥u": 6182,
      "Ġlá»ģ": 6183,
      "ĠLat": 6184,
      "uá»¹": 6185,
      "Ġanyway": 6186,
      "Ġforever": 6187,
      "Ġnecessary": 6188,
      "ĠBritish": 6189,
      "ĠNobel": 6190,
      "Ġcru": 6191,
      "Ġlá»ĩnh": 6192,
      "ctually": 6193,
      "Ġhair": 6194,
      "iger": 6195,
      "ĠCE": 6196,
      "add": 6197,
      "ĠMa": 6198,
      "ĠMont": 6199,
      "ÄĲÃ£": 6200,
      "Ġmá»Ŀ": 6201,
      "Ġbroken": 6202,
      "ĠFrench": 6203,
      "aker": 6204,
      "Ġdá»©t": 6205,
      "ĠâĢĵ": 6206,
      "Ġfully": 6207,
      "Ġadvant": 6208,
      "Ġtotal": 6209,
      "Ġbenefits": 6210,
      "Ġlucky": 6211,
      "Ġtremend": 6212,
      "Ġatmosphere": 6213,
      "From": 6214,
      "ka": 6215,
      "mber": 6216,
      "wide": 6217,
      "zen": 6218,
      "ĠlÃ¢m": 6219,
      "Ġmouth": 6220,
      "Ġvote": 6221,
      "ĠgÃ£": 6222,
      "Ġtrá»ĳn": 6223,
      "Ġngon": 6224,
      "edic": 6225,
      "asse": 6226,
      "icles": 6227,
      "Ġphiá»ģn": 6228,
      "Ġheo": 6229,
      "ils": 6230,
      "artment": 6231,
      "Ġalthough": 6232,
      "udience": 6233,
      "Instead": 6234,
      "Ġdifferently": 6235,
      "Ġcá»¥m": 6236,
      "riage": 6237,
      "azon": 6238,
      "ĠÃļ": 6239,
      "Ġconsid": 6240,
      "Ġeasily": 6241,
      "Ġentirely": 6242,
      "Ġfailure": 6243,
      "Ġrequire": 6244,
      "ĠchÃ¬m": 6245,
      "ĠDarwin": 6246,
      "Ġwisdom": 6247,
      "Ġtung": 6248,
      "Ġcogn": 6249,
      "Ġláº·n": 6250,
      "Ġmuseum": 6251,
      "ĠbÃ£o": 6252,
      "Ġbatter": 6253,
      "Ġwide": 6254,
      "ĠdÆ°": 6255,
      "Ġtor": 6256,
      "ĠNhÃ": 6257,
      "Ġmeas": 6258,
      "anhattan": 6259,
      "ĠGab": 6260,
      "ĠLu": 6261,
      "Ġcla": 6262,
      "Ġbackground": 6263,
      "ĠStreet": 6264,
      "Ġimagination": 6265,
      "Ġlesson": 6266,
      "ĠlÃ£m": 6267,
      "Ġvalu": 6268,
      "Ġrestaur": 6269,
      "Ġparad": 6270,
      "Ġmagaz": 6271,
      "Ġargument": 6272,
      "ĠkÃªnh": 6273,
      "ĠAngeles": 6274,
      "Cuá»Ļc": 6275,
      "ked": 6276,
      "mon": 6277,
      "right": 6278,
      "vest": 6279,
      "zy": 6280,
      "Ġburn": 6281,
      "Ġvot": 6282,
      "ĠgÃµ": 6283,
      "osystem": 6284,
      "onom": 6285,
      "Ġngá»įt": 6286,
      "ĠÄĳá»±c": 6287,
      "Ġkhao": 6288,
      "amb": 6289,
      "Ġancient": 6290,
      "Ġheat": 6291,
      "ĠAlex": 6292,
      "ifically": 6293,
      "Ġbrilli": 6294,
      "Ġ36": 6295,
      "ĠJust": 6296,
      "ĠbuÃ´n": 6297,
      "Ġstudio": 6298,
      "Ġindustrial": 6299,
      "Ġcolors": 6300,
      "Ġevents": 6301,
      "Ġmajority": 6302,
      "á»Ľp": 6303,
      "Ġcorner": 6304,
      "Ġturning": 6305,
      "Ġenormous": 6306,
      "Ġsymbol": 6307,
      "mar": 6308,
      "Ġpet": 6309,
      "isible": 6310,
      "ĠgiÆ¡": 6311,
      "Think": 6312,
      "Ġham": 6313,
      "ĠManhattan": 6314,
      "ĠSu": 6315,
      "ifying": 6316,
      "ĠGreat": 6317,
      "ĠRos": 6318,
      "ĠChá»ī": 6319,
      "Ġcooper": 6320,
      "heimer": 6321,
      "ĠYouTube": 6322,
      "Ġmetaph": 6323,
      "Ġleading": 6324,
      "ĠNga": 6325,
      "Ġmatters": 6326,
      "ography": 6327,
      "Ġequal": 6328,
      "Ġcheap": 6329,
      "Ġdeeply": 6330,
      "Ġwindow": 6331,
      "Ġ1990": 6332,
      "Ġstatistics": 6333,
      "based": 6334,
      "nÃ³": 6335,
      "zheimer": 6336,
      "ĠÆ°": 6337,
      "Ġcáº¥t": 6338,
      "ĠthÄĥng": 6339,
      "Ġsick": 6340,
      "Ġlunch": 6341,
      "Ġmá»ĩnh": 6342,
      "Ġveg": 6343,
      "Ġdao": 6344,
      "Ġchick": 6345,
      "apers": 6346,
      "ota": 6347,
      "edy": 6348,
      "Ġtax": 6349,
      "ĠgiÃ¡n": 6350,
      "ĠTor": 6351,
      "Ġheld": 6352,
      "agers": 6353,
      "ĠJames": 6354,
      "Ġunlike": 6355,
      "Ġgrown": 6356,
      "itely": 6357,
      "Ġsym": 6358,
      "Ġcrime": 6359,
      "ysis": 6360,
      "Ġdemand": 6361,
      "Ġengage": 6362,
      "encies": 6363,
      "Ġnewsp": 6364,
      "Ġresponsible": 6365,
      "Ġdescribe": 6366,
      "NhÃ¬n": 6367,
      "Ġmountain": 6368,
      "Ġrapid": 6369,
      "Ġecosystem": 6370,
      "ĠÃļc": 6371,
      "Ġtour": 6372,
      "Ġcore": 6373,
      "ĠsÃłn": 6374,
      "Ġhá»ĳ": 6375,
      "reci": 6376,
      "irl": 6377,
      "ĠMal": 6378,
      "ĠSun": 6379,
      "ĠHere": 6380,
      "Ġkhoan": 6381,
      "ĠDerek": 6382,
      "ibr": 6383,
      "Ġthuáº¿": 6384,
      "Ġagricult": 6385,
      "raham": 6386,
      "ĠAlzheimer": 6387,
      "Ġoxytocin": 6388,
      "Ġlandscape": 6389,
      "Ġdiversity": 6390,
      "Yes": 6391,
      "hand": 6392,
      "ius": 6393,
      "over": 6394,
      "Ġmamm": 6395,
      "Ġbone": 6396,
      "Ġbud": 6397,
      "ĠhÃłm": 6398,
      "Ġva": 6399,
      "ĠtrÆ°a": 6400,
      "ania": 6401,
      "quang": 6402,
      "esome": 6403,
      "Ġthá»ķi": 6404,
      "arter": 6405,
      "ĠMark": 6406,
      "ulous": 6407,
      "ulations": 6408,
      "ĠLiá»ĩu": 6409,
      "ĠLeg": 6410,
      "Ġworkers": 6411,
      "ĠWhere": 6412,
      "Ġgovernments": 6413,
      "pected": 6414,
      "Ġgrandm": 6415,
      "Ġsuffering": 6416,
      "Ġreceived": 6417,
      "ĠcÃºm": 6418,
      "ĠSteve": 6419,
      "Ġfascinating": 6420,
      "Ġinfrastructure": 6421,
      "10": 6422,
      "equ": 6423,
      "ha": 6424,
      "hy": 6425,
      "¢m": 6426,
      "Ġnone": 6427,
      "Ġsá»¯a": 6428,
      "Ġbul": 6429,
      "ĠbáºŃn": 6430,
      "Ġbáº¿p": 6431,
      "Ġgolf": 6432,
      "ĠdÃ¡ng": 6433,
      "Ġrout": 6434,
      "Ġfab": 6435,
      "alt": 6436,
      "leg": 6437,
      "ĠquÃŃ": 6438,
      "ĠxÃŃ": 6439,
      "Ġ27": 6440,
      "Ġsport": 6441,
      "Ġexpand": 6442,
      "Ġcontact": 6443,
      "ĠUS": 6444,
      "Ġflight": 6445,
      "ĠStan": 6446,
      "Ġ2005": 6447,
      "phone": 6448,
      "Giá»ĳng": 6449,
      "Ġdreams": 6450,
      "Ġgentlem": 6451,
      "Your": 6452,
      "tle": 6453,
      "ĠtÆ°Æ¡i": 6454,
      "ĠlÃµi": 6455,
      "Ġmort": 6456,
      "Ġmosqu": 6457,
      "Ġble": 6458,
      "Ġbag": 6459,
      "ĠbÃ¹ng": 6460,
      "esign": 6461,
      "Ġbees": 6462,
      "Ġtá»§": 6463,
      "Ġxinh": 6464,
      "Ġreward": 6465,
      "Ġsector": 6466,
      "Ġusers": 6467,
      "oston": 6468,
      "ĠEvery": 6469,
      "ĠRáºŃp": 6470,
      "Ġgotten": 6471,
      "Ġoffer": 6472,
      "prod": 6473,
      "However": 6474,
      "Ġresearchers": 6475,
      "Ġphysic": 6476,
      "Ġinteraction": 6477,
      "Ġillness": 6478,
      "Ġfighting": 6479,
      "Ġextreme": 6480,
      "Ġbenefit": 6481,
      "Ġbreath": 6482,
      "mÃł": 6483,
      "mark": 6484,
      "water": 6485,
      "ĠtÃ¢n": 6486,
      "Ġnor": 6487,
      "Ġmid": 6488,
      "Ġbound": 6489,
      "atr": 6490,
      "ĠdÆ°á»£c": 6491,
      "ĠlÃłn": 6492,
      "itable": 6493,
      "icago": 6494,
      "Æ°á»£n": 6495,
      "Ġrepe": 6496,
      "Ġproud": 6497,
      "emen": 6498,
      "Ġshoes": 6499,
      "term": 6500,
      "Ġaltern": 6501,
      "Ġjustice": 6502,
      "ĠRw": 6503,
      "Ġembr": 6504,
      "Ġshouldn": 6505,
      "Ġregular": 6506,
      "Ġeffects": 6507,
      "Ġtrend": 6508,
      "Ġmarketing": 6509,
      "Ġillustr": 6510,
      "ĠAmazon": 6511,
      "Ġresponsibility": 6512,
      "Ġpressure": 6513,
      "Ġbá»¥i": 6514,
      "Ġstrategy": 6515,
      "Ġdestroy": 6516,
      "Are": 6517,
      "Láº§n": 6518,
      "Ġtough": 6519,
      "Ġcáº¥m": 6520,
      "Ġnáº£y": 6521,
      "Ġsung": 6522,
      "Ġhost": 6523,
      "Ġpair": 6524,
      "Ġngáº¯m": 6525,
      "ĠrÃ©t": 6526,
      "ĠquÃ¡t": 6527,
      "Ġkhá»ī": 6528,
      "thes": 6529,
      "Ġship": 6530,
      "ĠMartin": 6531,
      "ÄĲÃ´i": 6532,
      "ĠBoston": 6533,
      "ĠSam": 6534,
      "Ġspot": 6535,
      "Ġcompared": 6536,
      "Ġá»ŀ": 6537,
      "orders": 6538,
      "Ġchildhood": 6539,
      "Ġremote": 6540,
      "Ġcreatures": 6541,
      "Ġseemed": 6542,
      "ropy": 6543,
      "ĠEuropean": 6544,
      "Ġlegal": 6545,
      "Ġepid": 6546,
      "ĠJapanese": 6547,
      "Ġadults": 6548,
      "Ġbalance": 6549,
      "Ġdespite": 6550,
      "pan": 6551,
      "uge": 6552,
      "val": 6553,
      "Ġtáº¯m": 6554,
      "Ġtháº»": 6555,
      "Ġháº£i": 6556,
      "Ġpian": 6557,
      "á»Ļm": 6558,
      "otic": 6559,
      "Ġegg": 6560,
      "Ġwear": 6561,
      "ida": 6562,
      "ĠAre": 6563,
      "ula": 6564,
      "ĠÄĲiá»ĥn": 6565,
      "Ġclimb": 6566,
      "ĠChicago": 6567,
      "ucks": 6568,
      "ĠtuÃ½": 6569,
      "Ġattempt": 6570,
      "ancing": 6571,
      "ĠAsia": 6572,
      "Ġlogic": 6573,
      "ĠAdam": 6574,
      "Ġdefinition": 6575,
      "Ġtal": 6576,
      "ĠsÆ°u": 6577,
      "Ġliá»ģu": 6578,
      "ĠlÆ°á»Ŀng": 6579,
      "Ġhate": 6580,
      "áº¿ch": 6581,
      "Ġquant": 6582,
      "Ġhabit": 6583,
      "ĠTal": 6584,
      "Ġprior": 6585,
      "ĠHig": 6586,
      "ĠHaw": 6587,
      "ellect": 6588,
      "ĠRichard": 6589,
      "Ġmeters": 6590,
      "Ġvoices": 6591,
      "Ġcollective": 6592,
      "Ġperfectly": 6593,
      "Ġ1970": 6594,
      "Ġdinner": 6595,
      "ĠAustralia": 6596,
      "Ġlaptop": 6597,
      "má»Ļt": 6598,
      "mit": 6599,
      "ĠÆ°a": 6600,
      "Ġtum": 6601,
      "ĠcÆ°á»Ľi": 6602,
      "Ġmuá»Ĺi": 6603,
      "ato": 6604,
      "Ġchann": 6605,
      "Ġinternet": 6606,
      "Ġraised": 6607,
      "ads": 6608,
      "Ġshock": 6609,
      "Ġheav": 6610,
      "Ġexer": 6611,
      "Ġdefe": 6612,
      "Ã©o": 6613,
      "ĠEve": 6614,
      "Ġbridge": 6615,
      "Ġmanaged": 6616,
      "eph": 6617,
      "Ġthá»ĭnh": 6618,
      "ographic": 6619,
      "roph": 6620,
      "Ġmarried": 6621,
      "Ġelement": 6622,
      "Ġfarmers": 6623,
      "Ġfaith": 6624,
      "Ġvolunte": 6625,
      "Ġveget": 6626,
      "Cáº£": 6627,
      "rict": 6628,
      "Ġtast": 6629,
      "ĠthÃ¡p": 6630,
      "ĠsÆ¡n": 6631,
      "ĠlÆ°á»Ľt": 6632,
      "Ġdouble": 6633,
      "ĠrÃ£i": 6634,
      "Ġgiant": 6635,
      "enty": 6636,
      "Ġstuck": 6637,
      "ĠBan": 6638,
      "ĠHá»Ļi": 6639,
      "Ġalt": 6640,
      "ĠGates": 6641,
      "Ġthinks": 6642,
      "Ġplat": 6643,
      "Ġbrother": 6644,
      "rupt": 6645,
      "ĠchÃºa": 6646,
      "Cháº¯c": 6647,
      "Ġ600": 6648,
      "Ġrelated": 6649,
      "Ġbiological": 6650,
      "Ġpaint": 6651,
      "Ġequip": 6652,
      "Ġ250": 6653,
      "ropri": 6654,
      "Ġtypical": 6655,
      "Ġcircu": 6656,
      "Ġdrawing": 6657,
      "ĠkhÃ´n": 6658,
      "Ġconvin": 6659,
      "ĠSchool": 6660,
      "Ġreplace": 6661,
      "Ġdomin": 6662,
      "Ġtremendous": 6663,
      "rain": 6664,
      "ĠthÃ¹ng": 6665,
      "Ġnháº«n": 6666,
      "ĠtrÆ°á»£t": 6667,
      "Ġyellow": 6668,
      "VÃłi": 6669,
      "Ġconcent": 6670,
      "ĠTur": 6671,
      "Ġgold": 6672,
      "Ġaspect": 6673,
      "ĠMon": 6674,
      "ĠMá»įi": 6675,
      "Ġ26": 6676,
      "Ġintellect": 6677,
      "ĠÄĲá»«ng": 6678,
      "ĠJack": 6679,
      "Ġcalls": 6680,
      "ĠTrans": 6681,
      "Ġprevious": 6682,
      "Ġscr": 6683,
      "Ġpossibility": 6684,
      "Ġdistance": 6685,
      "Ġeasier": 6686,
      "Ġfailed": 6687,
      "Ġcycle": 6688,
      "Ġnegative": 6689,
      "ĠPalest": 6690,
      "Ġinsects": 6691,
      "Ġcommercial": 6692,
      "Ġcognitive": 6693,
      "Second": 6694,
      "oft": 6695,
      "ye": 6696,
      "ĠthÃ¡m": 6697,
      "Ġná»Ł": 6698,
      "Ġnháº¯m": 6699,
      "Ġtrá»¥c": 6700,
      "ĠngáºŃp": 6701,
      "Ġngá»ĳc": 6702,
      "Ġround": 6703,
      "oran": 6704,
      "aser": 6705,
      "uries": 6706,
      "á»¥t": 6707,
      "emy": 6708,
      "Ġthua": 6709,
      "Ġdiet": 6710,
      "Ġgenome": 6711,
      "Ġinvisible": 6712,
      "connect": 6713,
      "Ġartific": 6714,
      "ification": 6715,
      "ĠWho": 6716,
      "Ġcorpor": 6717,
      "Ġdiscovery": 6718,
      "Ġfigured": 6719,
      "Ġfrequ": 6720,
      "Ġlimited": 6721,
      "Ġversus": 6722,
      "ĠkÃŃn": 6723,
      "Ġexperts": 6724,
      "ĠSwed": 6725,
      "Ġquote": 6726,
      "Ġefficient": 6727,
      "ĠApple": 6728,
      "Ġadvantage": 6729,
      "báº¡n": 6730,
      "cles": 6731,
      "ĠtÆ°á»Ľng": 6732,
      "Ġcort": 6733,
      "ĠthÃŃnh": 6734,
      "Ġná»ĳt": 6735,
      "Ġbillions": 6736,
      "Ġhidden": 6737,
      "Ġthá»īnh": 6738,
      "inc": 6739,
      "ĠchÃ¢m": 6740,
      "Ġweird": 6741,
      "Ġpha": 6742,
      "Ġgiam": 6743,
      "ĠnÃłng": 6744,
      "Ġsaf": 6745,
      "Ġund": 6746,
      "Ġnotion": 6747,
      "Ġintu": 6748,
      "ĠKinh": 6749,
      "oca": 6750,
      "ĠEx": 6751,
      "Ġgrab": 6752,
      "Ġdesire": 6753,
      "Ġletter": 6754,
      "Ġbá»ĳt": 6755,
      "Ġhelps": 6756,
      "Ġinstall": 6757,
      "Ġenter": 6758,
      "Ġleads": 6759,
      "Ġlanguages": 6760,
      "Pháº£i": 6761,
      "Ġwatched": 6762,
      "Ġinvestment": 6763,
      "Ġmotor": 6764,
      "Ġbomb": 6765,
      "Ġantib": 6766,
      "Ġessential": 6767,
      "Ġfairly": 6768,
      "Ġequipment": 6769,
      "Go": 6770,
      "LÃ½": 6771,
      "cript": 6772,
      "Ġtun": 6773,
      "Ġcred": 6774,
      "ĠiP": 6775,
      "Ġdue": 6776,
      "ĠdÃ¡m": 6777,
      "aped": 6778,
      "Ġfol": 6779,
      "Ġfresh": 6780,
      "ĠquÃ£ng": 6781,
      "ĠxÃ³m": 6782,
      "Ġstim": 6783,
      "ĠCo": 6784,
      "Ġshut": 6785,
      "Ġshel": 6786,
      "Ġhell": 6787,
      "ĠAh": 6788,
      "antic": 6789,
      "ÄĲáº¿n": 6790,
      "Ġeveryday": 6791,
      "Ġunex": 6792,
      "Ġpartners": 6793,
      "ĠCho": 6794,
      "bert": 6795,
      "Ġnames": 6796,
      "ĠEngland": 6797,
      "Ġterror": 6798,
      "Ġfeedback": 6799,
      "imensional": 6800,
      "Ġnecessarily": 6801,
      "ĠRwanda": 6802,
      "Ġconcentr": 6803,
      "eb": 6804,
      "Ġcateg": 6805,
      "Ġwire": 6806,
      "Ġdáº¯t": 6807,
      "Ġrat": 6808,
      "Ġriver": 6809,
      "Ġincent": 6810,
      "arb": 6811,
      "Ġcá»«": 6812,
      "icity": 6813,
      "Ġkhá»Ľp": 6814,
      "Ġstri": 6815,
      "ulpt": 6816,
      "atell": 6817,
      "Ġempt": 6818,
      "apping": 6819,
      "Ġsculpt": 6820,
      "Ġfacts": 6821,
      "Ġstudied": 6822,
      "Ġcreation": 6823,
      "Ġextract": 6824,
      "Ġopin": 6825,
      "Ġholding": 6826,
      "Ġinfluence": 6827,
      "Ġdaily": 6828,
      "gypt": 6829,
      "Ġsucceed": 6830,
      "Em": 6831,
      "Over": 6832,
      "cop": 6833,
      "cular": 6834,
      "Ġtick": 6835,
      "ĠcáºŃy": 6836,
      "Ġthiá»ĩt": 6837,
      "Ġnáº¯ng": 6838,
      "Ġmothers": 6839,
      "Ġhomes": 6840,
      "apse": 6841,
      "Ġvá»Ł": 6842,
      "ĠSao": 6843,
      "ĠphÃ¡i": 6844,
      "ĠPro": 6845,
      "ĠLin": 6846,
      "aren": 6847,
      "Ġmoves": 6848,
      "Ġdesigner": 6849,
      "Ġplanning": 6850,
      "Ġplanets": 6851,
      "Ġedge": 6852,
      "Ġhydr": 6853,
      "Ġleader": 6854,
      "Ġbusinesses": 6855,
      "Ġneuros": 6856,
      "Ġinvestig": 6857,
      "ĠCarol": 6858,
      "Ġcuá»Ļn": 6859,
      "Ġleaving": 6860,
      "Ġcircum": 6861,
      "known": 6862,
      "Ġhouses": 6863,
      "His": 6864,
      "dimensional": 6865,
      "eared": 6866,
      "ĠthÃ¡o": 6867,
      "ĠlÃ´ng": 6868,
      "Ġmill": 6869,
      "ĠbÆ¡": 6870,
      "Ġbong": 6871,
      "Ġtoáº£": 6872,
      "que": 6873,
      "inally": 6874,
      "Ġpháº¡t": 6875,
      "Ġrau": 6876,
      "Æ°á»Ľp": 6877,
      "ĠBab": 6878,
      "essed": 6879,
      "obal": 6880,
      "ĠEgypt": 6881,
      "ĠRes": 6882,
      "ĠJo": 6883,
      "Ġcommit": 6884,
      "Ġaccident": 6885,
      "Ġopened": 6886,
      "Ġkeeping": 6887,
      "Ġdepression": 6888,
      "Ġproper": 6889,
      "Ġsurprise": 6890,
      "Ġargue": 6891,
      "Ġ1960": 6892,
      "Ġstruggle": 6893,
      "hold": 6894,
      "uing": 6895,
      "Ķi": 6896,
      "Ġsister": 6897,
      "Ġsatell": 6898,
      "Ġmáº¡n": 6899,
      "Ġmouse": 6900,
      "Ġháº§m": 6901,
      "Ġgáº¥u": 6902,
      "ĠtrÃł": 6903,
      "org": 6904,
      "ali": 6905,
      "Ġthá»ĳ": 6906,
      "Ġwearing": 6907,
      "owing": 6908,
      "entally": 6909,
      "ĠMad": 6910,
      "ĠnhÃ£n": 6911,
      "ÄĲá»«ng": 6912,
      "Ġmeat": 6913,
      "Ġfrag": 6914,
      "ĠPe": 6915,
      "Ġcompare": 6916,
      "Ġprecise": 6917,
      "Ġappreci": 6918,
      "Ġinvited": 6919,
      "Ġentertain": 6920,
      "print": 6921,
      "Ġawesome": 6922,
      "Ġfollowed": 6923,
      "Ġradical": 6924,
      "Ġdamage": 6925,
      "Ġelectrical": 6926,
      "Ġincreasingly": 6927,
      "Ġplatform": 6928,
      "Actually": 6929,
      "DÄ©": 6930,
      "TED": 6931,
      "Ġtit": 6932,
      "ĠcÆ°á»¡ng": 6933,
      "Ġná»į": 6934,
      "ĠÄĳuÃ´i": 6935,
      "Ġlosing": 6936,
      "Ġiron": 6937,
      "ĠdÃ£y": 6938,
      "ĠkhÆ¡i": 6939,
      "Ġliked": 6940,
      "ĠTá»ķ": 6941,
      "thal": 6942,
      "ĠMor": 6943,
      "ĠBÃ¢y": 6944,
      "ĠLook": 6945,
      "Ġtuyá»ĥn": 6946,
      "ĠOx": 6947,
      "Ġsurge": 6948,
      "ended": 6949,
      "Ġhighest": 6950,
      "Ġcapable": 6951,
      "Ġbegins": 6952,
      "ĠBrown": 6953,
      "Ġuniversity": 6954,
      "KhÃ¡n": 6955,
      "Ġmetaphor": 6956,
      "Again": 6957,
      "Máº·c": 6958,
      "vi": 6959,
      "Ġmaster": 6960,
      "Ġodd": 6961,
      "Ġking": 6962,
      "Ġpock": 6963,
      "ĠchÆ°á»Ľc": 6964,
      "aling": 6965,
      "inist": 6966,
      "ĠTa": 6967,
      "ĠMRI": 6968,
      "ille": 6969,
      "ĠNot": 6970,
      "eline": 6971,
      "ĠGand": 6972,
      "ĠKho": 6973,
      "ĠJon": 6974,
      "Ġclip": 6975,
      "ĠWall": 6976,
      "Ġmoon": 6977,
      "Ġresource": 6978,
      "Ġhero": 6979,
      "Ġ95": 6980,
      "Ġprototy": 6981,
      "Ġmarkets": 6982,
      "Ġconstantly": 6983,
      "Ġsurprised": 6984,
      "Ġsurvival": 6985,
      "Ġharm": 6986,
      "Ġuniversal": 6987,
      "Ġexperienced": 6988,
      "Ġgrav": 6989,
      "Ġkilomet": 6990,
      "Ġseparate": 6991,
      "Ġcomfortable": 6992,
      "Ġmagazine": 6993,
      "Ġpiano": 6994,
      "ĠHiggs": 6995,
      "Gáº§n": 6996,
      "Once": 6997,
      "oved": 6998,
      "vention": 6999,
      "©o": 7000,
      "Ġcac": 7001,
      "ĠthÃ´": 7002,
      "ĠÄĳÃ¢m": 7003,
      "Ġsorry": 7004,
      "Ġnhá»Ł": 7005,
      "Ġrural": 7006,
      "ĠMáº¹": 7007,
      "illed": 7008,
      "ĠDel": 7009,
      "ibilities": 7010,
      "Ġthuáº«n": 7011,
      "Ġworldwide": 7012,
      "ĠThiÃªn": 7013,
      "ĠTrá»Ŀi": 7014,
      "forest": 7015,
      "Ġ2004": 7016,
      "Ġfinished": 7017,
      "inson": 7018,
      "Ġconduct": 7019,
      "Ġbá»Ľt": 7020,
      "Ġorigami": 7021,
      "Ġcharacters": 7022,
      "Ġcompetition": 7023,
      "Sometimes": 7024,
      "bur": 7025,
      "ih": 7026,
      "vis": 7027,
      "Ġton": 7028,
      "ĠlÃ¡t": 7029,
      "Ġband": 7030,
      "Ġbattle": 7031,
      "Ġgather": 7032,
      "Ġrung": 7033,
      "ushing": 7034,
      "idents": 7035,
      "cend": 7036,
      "ĠTe": 7037,
      "ĠMand": 7038,
      "uls": 7039,
      "ĠSil": 7040,
      "Ġsugar": 7041,
      "Ġmuá»Ļn": 7042,
      "Ġhá»ĩt": 7043,
      "ĠWilli": 7044,
      "ĠOn": 7045,
      "Ġbelieved": 7046,
      "issions": 7047,
      "Ġkilling": 7048,
      "HoÃ¡": 7049,
      "Ġsuggests": 7050,
      "Ġprofessional": 7051,
      "Ġdescribed": 7052,
      "Ġhorr": 7053,
      "ĠchÃ¬a": 7054,
      "Ġultimately": 7055,
      "Ġassociated": 7056,
      "Ġphenomenon": 7057,
      "Ġdimensions": 7058,
      "Ġweapons": 7059,
      "Ġairplane": 7060,
      "ĠLatin": 7061,
      "Káº¿t": 7062,
      "Tiáº¿p": 7063,
      "gin": 7064,
      "ĠthÆ°a": 7065,
      "ĠlÃ²": 7066,
      "ĠlÃ¹i": 7067,
      "Ġmá»ĩt": 7068,
      "Ġbá»į": 7069,
      "Ġpurs": 7070,
      "Ġpounds": 7071,
      "Ġgap": 7072,
      "Ġgard": 7073,
      "Ġdry": 7074,
      "Ġchá»Ł": 7075,
      "Ġcá»Ł": 7076,
      "lymp": 7077,
      "Ġranh": 7078,
      "celer": 7079,
      "Ġshapes": 7080,
      "ĠAc": 7081,
      "ĠÄĳiÃªu": 7082,
      "ĠLad": 7083,
      "ĠDÆ°Æ¡ng": 7084,
      "Ġbright": 7085,
      "Ġexpression": 7086,
      "Ġnoise": 7087,
      "Ġadvert": 7088,
      "ublic": 7089,
      "Ġletters": 7090,
      "Ġ2006": 7091,
      "Ġstrang": 7092,
      "Ġchá»¥c": 7093,
      "Ġcharge": 7094,
      "onym": 7095,
      "Ġelements": 7096,
      "Ġdegree": 7097,
      "Ġsusp": 7098,
      "Ġconcerned": 7099,
      "Ġcounter": 7100,
      "ĠGabby": 7101,
      "Ġbrilliant": 7102,
      "Báº¥t": 7103,
      "dam": 7104,
      "rum": 7105,
      "á»Ĵ": 7106,
      "Ġláº¡m": 7107,
      "ĠhÃ²n": 7108,
      "Ġhorm": 7109,
      "rete": 7110,
      "Ġ1000": 7111,
      "ĠCr": 7112,
      "ĠTas": 7113,
      "Ġhoáº£": 7114,
      "Ġmá»¹": 7115,
      "Ġagre": 7116,
      "Ġperce": 7117,
      "Ġperception": 7118,
      "aked": 7119,
      "Ġflo": 7120,
      "Ġbelong": 7121,
      "Ġcourage": 7122,
      "Ġ2003": 7123,
      "Ġharder": 7124,
      "Ġnormally": 7125,
      "Ġidentify": 7126,
      "Ġastron": 7127,
      "Ġvirtual": 7128,
      "Ġorgans": 7129,
      "200": 7130,
      "CÃ¹ng": 7131,
      "Un": 7132,
      "ĠthÃ´n": 7133,
      "ĠbÃºt": 7134,
      "Ġholes": 7135,
      "eral": 7136,
      "Ġngá»±c": 7137,
      "ĠÄĳá»¥": 7138,
      "Ġpháº³ng": 7139,
      "Ġque": 7140,
      "ĠMic": 7141,
      "acing": 7142,
      "ĠÄĳá»ĵi": 7143,
      "ĠOlymp": 7144,
      "Ġná»£": 7145,
      "Ġputs": 7146,
      "Ġfactory": 7147,
      "Ġroot": 7148,
      "Ġvua": 7149,
      "Ġfinish": 7150,
      "Ġeconomics": 7151,
      "Ġheads": 7152,
      "ĠHoáº£": 7153,
      "ipped": 7154,
      "ĠGiÃ¡o": 7155,
      "Ġmultiple": 7156,
      "Khoáº£ng": 7157,
      "Ġartificial": 7158,
      "500": 7159,
      "MT": 7160,
      "Talk": 7161,
      "vÃ¬": 7162,
      "Ġá»ĵn": 7163,
      "ĠmÃºa": 7164,
      "Æ°Æ¡n": 7165,
      "Ġpow": 7166,
      "ĠgÃ¡nh": 7167,
      "Ġtráº¥n": 7168,
      "osm": 7169,
      "enry": 7170,
      "alu": 7171,
      "isf": 7172,
      "ita": 7173,
      "ĠÄĳá»Ľi": 7174,
      "ĠkhÃºc": 7175,
      "olves": 7176,
      "iration": 7177,
      "ĠCáºŃp": 7178,
      "Ġsá»©": 7179,
      "ĠGal": 7180,
      "Ġimplic": 7181,
      "athan": 7182,
      "ĠNha": 7183,
      "Ġindic": 7184,
      "Ġtransp": 7185,
      "Ġtransformation": 7186,
      "Ġgenerations": 7187,
      "bridge": 7188,
      "Ġtrained": 7189,
      "Ġconstruction": 7190,
      "Ġoperating": 7191,
      "Ġslowly": 7192,
      "Ġleaves": 7193,
      "Ġsoldiers": 7194,
      "ĠCongo": 7195,
      "Ġexhib": 7196,
      "Ġmáº¥u": 7197,
      "Ġmigr": 7198,
      "Ġká»ĭp": 7199,
      "atures": 7200,
      "Ġdots": 7201,
      "Ġdiction": 7202,
      "Ġchip": 7203,
      "Ġsá»ĳc": 7204,
      "ulated": 7205,
      "Ġuser": 7206,
      "ĠKoran": 7207,
      "ĠRio": 7208,
      "Ġhasn": 7209,
      "Ġmanage": 7210,
      "ĠThá»±c": 7211,
      "Ġgrade": 7212,
      "Ġarms": 7213,
      "ĠViá»ĩn": 7214,
      "Ġcoast": 7215,
      "Ġacad": 7216,
      "Ġadop": 7217,
      "Ġ1950": 7218,
      "Ġcrack": 7219,
      "Ġ65": 7220,
      "Ġaccording": 7221,
      "ĠChÃŃnh": 7222,
      "Ġstream": 7223,
      "Ġcurious": 7224,
      "Ġmarriage": 7225,
      "Ġengineers": 7226,
      "Ġfacing": 7227,
      "ipping": 7228,
      "Ġcopy": 7229,
      "Ġdetails": 7230,
      "Ġcartoon": 7231,
      "Ġsweet": 7232,
      "Ġordinary": 7233,
      "Ġtoilet": 7234,
      "ĠCEO": 7235,
      "Ġvaluable": 7236,
      "Ġunexpected": 7237,
      "Audience": 7238,
      "Ġváº£i": 7239,
      "Ġtheater": 7240,
      "Ġdate": 7241,
      "Ġtow": 7242,
      "Ġrom": 7243,
      "Ġinform": 7244,
      "itness": 7245,
      "Ġwhom": 7246,
      "Ġtail": 7247,
      "Ġstation": 7248,
      "cel": 7249,
      "ĠCA": 7250,
      "ĠTes": 7251,
      "ĠBur": 7252,
      "Ġmá»ıi": 7253,
      "ume": 7254,
      "Ġ28": 7255,
      "izza": 7256,
      "ĠRep": 7257,
      "Ġaging": 7258,
      "ĠJan": 7259,
      "ĠThese": 7260,
      "Ġdesert": 7261,
      "Ġ195": 7262,
      "Chuyá»ĩn": 7263,
      "tech": 7264,
      "Ġrá»ħ": 7265,
      "Ġvideos": 7266,
      "Ġorganic": 7267,
      "iques": 7268,
      "Ġanalysis": 7269,
      "Ġcaused": 7270,
      "Ġcurrently": 7271,
      "Ġpassionate": 7272,
      "Ġdistribution": 7273,
      "Ġtomorrow": 7274,
      "Ġconsidered": 7275,
      "Ġsafety": 7276,
      "Ġcá»Łi": 7277,
      "min": 7278,
      "uk": 7279,
      "zing": 7280,
      "Ġcow": 7281,
      "á»Ļp": 7282,
      "itals": 7283,
      "Ġquad": 7284,
      "Ġnghiá»ĩn": 7285,
      "Ġstup": 7286,
      "ĠThÃ": 7287,
      "ĠTony": 7288,
      "ĠNa": 7289,
      "Ġexch": 7290,
      "ĠHÃł": 7291,
      "ĠPhÃ": 7292,
      "Ġgrid": 7293,
      "elly": 7294,
      "Ġscene": 7295,
      "Ġinterp": 7296,
      "Ġduyá»ĩt": 7297,
      "Ġ120": 7298,
      "Ġwondering": 7299,
      "Ġtesting": 7300,
      "Ġpaying": 7301,
      "Ġchemistry": 7302,
      "ĠkhÃ´i": 7303,
      "Ġ1980": 7304,
      "Ġreligious": 7305,
      "Ġlifet": 7306,
      "Ġemployees": 7307,
      "Ġofficial": 7308,
      "Ġproperty": 7309,
      "Ġsympt": 7310,
      "ĠTasman": 7311,
      "AR": 7312,
      "David": 7313,
      "Each": 7314,
      "Máº¹": 7315,
      "Take": 7316,
      "cÃ³": 7317,
      "de": 7318,
      "lie": 7319,
      "prof": 7320,
      "Ġcá»ĳi": 7321,
      "ĠthÃ¢m": 7322,
      "Ġlat": 7323,
      "Ġmanh": 7324,
      "ĠbÃª": 7325,
      "ĠhÆ°u": 7326,
      "ĠhÃ£ng": 7327,
      "osis": 7328,
      "ĠrÃ¡p": 7329,
      "ari": 7330,
      "Ġweather": 7331,
      "Ġreform": 7332,
      "ctions": 7333,
      "Ġnghá»ĭch": 7334,
      "ĠMáº·t": 7335,
      "ĠSing": 7336,
      "rove": 7337,
      "Ġngoan": 7338,
      "Ġsmile": 7339,
      "Ġrecy": 7340,
      "Ġmusical": 7341,
      "Ġequival": 7342,
      "Ġcollection": 7343,
      "Ġlawy": 7344,
      "Ġsteps": 7345,
      "Ġseriously": 7346,
      "Ġunfortunately": 7347,
      "Ġconsequences": 7348,
      "ean": 7349,
      "mas": 7350,
      "nam": 7351,
      "rs": 7352,
      "Ġtha": 7353,
      "Ġsight": 7354,
      "Ġhip": 7355,
      "Ġhurt": 7356,
      "Ġgan": 7357,
      "Ġnháº·t": 7358,
      "Ġchart": 7359,
      "asion": 7360,
      "Ġkháº³ng": 7361,
      "Ġkhiáº¿m": 7362,
      "opher": 7363,
      "Ġasks": 7364,
      "ĠBush": 7365,
      "ĠNÃły": 7366,
      "ĠDi": 7367,
      "iban": 7368,
      "ĠRom": 7369,
      "Ġ32": 7370,
      "Ġotherwise": 7371,
      "Ġclosed": 7372,
      "ĠWith": 7373,
      "Ġacceler": 7374,
      "ĠTrÆ°á»Ŀng": 7375,
      "neath": 7376,
      "ĠYemen": 7377,
      "Ġfeelings": 7378,
      "Ġhá»ĵng": 7379,
      "Ġarticle": 7380,
      "Ġinterface": 7381,
      "Ġattach": 7382,
      "ĠArt": 7383,
      "Ġelection": 7384,
      "Ġcultures": 7385,
      "Ġrefuge": 7386,
      "Ġawful": 7387,
      "Ġcutting": 7388,
      "Ġ2011": 7389,
      "Ġpleasure": 7390,
      "Ġsentence": 7391,
      "Ġhorse": 7392,
      "Ġcivilization": 7393,
      "Ġwalls": 7394,
      "Ġmosquit": 7395,
      "Ġempty": 7396,
      "Ġstupid": 7397,
      "HÆ¡n": 7398,
      "Mar": 7399,
      "care": 7400,
      "down": 7401,
      "sp": 7402,
      "ued": 7403,
      "Ġera": 7404,
      "Ġcaught": 7405,
      "ĠlÆ°á»¡ng": 7406,
      "ĠmÃ¢u": 7407,
      "ĠvÃ¢y": 7408,
      "Ġpages": 7409,
      "Ġgod": 7410,
      "Ġnhiáº¿p": 7411,
      "omb": 7412,
      "Ġphones": 7413,
      "irm": 7414,
      "ĠCuá»Ļc": 7415,
      "ĠMah": 7416,
      "Ġfrustr": 7417,
      "Ġjazz": 7418,
      "cipl": 7419,
      "Ġhadn": 7420,
      "ĠÄĳá»ĭch": 7421,
      "Ġpartner": 7422,
      "Ġdisp": 7423,
      "ĠUg": 7424,
      "Ġappropri": 7425,
      "Ġplane": 7426,
      "alley": 7427,
      "Ġsetting": 7428,
      "Ġspecifically": 7429,
      "Ġtreated": 7430,
      "Ġlimit": 7431,
      "Ġphotographs": 7432,
      "Ġcuá»ĵng": 7433,
      "Ġfilled": 7434,
      "Ġmalaria": 7435,
      "Ġbubble": 7436,
      "Ġpenguins": 7437,
      "Bá»©c": 7438,
      "CÆ¡": 7439,
      "More": 7440,
      "Pr": 7441,
      "Would": 7442,
      "craft": 7443,
      "lands": 7444,
      "life": 7445,
      "ns": 7446,
      "Ġcosm": 7447,
      "ĠÄĳá»ĳ": 7448,
      "Ġsáº¯t": 7449,
      "Ġlaser": 7450,
      "Ġháº¹p": 7451,
      "Ġves": 7452,
      "Ġvibr": 7453,
      "ented": 7454,
      "urally": 7455,
      "Ġdol": 7456,
      "Ġliqu": 7457,
      "ĠTuy": 7458,
      "Ġsoil": 7459,
      "Ġshad": 7460,
      "Ġpeak": 7461,
      "Ġwhenever": 7462,
      "aret": 7463,
      "ĠFord": 7464,
      "ĠThá»ķ": 7465,
      "Ġunless": 7466,
      "ĠVá»Ľi": 7467,
      "Ġhumor": 7468,
      "ĠkhÃ³i": 7469,
      "ĠphÃŃm": 7470,
      "Ġsignal": 7471,
      "Ġconstruct": 7472,
      "rosoft": 7473,
      "ĠCambridge": 7474,
      "Ġclinical": 7475,
      "Ġsharks": 7476,
      "Ġvehicle": 7477,
      "Ġconvinced": 7478,
      "ĠOxford": 7479,
      "Ġcacbon": 7480,
      "hol": 7481,
      "tain": 7482,
      "Ġtall": 7483,
      "ĠláºŃt": 7484,
      "ĠvÆ°Æ¡n": 7485,
      "Ġpal": 7486,
      "Ġpil": 7487,
      "Ġchain": 7488,
      "oster": 7489,
      "Ġráº¯n": 7490,
      "Ġfal": 7491,
      "Ġinner": 7492,
      "arah": 7493,
      "ĠIce": 7494,
      "Ġconcl": 7495,
      "Ġlock": 7496,
      "ĠAnt": 7497,
      "illing": 7498,
      "ĠSyr": 7499,
      "Ġju": 7500,
      "ĠHer": 7501,
      "ests": 7502,
      "ension": 7503,
      "Ġide": 7504,
      "Ġpregn": 7505,
      "Ġfewer": 7506,
      "Ġopening": 7507,
      "Ġsubst": 7508,
      "Ġpresident": 7509,
      "Ġexpected": 7510,
      "making": 7511,
      "Ġsending": 7512,
      "yrus": 7513,
      "Ġanalog": 7514,
      "Ġprofessor": 7515,
      "Ġaffected": 7516,
      "Ġempathy": 7517,
      "Ġreaction": 7518,
      "Ġnegot": 7519,
      "Ġentrepreneurs": 7520,
      "Ġmicrob": 7521,
      "Ġingred": 7522,
      "ĠStanford": 7523,
      "bel": 7524,
      "father": 7525,
      "set": 7526,
      "Ġten": 7527,
      "Ġteles": 7528,
      "Ġcup": 7529,
      "Ġnerv": 7530,
      "ĠÄĳÃ¡o": 7531,
      "ĠÄĳÃłm": 7532,
      "Ġmáº£ng": 7533,
      "Ġpure": 7534,
      "Ġfle": 7535,
      "icy": 7536,
      "Ġkhuyáº¿t": 7537,
      "Thá»Ŀi": 7538,
      "Ġrein": 7539,
      "Ġreci": 7540,
      "Ġdogs": 7541,
      "illy": 7542,
      "Ġmyth": 7543,
      "istot": 7544,
      "Ġspoke": 7545,
      "ĠDet": 7546,
      "iber": 7547,
      "ĠFre": 7548,
      "ensity": 7549,
      "Ġunderneath": 7550,
      "Ġimportance": 7551,
      "Ġfourth": 7552,
      "Ġsolid": 7553,
      "Ġwarm": 7554,
      "Ġpoliticians": 7555,
      "Ġdeeper": 7556,
      "Ġengineer": 7557,
      "ÄĳÃ³": 7558,
      "Ġreview": 7559,
      "Ġdemocratic": 7560,
      "Ġpractical": 7561,
      "Ġreleased": 7562,
      "Ġpollen": 7563,
      "Ġarrived": 7564,
      "Ġdisplay": 7565,
      "Ġalgorithms": 7566,
      "Ġbattery": 7567,
      "Ġequivalent": 7568,
      "Yet": 7569,
      "cast": 7570,
      "iors": 7571,
      "oons": 7572,
      "uary": 7573,
      "ĠÄĳáº»": 7574,
      "Ġsources": 7575,
      "Ġgam": 7576,
      "Ġgá»ĳi": 7577,
      "Ġride": 7578,
      "Ġfed": 7579,
      "oration": 7580,
      "Ġeld": 7581,
      "Ġtang": 7582,
      "Thá»Ń": 7583,
      "urance": 7584,
      "Ġstood": 7585,
      "ĠphÃ´": 7586,
      "Ġsaved": 7587,
      "Ã¹m": 7588,
      "ĠBÃł": 7589,
      "agh": 7590,
      "Ġextend": 7591,
      "acle": 7592,
      "Ġmyst": 7593,
      "ĠHans": 7594,
      "ĠHá»įc": 7595,
      "uman": 7596,
      "ateful": 7597,
      "Ġspl": 7598,
      "ĠkhoÃ¡i": 7599,
      "ĠLED": 7600,
      "ĠEric": 7601,
      "ĠÄĳoan": 7602,
      "Ġcontain": 7603,
      "Ġprefer": 7604,
      "Ġscen": 7605,
      "Ġdriver": 7606,
      "Ġtechniques": 7607,
      "Ġcolon": 7608,
      "Ġthoughts": 7609,
      "Ġrá»Ńa": 7610,
      "Ġorganized": 7611,
      "Ġhopefully": 7612,
      "Ġdefine": 7613,
      "Ġlocation": 7614,
      "Ġmicros": 7615,
      "Ġmolecular": 7616,
      "Ġhonor": 7617,
      "ĠAtlant": 7618,
      "Ġlaunched": 7619,
      "Ġgrandmother": 7620,
      "Ġcá»«u": 7621,
      "Ġvessel": 7622,
      "Have": 7623,
      "Ind": 7624,
      "eng": 7625,
      "hai": 7626,
      "point": 7627,
      "Ġcáº¡n": 7628,
      "Ġcere": 7629,
      "Ġpizza": 7630,
      "erge": 7631,
      "Ġweak": 7632,
      "Ġquiet": 7633,
      "Ġlift": 7634,
      "áº±n": 7635,
      "Ġabst": 7636,
      "ĠMac": 7637,
      "ĠBÃ¬nh": 7638,
      "ĠBank": 7639,
      "ĠSl": 7640,
      "ĠDis": 7641,
      "Ġbrief": 7642,
      "ĠThÆ°á»£ng": 7643,
      "Ġblocks": 7644,
      "Ġplayers": 7645,
      "Ġcontract": 7646,
      "Ġsinging": 7647,
      "Ġwarming": 7648,
      "Ġpsychology": 7649,
      "Ġabsolute": 7650,
      "Ġgender": 7651,
      "Ġpromise": 7652,
      "Ġdebate": 7653,
      "ĠGiá»Ŀ": 7654,
      "Ġsoul": 7655,
      "Ġrelatively": 7656,
      "Ġgentlemen": 7657,
      "Ġcircumst": 7658,
      "Ġliquid": 7659,
      "bre": 7660,
      "van": 7661,
      "well": 7662,
      "Ġtáº§n": 7663,
      "ĠcÆ°á»Ľp": 7664,
      "Ġnations": 7665,
      "Ġsáº¡n": 7666,
      "Ġsoph": 7667,
      "Ġga": 7668,
      "Ġgain": 7669,
      "ĠdÃ¢m": 7670,
      "Ġdáº»o": 7671,
      "Ġrational": 7672,
      "itz": 7673,
      "itarian": 7674,
      "lement": 7675,
      "lease": 7676,
      "Ġphr": 7677,
      "Ġchocol": 7678,
      "Ġstaff": 7679,
      "Ġforced": 7680,
      "ĠmÃłng": 7681,
      "Ġlibr": 7682,
      "sey": 7683,
      "Ġworried": 7684,
      "ĠSah": 7685,
      "ĠchÃŃn": 7686,
      "ĠÄĲá»ĥ": 7687,
      "Ġemissions": 7688,
      "Ġmanip": 7689,
      "ĠJoe": 7690,
      "Ġgrass": 7691,
      "Ġdial": 7692,
      "Ġcovered": 7693,
      "place": 7694,
      "Ġdrag": 7695,
      "Ġinvention": 7696,
      "ograp": 7697,
      "Ġentropy": 7698,
      "Ġbits": 7699,
      "Ġmush": 7700,
      "Ġprocesses": 7701,
      "Ġcircle": 7702,
      "Ġpicked": 7703,
      "Ġhospitals": 7704,
      "Ġbirthday": 7705,
      "Ġprinting": 7706,
      "ĠFlor": 7707,
      "Ġmá»ĵi": 7708,
      "ĠCenter": 7709,
      "ĠUganda": 7710,
      "Ġnervous": 7711,
      "Bao": 7712,
      "SW": 7713,
      "bles": 7714,
      "kins": 7715,
      "Ġnurs": 7716,
      "ĠÄĳáº¡n": 7717,
      "ĠláºŃn": 7718,
      "Ġváº¹n": 7719,
      "Ġdáº£i": 7720,
      "Ġdáº¡o": 7721,
      "ĠtrÃ¢n": 7722,
      "ingly": 7723,
      "Ġqual": 7724,
      "Ġsevere": 7725,
      "ĠSub": 7726,
      "Their": 7727,
      "ĠPol": 7728,
      "ĠPeter": 7729,
      "Ġuncle": 7730,
      "Ġprove": 7731,
      "Ġgoods": 7732,
      "ĠNhÆ°": 7733,
      "Ġtransition": 7734,
      "Ġarts": 7735,
      "Ġmetal": 7736,
      "Ġlá»ĩch": 7737,
      "Ġconnections": 7738,
      "Ġtreo": 7739,
      "Ġbuying": 7740,
      "Ġrequires": 7741,
      "Ġconsumption": 7742,
      "Ġemerging": 7743,
      "Ġhacker": 7744,
      "Ġvictims": 7745,
      "ĠGhana": 7746,
      "Ġlifetime": 7747,
      "Ġfalse": 7748,
      "Ġabstract": 7749,
      "bl": 7750,
      "Ġcáº¯m": 7751,
      "ĠÄĳáº¡c": 7752,
      "Ġsides": 7753,
      "Ġlect": 7754,
      "Ġbow": 7755,
      "Ġhem": 7756,
      "Ġil": 7757,
      "Ġtoward": 7758,
      "Ġfu": 7759,
      "eda": 7760,
      "icip": 7761,
      "Ġqui": 7762,
      "Ġbear": 7763,
      "Ġshame": 7764,
      "Ġlá»£n": 7765,
      "ĠNan": 7766,
      "Ġnotes": 7767,
      "ĠDem": 7768,
      "ĠKore": 7769,
      "Ġ33": 7770,
      "ĠFound": 7771,
      "ĠWow": 7772,
      "ĠOk": 7773,
      "Ġcalling": 7774,
      "Ġpoem": 7775,
      "Ġevil": 7776,
      "Ġdesigners": 7777,
      "Ġorganisms": 7778,
      "Everybody": 7779,
      "Ġstatus": 7780,
      "Ġstronger": 7781,
      "force": 7782,
      "Ġprinciple": 7783,
      "Ġvulnerable": 7784,
      "Ġindependent": 7785,
      "Ġnarrative": 7786,
      "Ġdynamic": 7787,
      "Ġepidemic": 7788,
      "ĠTaliban": 7789,
      "Ġfolks": 7790,
      "ĠbÆ¡m": 7791,
      "ĠMicrosoft": 7792,
      "Ġdolph": 7793,
      "ĠFlorida": 7794,
      "RÃµ": 7795,
      "Women": 7796,
      "wich": 7797,
      "yan": 7798,
      "ĠtÃ´ng": 7799,
      "Ġcáº¯p": 7800,
      "Ġath": 7801,
      "Ġlic": 7802,
      "Ġbath": 7803,
      "Ġve": 7804,
      "ĠvÄ©nh": 7805,
      "Ġfan": 7806,
      "inations": 7807,
      "lying": 7808,
      "Ġisland": 7809,
      "Ġlie": 7810,
      "irty": 7811,
      "ĠTex": 7812,
      "terday": 7813,
      "Ġlá»Ŀ": 7814,
      "ĠNord": 7815,
      "ĠHenry": 7816,
      "ĠÄĳá»ģn": 7817,
      "action": 7818,
      "While": 7819,
      "ardo": 7820,
      "ĠquyÃªn": 7821,
      "ĠJes": 7822,
      "Ġacqu": 7823,
      "Ġideal": 7824,
      "Ġroof": 7825,
      "Ġtechnical": 7826,
      "ĠTEDTalk": 7827,
      "Ġ2001": 7828,
      "being": 7829,
      "Ġfoundation": 7830,
      "olds": 7831,
      "Ġengaged": 7832,
      "ĠNgÃłi": 7833,
      "Ġtopic": 7834,
      "Ġsignals": 7835,
      "ĠHoward": 7836,
      "Ġrisks": 7837,
      "Ġconvention": 7838,
      "Ġrelease": 7839,
      "Ġintelligent": 7840,
      "Ġinfected": 7841,
      "Ġmistakes": 7842,
      "Ġlady": 7843,
      "ĠNeander": 7844,
      "stitute": 7845,
      "Ġnewspaper": 7846,
      "Ġbudget": 7847,
      "Ġmortality": 7848,
      "Ġheavy": 7849,
      "Ġintellectual": 7850,
      "..": 7851,
      "BM": 7852,
      "Bá»Ļ": 7853,
      "car": 7854,
      "jo": 7855,
      "Ġnorth": 7856,
      "Ġbon": 7857,
      "Ġbáº¯p": 7858,
      "Ġbá»įc": 7859,
      "Ġkiá»ĩt": 7860,
      "ati": 7861,
      "err": 7862,
      "ĠnhÃłng": 7863,
      "Ġtrip": 7864,
      "Ġrow": 7865,
      "Ġfiction": 7866,
      "etics": 7867,
      "enture": 7868,
      "olving": 7869,
      "sters": 7870,
      "ĠCÃ²n": 7871,
      "ĠkhiÃªu": 7872,
      "ulin": 7873,
      "anted": 7874,
      "ĠBon": 7875,
      "ĠSim": 7876,
      "agen": 7877,
      "Ġjail": 7878,
      "ĠHÃłn": 7879,
      "ĠHiá»ĩp": 7880,
      "ĠPort": 7881,
      "ĠGood": 7882,
      "ĠLong": 7883,
      "Ġunus": 7884,
      "ĠbuÃ½t": 7885,
      "Ġdish": 7886,
      "eak": 7887,
      "ucing": 7888,
      "athers": 7889,
      "Ġscar": 7890,
      "weet": 7891,
      "ĠtuÃ¢n": 7892,
      "Ġminim": 7893,
      "Ġlessons": 7894,
      "Ġeffectively": 7895,
      "Ġmemories": 7896,
      "Ġmotion": 7897,
      "Ġkhuynh": 7898,
      "Ġtrials": 7899,
      "Ġkáº¹o": 7900,
      "Ġkáº¹t": 7901,
      "ollywood": 7902,
      "Ġclaim": 7903,
      "Ġrestaurant": 7904,
      "ĠLego": 7905,
      "istotle": 7906,
      "Ġilleg": 7907,
      "ĠTexas": 7908,
      "18": 7909,
      "See": 7910,
      "ban": 7911,
      "foot": 7912,
      "Ġnose": 7913,
      "Ġláº¥p": 7914,
      "ĠmÃ²n": 7915,
      "Ġbia": 7916,
      "Ġhuyá»ģn": 7917,
      "ĠvÃ©": 7918,
      "Ġdá»įn": 7919,
      "Ġnháº§m": 7920,
      "Ġtox": 7921,
      "anch": 7922,
      "anth": 7923,
      "Ġrig": 7924,
      "Ġrates": 7925,
      "ini": 7926,
      "uses": 7927,
      "Ġisol": 7928,
      "Ġlies": 7929,
      "ĠCá»Ļng": 7930,
      "ĠTá»«": 7931,
      "thur": 7932,
      "Ġheight": 7933,
      "ĠBáº£o": 7934,
      "Ġexists": 7935,
      "umber": 7936,
      "abol": 7937,
      "Ġmak": 7938,
      "Ġmanagement": 7939,
      "onds": 7940,
      "Ġcoal": 7941,
      "ressive": 7942,
      "Char": 7943,
      "Ġflat": 7944,
      "ĠState": 7945,
      "Ġremain": 7946,
      "Ġserve": 7947,
      "Ġpatent": 7948,
      "Ġmedium": 7949,
      "Ġpossibilities": 7950,
      "box": 7951,
      "ovember": 7952,
      "Ġbottle": 7953,
      "Ġeleph": 7954,
      "Ġrelevant": 7955,
      "Ġsilence": 7956,
      "Ġdefinitely": 7957,
      "Ġsatisf": 7958,
      "ĠIslam": 7959,
      "ĠCongress": 7960,
      "Ġspectrum": 7961,
      "Ġroughly": 7962,
      "Ġchannel": 7963,
      "Ġkilometers": 7964,
      "aving": 7965,
      "cut": 7966,
      "di": 7967,
      "Ġtháº¯c": 7968,
      "ĠÄĳai": 7969,
      "Ġsouth": 7970,
      "Ġwave": 7971,
      "atar": 7972,
      "Ġdot": 7973,
      "Ġinit": 7974,
      "ĠÄĳá»Ĺ": 7975,
      "utes": 7976,
      "ĠgiÃ£n": 7977,
      "etr": 7978,
      "anging": 7979,
      "Ġformer": 7980,
      "acles": 7981,
      "estic": 7982,
      "Ġactions": 7983,
      "ĠThá»©": 7984,
      "ĠchÃºc": 7985,
      "Ġpersonally": 7986,
      "Ġtranspl": 7987,
      "ĠÃĢ": 7988,
      "Ġcarefully": 7989,
      "ĠPháº£i": 7990,
      "Ġgrandfather": 7991,
      "Ġfalling": 7992,
      "Ġprotection": 7993,
      "Ġproteins": 7994,
      "Ġproducing": 7995,
      "Ġlayer": 7996,
      "Ġerror": 7997,
      "Ġintroduced": 7998,
      "Ġprinciples": 7999,
      "ĠGermany": 8000,
      "ĠBrook": 8001,
      "Ġdramatic": 8002,
      "Ġpoetry": 8003,
      "Ġalternative": 8004,
      "Ġexercise": 8005,
      "Ġsophistic": 8006,
      "Ġchocolate": 8007,
      "TÆ°Æ¡ng": 8008,
      "bed": 8009,
      "Ġcave": 8010,
      "Ġnar": 8011,
      "Ġná»ģ": 8012,
      "Ġnav": 8013,
      "Ġsen": 8014,
      "ĠlÅ©ng": 8015,
      "ĠmÆ°á»Ŀi": 8016,
      "ĠhÃ£": 8017,
      "Ġvay": 8018,
      "erves": 8019,
      "ĠtrÃº": 8020,
      "ĠráºŃp": 8021,
      "ĠxÃ¡m": 8022,
      "Ġseat": 8023,
      "Ġsees": 8024,
      "ulating": 8025,
      "ĠBu": 8026,
      "ĠBol": 8027,
      "ĠSat": 8028,
      "ĠHigh": 8029,
      "ĠGree": 8030,
      "Ġtá»±a": 8031,
      "ĠRáº¥t": 8032,
      "ĠJim": 8033,
      "ĠVir": 8034,
      "Ġflash": 8035,
      "ĠÃĶi": 8036,
      "Ġ85": 8037,
      "Ġexplains": 8038,
      "Ġamounts": 8039,
      "Ġoccup": 8040,
      "Ġmeaningful": 8041,
      "Ġprofession": 8042,
      "Ġdepends": 8043,
      "Ġlifest": 8044,
      "NhÃ¢n": 8045,
      "ĠAbraham": 8046,
      "Ġencourage": 8047,
      "Ġcandid": 8048,
      "Ġforgot": 8049,
      "Ġfortun": 8050,
      "Ġchicken": 8051,
      "Ġcortex": 8052,
      "Ġcredit": 8053,
      "12": 8054,
      "Cá»©": 8055,
      "Since": 8056,
      "Very": 8057,
      "gets": 8058,
      "wa": 8059,
      "yo": 8060,
      "zed": 8061,
      "ªm": 8062,
      "ĠcÆ°Æ¡ng": 8063,
      "Ġcents": 8064,
      "ĠthÃ©p": 8065,
      "Ġnit": 8066,
      "Ġske": 8067,
      "Ġmá»įc": 8068,
      "Ġwars": 8069,
      "Ġpip": 8070,
      "Ġdá»Ł": 8071,
      "ĠchÄĥn": 8072,
      "Ġinev": 8073,
      "Ġthá»ķ": 8074,
      "erent": 8075,
      "opard": 8076,
      "á»ĭnh": 8077,
      "Ġshr": 8078,
      "ĠnhÃ³": 8079,
      "Ġmá»ıng": 8080,
      "ĠGulf": 8081,
      "ĠDay": 8082,
      "Ġplans": 8083,
      "izon": 8084,
      "Ġens": 8085,
      "Ġscared": 8086,
      "Ġflower": 8087,
      "Ġdesigning": 8088,
      "Ġinterests": 8089,
      "Ġparticles": 8090,
      "Ġgenerate": 8091,
      "Ġadded": 8092,
      "Ġanti": 8093,
      "Ġexisting": 8094,
      "Ġestab": 8095,
      "Ġfellow": 8096,
      "Ġdisappear": 8097,
      "Ġmentioned": 8098,
      "Ġreveal": 8099,
      "Ġcomponents": 8100,
      "Ġcá»±u": 8101,
      "Ġhydrogen": 8102,
      "Ġinterpret": 8103,
      "Ġcircumstances": 8104,
      "ĠSahara": 8105,
      "Ġmushroom": 8106,
      "Americ": 8107,
      "Did": 8108,
      "cest": 8109,
      "Ġtháº±ng": 8110,
      "ĠnÃªu": 8111,
      "ĠvÆ°á»£ng": 8112,
      "Ġwine": 8113,
      "Ġdá»ĳc": 8114,
      "Ġchose": 8115,
      "Ġinequ": 8116,
      "itan": 8117,
      "ĠÄĳá»£t": 8118,
      "ĠkhÃ©o": 8119,
      "ompl": 8120,
      "Ġitem": 8121,
      "Ġreprod": 8122,
      "ĠCÃ¡ch": 8123,
      "ĠCÃ¡m": 8124,
      "ĠCoca": 8125,
      "Ġshall": 8126,
      "iled": 8127,
      "Ġfright": 8128,
      "abil": 8129,
      "ĠLáº¡p": 8130,
      "ĠDV": 8131,
      "ĠRev": 8132,
      "Ġgrateful": 8133,
      "Ġpoly": 8134,
      "Ġpoore": 8135,
      "Ġ2050": 8136,
      "Ġbike": 8137,
      "Ġngá»«a": 8138,
      "encing": 8139,
      "Ġenvironments": 8140,
      "Ġsites": 8141,
      "Ġdefined": 8142,
      "lessly": 8143,
      "Ġadvice": 8144,
      "Ġtypically": 8145,
      "Ġdealing": 8146,
      "Ġfields": 8147,
      "Ġtracking": 8148,
      "porary": 8149,
      "Ġsubjects": 8150,
      "Ġinternal": 8151,
      "Ġparticipate": 8152,
      "Ġintroduce": 8153,
      "Ġignor": 8154,
      "know": 8155,
      "Ġsequence": 8156,
      "Ġmathematics": 8157,
      "Ġdoubt": 8158,
      "Ġrapidly": 8159,
      "Ġopinion": 8160,
      "19": 8161,
      "Ba": 8162,
      "Ex": 8163,
      "ront": 8164,
      "ÃĢ": 8165,
      "Ġtap": 8166,
      "ĠnÃ¡t": 8167,
      "ĠsÃ´i": 8168,
      "ĠlÆ°á»£t": 8169,
      "ĠbÃ¡": 8170,
      "ĠhÃ´i": 8171,
      "ĠhÃ²": 8172,
      "Ġvang": 8173,
      "aters": 8174,
      "ĠdÅ©ng": 8175,
      "osa": 8176,
      "Ġrit": 8177,
      "organ": 8178,
      "asters": 8179,
      "ican": 8180,
      "Ġgoals": 8181,
      "Ġmel": 8182,
      "ums": 8183,
      "ĠGold": 8184,
      "ĠKhÃ¡": 8185,
      "Ġworlds": 8186,
      "ĠJew": 8187,
      "Ġunit": 8188,
      "ĠVen": 8189,
      "ternal": 8190,
      "Ġboat": 8191,
      "ĠYour": 8192,
      "Ġpercentage": 8193,
      "Ġends": 8194,
      "Ġpolio": 8195,
      "whel": 8196,
      "Ġsolving": 8197,
      "Ġrepair": 8198,
      "Does": 8199,
      "Ġconstant": 8200,
      "Ġinnovative": 8201,
      "Ġsenses": 8202,
      "Ġaston": 8203,
      "Ġfundamentally": 8204,
      "Ġawareness": 8205,
      "Ġvariety": 8206,
      "Ġcapture": 8207,
      "Ġinstrument": 8208,
      "Ġframework": 8209,
      "Ġaccurate": 8210,
      "hyth": 8211,
      "Ġgravity": 8212,
      "Ġunusual": 8213,
      "John": 8214,
      "Per": 8215,
      "Rob": 8216,
      "cons": 8217,
      "iency": 8218,
      "pes": 8219,
      "Ġtons": 8220,
      "ĠbÃ¹": 8221,
      "Ġwitness": 8222,
      "Ġdat": 8223,
      "Ġring": 8224,
      "Ġráº½": 8225,
      "uther": 8226,
      "ĠxÃ´i": 8227,
      "Ġreverse": 8228,
      "Ġchá»£": 8229,
      "Ġancest": 8230,
      "ĠBay": 8231,
      "Ġmá»ī": 8232,
      "earch": 8233,
      "abled": 8234,
      "Ġintense": 8235,
      "Ġspin": 8236,
      "ĠLaw": 8237,
      "Ġlength": 8238,
      "Ġuns": 8239,
      "rovers": 8240,
      "Ġoverwhel": 8241,
      "Ġdisaster": 8242,
      "Ġfactor": 8243,
      "ĠthoÃ¡i": 8244,
      "aze": 8245,
      "Ġplayer": 8246,
      "Ġconsist": 8247,
      "Ġeconomies": 8248,
      "Ġruns": 8249,
      "Ġwondered": 8250,
      "Ġlabel": 8251,
      "Ġmessages": 8252,
      "Ġoperate": 8253,
      "Everything": 8254,
      "itchen": 8255,
      "ĠBlack": 8256,
      "Ġprivile": 8257,
      "Ġmovies": 8258,
      "Ġestim": 8259,
      "Ġprimary": 8260,
      "Ġmountains": 8261,
      "Ġauthority": 8262,
      "Ġforests": 8263,
      "Ġridic": 8264,
      "Ġnano": 8265,
      "Ġjudg": 8266,
      "Ġswimming": 8267,
      "Ġearthqu": 8268,
      "Ġsample": 8269,
      "Ġgalaxy": 8270,
      "Ġapplied": 8271,
      "Ġexchange": 8272,
      "profit": 8273,
      "ĠNorden": 8274,
      "EC": 8275,
      "Gl": 8276,
      "Máº·t": 8277,
      "ien": 8278,
      "khÃ´ng": 8279,
      "source": 8280,
      "tit": 8281,
      "Ġnáº£n": 8282,
      "Ġmember": 8283,
      "Ġbill": 8284,
      "Ġhide": 8285,
      "Ġháº¡ch": 8286,
      "rets": 8287,
      "Ġoption": 8288,
      "Ġpun": 8289,
      "Ġpump": 8290,
      "osn": 8291,
      "anz": 8292,
      "Ġrot": 8293,
      "ora": 8294,
      "orter": 8295,
      "Ġvá»Ĺ": 8296,
      "ctic": 8297,
      "ament": 8298,
      "ĠmÃły": 8299,
      "ĠCop": 8300,
      "ĠhoÃłi": 8301,
      "ĠAp": 8302,
      "Ġatoms": 8303,
      "ĠBron": 8304,
      "ĠHáº£i": 8305,
      "Ġ29": 8306,
      "ĠphÃ¡c": 8307,
      "alled": 8308,
      "ĠGia": 8309,
      "Ġsuit": 8310,
      "ĠRay": 8311,
      "Ġ31": 8312,
      "roit": 8313,
      "Å©i": 8314,
      "ending": 8315,
      "Ġinsulin": 8316,
      "Ġ700": 8317,
      "Ġaccompl": 8318,
      "Ġexplan": 8319,
      "Ġeconomists": 8320,
      "Ġregions": 8321,
      "Ġconfidence": 8322,
      "Ġconfront": 8323,
      "ĠIndones": 8324,
      "Ġautonom": 8325,
      "Ġfilms": 8326,
      "atson": 8327,
      "Ġfunding": 8328,
      "Ġteams": 8329,
      "Ġelev": 8330,
      "Ġcombine": 8331,
      "Ġjoined": 8332,
      "Ġcritic": 8333,
      "Ġselling": 8334,
      "ĠBritain": 8335,
      "Ġconcrete": 8336,
      "Ġcarrying": 8337,
      "Ġhoping": 8338,
      "Ġpasswords": 8339,
      "Ġgraduate": 8340,
      "Ġphilosophy": 8341,
      "Ġmanufacturing": 8342,
      "Ġtumor": 8343,
      "ĠSweden": 8344,
      "ĠMandela": 8345,
      "ĠDetroit": 8346,
      "Ġnavig": 8347,
      "DA": 8348,
      "aven": 8349,
      "Ġtháº§m": 8350,
      "ĠbÃ¡ch": 8351,
      "Ġvoc": 8352,
      "Ġdá»Ļi": 8353,
      "eras": 8354,
      "ĠtráºŃt": 8355,
      "oug": 8356,
      "Ġcháº£": 8357,
      "osition": 8358,
      "Ġfake": 8359,
      "eding": 8360,
      "iture": 8361,
      "lly": 8362,
      "Ġpho": 8363,
      "idi": 8364,
      "ston": 8365,
      "aded": 8366,
      "Ġpray": 8367,
      "Ġsem": 8368,
      "inder": 8369,
      "Ġteeth": 8370,
      "ĠGore": 8371,
      "Ġhowever": 8372,
      "Ġcompar": 8373,
      "ĠRá»ĵi": 8374,
      "Ġagg": 8375,
      "ĠChiáº¿n": 8376,
      "Ġfactors": 8377,
      "Ġ800": 8378,
      "Ġcenturies": 8379,
      "Ġstring": 8380,
      "Ġanimation": 8381,
      "ĠBrian": 8382,
      "Ġincreased": 8383,
      "Ġbá»Ĺng": 8384,
      "elson": 8385,
      "Ġsunlight": 8386,
      "Ġtraveling": 8387,
      "Ġoceans": 8388,
      "Ġyesterday": 8389,
      "Ġbarri": 8390,
      "ĠScot": 8391,
      "Ġvaccines": 8392,
      "Ġsandwich": 8393,
      "ĠnÃ©n": 8394,
      "Ġcollaboration": 8395,
      "ĠNghá»ĩ": 8396,
      "Ġchemicals": 8397,
      "Ġdiscussion": 8398,
      "ĠRosling": 8399,
      "Ġsports": 8400,
      "ephen": 8401,
      "Ġritual": 8402,
      "AM": 8403,
      "Cola": 8404,
      "Má»¥c": 8405,
      "PhÃ": 8406,
      "Tin": 8407,
      "ek": 8408,
      "Ġtiá»ħn": 8409,
      "áº³m": 8410,
      "ĠÄĳáº½": 8411,
      "Ġloud": 8412,
      "Ġmere": 8413,
      "Ġbáº¥y": 8414,
      "ĠvÃµ": 8415,
      "Ġwake": 8416,
      "rey": 8417,
      "ĠgÃ¡c": 8418,
      "apore": 8419,
      "ĠxÄĥng": 8420,
      "Ġrebu": 8421,
      "Ġnghiá»ĩt": 8422,
      "igm": 8423,
      "ĠCD": 8424,
      "ĠTá»±": 8425,
      "agram": 8426,
      "oking": 8427,
      "andon": 8428,
      "ifer": 8429,
      "ĠPres": 8430,
      "ĠPeople": 8431,
      "ĠEas": 8432,
      "ansas": 8433,
      "ĠWolf": 8434,
      "Ġchua": 8435,
      "Ġcontrast": 8436,
      "Ġmovements": 8437,
      "Ġregard": 8438,
      "what": 8439,
      "Ġsolved": 8440,
      "Ġposter": 8441,
      "Ġproductive": 8442,
      "Ġtrá»«u": 8443,
      "Ġoperation": 8444,
      "Ġbehavioral": 8445,
      "Ġfacial": 8446,
      "Ġwinter": 8447,
      "Ġobser": 8448,
      "Ġcombination": 8449,
      "Ġharvest": 8450,
      "Ġconversations": 8451,
      "Ġcooking": 8452,
      "ĠMuslim": 8453,
      "Ġtransportation": 8454,
      "Ġresistance": 8455,
      "ĠxÃŃu": 8456,
      "Ġantibiot": 8457,
      "ĠFoundation": 8458,
      "ĠIndonesia": 8459,
      "Bas": 8460,
      "bors": 8461,
      "mission": 8462,
      "Ġthick": 8463,
      "Ġná»¥": 8464,
      "Ġmuá»ĳi": 8465,
      "ĠbÃ¬a": 8466,
      "Ġhá»¥t": 8467,
      "Ġgall": 8468,
      "child": 8469,
      "icing": 8470,
      "amine": 8471,
      "ĠCyrus": 8472,
      "abet": 8473,
      "abilities": 8474,
      "ĠRed": 8475,
      "ĠVan": 8476,
      "Ġresil": 8477,
      "Ġadj": 8478,
      "Ġbold": 8479,
      "pha": 8480,
      "Ġcomputing": 8481,
      "Ġskill": 8482,
      "Ġrefr": 8483,
      "Ġdevil": 8484,
      "Ġcá»ķng": 8485,
      "Ġchallenging": 8486,
      "Ġassign": 8487,
      "Ġmilk": 8488,
      "Ġbehaviors": 8489,
      "ĠZeal": 8490,
      "evin": 8491,
      "Ġcollapse": 8492,
      "Ġfears": 8493,
      "Ġinclude": 8494,
      "Ġconsumer": 8495,
      "Ġdestruction": 8496,
      "Ġcyber": 8497,
      "ĠScott": 8498,
      "Ġsteel": 8499,
      "Ġprepared": 8500,
      "Ġapplications": 8501,
      "Ġfabric": 8502,
      "burgh": 8503,
      "ĠSyria": 8504,
      "Ġnegoti": 8505,
      "ographer": 8506,
      "ĠBronx": 8507,
      "Loáº¡i": 8508,
      "ae": 8509,
      "bb": 8510,
      "do": 8511,
      "há»į": 8512,
      "lines": 8513,
      "rition": 8514,
      "trong": 8515,
      "Ġá»ĵ": 8516,
      "Ġtank": 8517,
      "Ġcock": 8518,
      "Ġtháº³m": 8519,
      "ĠÄĳÃł": 8520,
      "ĠlÆ¡": 8521,
      "Ġláº¯c": 8522,
      "Ġought": 8523,
      "eron": 8524,
      "Ġchurch": 8525,
      "Ġflex": 8526,
      "Ġinput": 8527,
      "ĠxÃŃch": 8528,
      "ĠxÃ©": 8529,
      "Ġreven": 8530,
      "Ġstere": 8531,
      "Ġ---": 8532,
      "imeter": 8533,
      "Ġcomment": 8534,
      "Ġfrank": 8535,
      "ĠHai": 8536,
      "ogue": 8537,
      "ĠDen": 8538,
      "Ġacting": 8539,
      "ĠKe": 8540,
      "ĠFin": 8541,
      "Ġ55": 8542,
      "ictor": 8543,
      "Ġdesk": 8544,
      "Ġoffers": 8545,
      "chnology": 8546,
      "ĠInstitute": 8547,
      "cont": 8548,
      "Ġhunt": 8549,
      "Ġinstinct": 8550,
      "Ġwriter": 8551,
      "Ġcenters": 8552,
      "Ġgenerally": 8553,
      "Ġbusy": 8554,
      "pring": 8555,
      "Ġproced": 8556,
      "Ġhyd": 8557,
      "Ġbombs": 8558,
      "Ġruá»ĵi": 8559,
      "Ġrepresents": 8560,
      "Ġconvince": 8561,
      "Ġsnow": 8562,
      "arrass": 8563,
      "Ġmechanism": 8564,
      "Ġmirror": 8565,
      "Ġagriculture": 8566,
      "Ġeggs": 8567,
      "ihad": 8568,
      "Ġlifestyle": 8569,
      "CH": 8570,
      "Could": 8571,
      "MA": 8572,
      "Sá»ĳ": 8573,
      "lation": 8574,
      "mers": 8575,
      "ville": 8576,
      "war": 8577,
      "´n": 8578,
      "Ġá»ĳc": 8579,
      "Ġcure": 8580,
      "ĠsÃºc": 8581,
      "ĠlÃºa": 8582,
      "Ġmad": 8583,
      "Ġmá»Ļng": 8584,
      "Ġmaps": 8585,
      "Ġbare": 8586,
      "ĠhÃ³c": 8587,
      "Ġgar": 8588,
      "Ġtrá»Ļm": 8589,
      "nhá»¯ng": 8590,
      "ena": 8591,
      "Ġgiáº·t": 8592,
      "ette": 8593,
      "Ġstands": 8594,
      "iminal": 8595,
      "opia": 8596,
      "Ġsacr": 8597,
      "stream": 8598,
      "ĠCáºŃu": 8599,
      "adic": 8600,
      "Ġsoáº¡n": 8601,
      "ĠMil": 8602,
      "Ġneut": 8603,
      "ĠSant": 8604,
      "Ġorch": 8605,
      "ortion": 8606,
      "reenh": 8607,
      "ewart": 8608,
      "Ġdriven": 8609,
      "Ġowners": 8610,
      "Ġobst": 8611,
      "Ġvá»¥n": 8612,
      "peare": 8613,
      "Ġmetabol": 8614,
      "Trung": 8615,
      "Ġclever": 8616,
      "Ġdepartment": 8617,
      "Ġcameras": 8618,
      "Ġparking": 8619,
      "Ġradiation": 8620,
      "Ġliterature": 8621,
      "Ġstayed": 8622,
      "Ġinspiration": 8623,
      "Ġsituations": 8624,
      "Ġsustainability": 8625,
      "Ġtransformed": 8626,
      "akespeare": 8627,
      "Ġmistake": 8628,
      "ĠIslamic": 8629,
      "Ġsamples": 8630,
      "Ġentrepreneur": 8631,
      "ĠRussia": 8632,
      "Ġhypothes": 8633,
      "Ġtherapy": 8634,
      "Ġcircuit": 8635,
      "ĠCarolina": 8636,
      "Ġillegal": 8637,
      "Ġsophisticated": 8638,
      "ĠDVD": 8639,
      "titles": 8640,
      "ĠZealand": 8641,
      "BC": 8642,
      "Há»ĩ": 8643,
      "HÃłng": 8644,
      "ThÃ´ng": 8645,
      "cks": 8646,
      "iel": 8647,
      "look": 8648,
      "ux": 8649,
      "Ġur": 8650,
      "Ġá»ĳm": 8651,
      "Ġmat": 8652,
      "ĠmÆ°Æ¡i": 8653,
      "Ġbes": 8654,
      "ĠbÆ°á»Ľ": 8655,
      "Ġborders": 8656,
      "Ġhits": 8657,
      "ĠgÅ©i": 8658,
      "Ġgreenh": 8659,
      "oto": 8660,
      "ĠrÅ©": 8661,
      "chair": 8662,
      "Three": 8663,
      "ĠxÆ°á»Łng": 8664,
      "ĠxÆ°á»Ľng": 8665,
      "Ġreject": 8666,
      "Ġsteal": 8667,
      "Ġchá»£t": 8668,
      "Ġanonym": 8669,
      "stand": 8670,
      "Ġunh": 8671,
      "ĠMat": 8672,
      "ĠAct": 8673,
      "ĠSom": 8674,
      "ifth": 8675,
      "obi": 8676,
      "obs": 8677,
      "ĠPat": 8678,
      "ĠPac": 8679,
      "Ġtea": 8680,
      "Ġplus": 8681,
      "Ġsomewhat": 8682,
      "oseph": 8683,
      "ĠKim": 8684,
      "ĠJosh": 8685,
      "Ġthanks": 8686,
      "ĠWatson": 8687,
      "Ġprem": 8688,
      "Ġflag": 8689,
      "Ġapparent": 8690,
      "Ġtechnique": 8691,
      "Ġstoryt": 8692,
      "ĠIsland": 8693,
      "ĠYorker": 8694,
      "Ġsigns": 8695,
      "Ġdevast": 8696,
      "Ġwalks": 8697,
      "ĠtÃŃm": 8698,
      "Ġpotentially": 8699,
      "Ġidentical": 8700,
      "Ġboxes": 8701,
      "Ġauthent": 8702,
      "Ġfootprint": 8703,
      "Ġoptions": 8704,
      "Ġpulled": 8705,
      "Ġneighbors": 8706,
      "ĠThÃ¡nh": 8707,
      "Ġburning": 8708,
      "Ġembarrass": 8709,
      "Ġclouds": 8710,
      "Ġhunger": 8711,
      "Ġlaboratory": 8712,
      "Ġdetermine": 8713,
      "Ġladies": 8714,
      "Ġcontrolled": 8715,
      "ĠProject": 8716,
      "Ġsatellite": 8717,
      "ĠVirgin": 8718,
      "Ġearthquake": 8719,
      "ĠPresident": 8720,
      "BI": 8721,
      "Cl": 8722,
      "HÃ¬nh": 8723,
      "TÃªn": 8724,
      "eo": 8725,
      "night": 8726,
      "oop": 8727,
      "upp": 8728,
      "Ġáº¿ch": 8729,
      "á»Ĺ": 8730,
      "Ġthumb": 8731,
      "Ġsets": 8732,
      "ĠmÆ°á»£n": 8733,
      "ĠhÃ©t": 8734,
      "Ġkm": 8735,
      "Ġdict": 8736,
      "Ġdedic": 8737,
      "Ġdancing": 8738,
      "erry": 8739,
      "ĠtrÃ¡ng": 8740,
      "Ġcháº½": 8741,
      "Ġngáº«m": 8742,
      "esh": 8743,
      "esity": 8744,
      "inate": 8745,
      "level": 8746,
      "Ġwel": 8747,
      "Ġwhist": 8748,
      "Ġbee": 8749,
      "Ġreh": 8750,
      "Ġren": 8751,
      "Ġstock": 8752,
      "Ġwash": 8753,
      "ĠCount": 8754,
      "Ġloop": 8755,
      "Ġasse": 8756,
      "ĠAir": 8757,
      "ĠPole": 8758,
      "ĠkhoÃ¡ng": 8759,
      "ĠLester": 8760,
      "ĠDa": 8761,
      "Ġsuic": 8762,
      "Ġbroke": 8763,
      "resp": 8764,
      "Ġunknown": 8765,
      "Ġarrest": 8766,
      "ĠVictor": 8767,
      "Ġ1930": 8768,
      "Ġdownload": 8769,
      "Ġsurvey": 8770,
      "Ġinstruct": 8771,
      "Ġplays": 8772,
      "ĠAristotle": 8773,
      "ĠNgÃ¢n": 8774,
      "Ġprocessing": 8775,
      "Ġglobe": 8776,
      "Ġphysically": 8777,
      "Ġallowing": 8778,
      "Ġequally": 8779,
      "Ġtests": 8780,
      "Ġmemor": 8781,
      "Ġadvanced": 8782,
      "Ġcollected": 8783,
      "Ġclosely": 8784,
      "Ġexistence": 8785,
      "ĠPrize": 8786,
      "Ġimmune": 8787,
      "Ġempower": 8788,
      "Also": 8789,
      "Ġultimate": 8790,
      "Ġflowers": 8791,
      "Ġspiritual": 8792,
      "Ġproperties": 8793,
      "Ġvehicles": 8794,
      "Ġpuzzle": 8795,
      "Ġembrace": 8796,
      "connected": 8797,
      "ĠGandhi": 8798,
      "Ġtonight": 8799,
      "ĠWilliam": 8800,
      "Ġhorrible": 8801,
      "Ġgarden": 8802,
      "Ġastronom": 8803,
      "Ġappropriate": 8804,
      "BÃªn": 8805,
      "Ká»ĥ": 8806,
      "SS": 8807,
      "Sim": 8808,
      "gie": 8809,
      "náº¿u": 8810,
      "ooth": 8811,
      "via": 8812,
      "xies": 8813,
      "Ľp": 8814,
      "á»ħ": 8815,
      "ĠcÆ°á»£c": 8816,
      "Ġthin": 8817,
      "ĠlÃ¢n": 8818,
      "Ġmales": 8819,
      "Ġbin": 8820,
      "Ġbáº©n": 8821,
      "ĠvÃ¡n": 8822,
      "Ġpound": 8823,
      "Ġpitch": 8824,
      "Ġdense": 8825,
      "ĠnhÆ°á»Ŀng": 8826,
      "ĠtrÃ¡n": 8827,
      "Ġfurn": 8828,
      "arant": 8829,
      "ĠÄĳá»ĩ": 8830,
      "asks": 8831,
      "ĠIm": 8832,
      "Ġphase": 8833,
      "Ġquáº·c": 8834,
      "Ġbeach": 8835,
      "etically": 8836,
      "Ġxá»ī": 8837,
      "ÃŃn": 8838,
      "keep": 8839,
      "Ġconver": 8840,
      "olar": 8841,
      "ĠComm": 8842,
      "Ġasp": 8843,
      "Ġshell": 8844,
      "ĠMill": 8845,
      "ĠMuseum": 8846,
      "Ġfrog": 8847,
      "ĠÄĳá»Ļn": 8848,
      "Ġjoke": 8849,
      "Ġexec": 8850,
      "Ġoutc": 8851,
      "ĠnhÃło": 8852,
      "ĠDep": 8853,
      "Ġacts": 8854,
      "Ġquyáº¿n": 8855,
      "pped": 8856,
      "ilding": 8857,
      "ĠWal": 8858,
      "Ġimplement": 8859,
      "Ġoverall": 8860,
      "Ġdiss": 8861,
      "Ġacknow": 8862,
      "Ġdesper": 8863,
      "Ġcá»ĳng": 8864,
      "ubes": 8865,
      "Ġdá»Ĺ": 8866,
      "Ġformed": 8867,
      "Ġkeeps": 8868,
      "Ġdistinct": 8869,
      "Ġpainful": 8870,
      "Ġcollecting": 8871,
      "Ġinteractive": 8872,
      "Ġarguments": 8873,
      "Ġmainly": 8874,
      "Ġspreading": 8875,
      "Ġactivities": 8876,
      "Ġadmit": 8877,
      "ĠLaden": 8878,
      "Ġimplications": 8879,
      "Ġromantic": 8880,
      "Ġsymptoms": 8881,
      "ĠIceland": 8882,
      "Ġtransplant": 8883,
      "ĠRevolution": 8884,
      "BÃłi": 8885,
      "CL": 8886,
      "GO": 8887,
      "Last": 8888,
      "Te": 8889,
      "hour": 8890,
      "iat": 8891,
      "tch": 8892,
      "uch": 8893,
      "ugg": 8894,
      "Ġtape": 8895,
      "ĠlÃ¡nh": 8896,
      "Ġmáº¿n": 8897,
      "Ġbáº¥m": 8898,
      "ĠbÃ¡m": 8899,
      "Ġbicy": 8900,
      "Ġwings": 8901,
      "Ġkitchen": 8902,
      "Ġnháº¡t": 8903,
      "osph": 8904,
      "Ġfoss": 8905,
      "Ġfert": 8906,
      "lete": 8907,
      "icious": 8908,
      "ÄĲiá»ĥm": 8909,
      "ĠgÃ¬n": 8910,
      "agic": 8911,
      "ĠHollywood": 8912,
      "iev": 8913,
      "ĠLou": 8914,
      "hile": 8915,
      "appy": 8916,
      "Ġuncom": 8917,
      "ĠOl": 8918,
      "Ġdiscipl": 8919,
      "ĠVi": 8920,
      "ologically": 8921,
      "Ġcontrovers": 8922,
      "Ġpool": 8923,
      "Ġunderwater": 8924,
      "Ġhandle": 8925,
      "Ġhealthcare": 8926,
      "rane": 8927,
      "Ġstretch": 8928,
      "ĠShakespeare": 8929,
      "Ġcontinent": 8930,
      "Ġadvance": 8931,
      "Ġwaves": 8932,
      "Ġillusion": 8933,
      "Ġsensitive": 8934,
      "QuÃ¡": 8935,
      "Ġviruses": 8936,
      "ĠBlue": 8937,
      "Ġroads": 8938,
      "eptember": 8939,
      "Ġreplic": 8940,
      "Ġconflicts": 8941,
      "Ġattacks": 8942,
      "Ġdivide": 8943,
      "scale": 8944,
      "Ġwheelchair": 8945,
      "Ġlá»ģu": 8946,
      "ĠMontana": 8947,
      "Ġmeasuring": 8948,
      "ĠTranscript": 8949,
      "Ġentertainment": 8950,
      "viol": 8951,
      "Ġpocket": 8952,
      "Ġconclusion": 8953,
      "Ġpregnant": 8954,
      "ĠSubtitles": 8955,
      "ĠDemocr": 8956,
      "Ġestablish": 8957,
      "Perhaps": 8958,
      "Ge": 8959,
      "NC": 8960,
      "Sao": 8961,
      "gent": 8962,
      "nel": 8963,
      "ĠÃ´m": 8964,
      "Ġná»ĵng": 8965,
      "ĠsÃ´": 8966,
      "ĠsÃ¡o": 8967,
      "Ġsáº¯m": 8968,
      "Ġment": 8969,
      "Ġborder": 8970,
      "Ġhiáº¿p": 8971,
      "Ġpill": 8972,
      "Ġgest": 8973,
      "Ġtrig": 8974,
      "Ġrush": 8975,
      "isters": 8976,
      "aron": 8977,
      "usive": 8978,
      "Ġbeet": 8979,
      "Ġanth": 8980,
      "tery": 8981,
      "ĠSen": 8982,
      "Ġfro": 8983,
      "ĠHay": 8984,
      "Ġupper": 8985,
      "ĠLove": 8986,
      "ivi": 8987,
      "ĠRam": 8988,
      "ĠRiver": 8989,
      "ĠRock": 8990,
      "Ġbrib": 8991,
      "Ġbrothers": 8992,
      "Ġperman": 8993,
      "Ġ37": 8994,
      "Ġfeature": 8995,
      "Ġclock": 8996,
      "Ġimplant": 8997,
      "ĠChá»§": 8998,
      "Ġcontem": 8999,
      "Ġcommand": 9000,
      "Ġ2002": 9001,
      "Ġobesity": 9002,
      "Ġdesigns": 9003,
      "Ġrá»Ĺng": 9004,
      "Ġregener": 9005,
      "ĠmÃ£nh": 9006,
      "Ġclasses": 9007,
      "Ġlargely": 9008,
      "Ġproviding": 9009,
      "Ġexplained": 9010,
      "Ġruá»Ļt": 9011,
      "Ġrecords": 9012,
      "Ġreached": 9013,
      "Ġrequired": 9014,
      "Ġpollution": 9015,
      "Ġsuffer": 9016,
      "ĠChristmas": 9017,
      "Ġdropped": 9018,
      "ĠGrand": 9019,
      "Ġsurrounded": 9020,
      "Ġirr": 9021,
      "ĠChile": 9022,
      "Ġgalaxies": 9023,
      "Ġincentives": 9024,
      "ĠKhoa": 9025,
      "Ġprototype": 9026,
      "Ġadvertising": 9027,
      "ĠJanuary": 9028,
      "Ġastonishing": 9029,
      "hythm": 9030,
      "Global": 9031,
      "Ab": 9032,
      "field": 9033,
      "net": 9034,
      "ras": 9035,
      "uous": 9036,
      "zer": 9037,
      "Ġ+": 9038,
      "ĠcÃłi": 9039,
      "ĠnÃ´": 9040,
      "ĠlÃ¹ng": 9041,
      "Ġluá»¹": 9042,
      "Ġmim": 9043,
      "Ġben": 9044,
      "Ġboring": 9045,
      "Ġvit": 9046,
      "Ġpushing": 9047,
      "Ġnhá»ĩn": 9048,
      "Ġtruck": 9049,
      "ĠchÃ¹": 9050,
      "ĠchÃ´n": 9051,
      "ĠIBM": 9052,
      "Ġphun": 9053,
      "etch": 9054,
      "Ġstorm": 9055,
      "Ġliver": 9056,
      "Ġub": 9057,
      "Ġseason": 9058,
      "ila": 9059,
      "illa": 9060,
      "Ġattend": 9061,
      "ĠBob": 9062,
      "ĠSk": 9063,
      "ĠSeptember": 9064,
      "agos": 9065,
      "Ġmá»ķ": 9066,
      "abin": 9067,
      "Ġsphere": 9068,
      "ĠLÃł": 9069,
      "ĠEth": 9070,
      "Ġheroes": 9071,
      "Ġ46": 9072,
      "plom": 9073,
      "ords": 9074,
      "akers": 9075,
      "Ġremem": 9076,
      "Ġinsurance": 9077,
      "Ġtransfer": 9078,
      "ĠNewton": 9079,
      "Thanks": 9080,
      "Ġregret": 9081,
      "ĠNgÃły": 9082,
      "ĠHealth": 9083,
      "Ġpresence": 9084,
      "Ġyounger": 9085,
      "Ġconstit": 9086,
      "Ġsongs": 9087,
      "Ġopera": 9088,
      "ĠAmy": 9089,
      "Ġcausing": 9090,
      "Ġangry": 9091,
      "Ġbreathe": 9092,
      "Ġmechanical": 9093,
      "Ġassume": 9094,
      "Ġjudge": 9095,
      "iosity": 9096,
      "Ġmathematical": 9097,
      "Ġuncertain": 9098,
      "ĠSilicon": 9099,
      "Ġphrase": 9100,
      "Ġconventional": 9101,
      "Ġfrankly": 9102,
      "Ġgreenhouse": 9103,
      "BA": 9104,
      "Bá»ĳ": 9105,
      "OL": 9106,
      "PT": 9107,
      "aeda": 9108,
      "hh": 9109,
      "vas": 9110,
      "worth": 9111,
      "á»©a": 9112,
      "Ġcous": 9113,
      "Ġthung": 9114,
      "Ġtháº¥m": 9115,
      "Ġlying": 9116,
      "Ġváº¡ch": 9117,
      "Ġkick": 9118,
      "Ġpapers": 9119,
      "Ġdress": 9120,
      "Ġrub": 9121,
      "Ġrating": 9122,
      "orus": 9123,
      "arry": 9124,
      "Ġears": 9125,
      "utch": 9126,
      "Ġgiá»įt": 9127,
      "Ġlikes": 9128,
      "ĠTim": 9129,
      "ĠMiss": 9130,
      "ĠMike": 9131,
      "Ġmeg": 9132,
      "Ġoutcome": 9133,
      "rous": 9134,
      "ĠKy": 9135,
      "ĠKar": 9136,
      "Ġagencies": 9137,
      "eps": 9138,
      "Ġgrain": 9139,
      "ĠxuÃ¢n": 9140,
      "Ġ1900": 9141,
      "Ġlets": 9142,
      "Ġremove": 9143,
      "Ġbias": 9144,
      "Ġfinance": 9145,
      "Ġcareful": 9146,
      "Ġnaturally": 9147,
      "Ġvisible": 9148,
      "Ġeducational": 9149,
      "Ġrefer": 9150,
      "Ġcollaps": 9151,
      "Ġdeaths": 9152,
      "Ġlá»ĵng": 9153,
      "Ġdigit": 9154,
      "Ġfaced": 9155,
      "Quan": 9156,
      "ĠLeon": 9157,
      "Ġreligions": 9158,
      "Ġapartment": 9159,
      "Ġaftern": 9160,
      "Ġmethods": 9161,
      "Ġcontinued": 9162,
      "Ġtribe": 9163,
      "Ġhousing": 9164,
      "Ġdiagnosed": 9165,
      "Ġfingers": 9166,
      "Ġdefend": 9167,
      "Ġstrangers": 9168,
      "Ġacademic": 9169,
      "Ġlatest": 9170,
      "ĠSingapore": 9171,
      "Ġelder": 9172,
      "Ġmystery": 9173,
      "Ġnurses": 9174,
      "Ġathlet": 9175,
      "Ġantibiotics": 9176,
      "Basically": 9177,
      "case": 9178,
      "fish": 9179,
      "now": 9180,
      "xim": 9181,
      "Ġcast": 9182,
      "ĠthÆ°á»£ng": 9183,
      "ĠsÃ©t": 9184,
      "Ġwise": 9185,
      "Ġped": 9186,
      "Ġpasse": 9187,
      "Ġtriá»ĩt": 9188,
      "Ġchá»įc": 9189,
      "ingu": 9190,
      "ĠrÃ£": 9191,
      "Ġinject": 9192,
      "Ġvá»Ŀ": 9193,
      "Ġwhales": 9194,
      "ione": 9195,
      "ĠxÄĥm": 9196,
      "Ġraw": 9197,
      "ima": 9198,
      "see": 9199,
      "ĠTem": 9200,
      "ĠTanz": 9201,
      "think": 9202,
      "ĠMÃ¬nh": 9203,
      "ĠMel": 9204,
      "Ġlá»¡": 9205,
      "ĠSand": 9206,
      "ĠScience": 9207,
      "ĠNÄĥm": 9208,
      "Ġalb": 9209,
      "ĠPan": 9210,
      "Ġspoken": 9211,
      "ĠGener": 9212,
      "ĠDÃ¢n": 9213,
      "Ġplate": 9214,
      "rah": 9215,
      "Ġwherever": 9216,
      "ĠJac": 9217,
      "Ġclothes": 9218,
      "gend": 9219,
      "ĠValley": 9220,
      "Ġsheep": 9221,
      "icted": 9222,
      "Ġblank": 9223,
      "Ġadoles": 9224,
      "Ġpretend": 9225,
      "Ġoffered": 9226,
      "Chiáº¿c": 9227,
      "ĠNhÄ©": 9228,
      "Ġengagement": 9229,
      "ĠUnion": 9230,
      "ĠHoÃł": 9231,
      "Ġhearts": 9232,
      "Ġclassic": 9233,
      "ĠZimb": 9234,
      "Ġinteractions": 9235,
      "Ġsensors": 9236,
      "Ġ1999": 9237,
      "Ġmaintain": 9238,
      "Ġviolent": 9239,
      "Ġlogo": 9240,
      "Ġstruck": 9241,
      "Ġhuynh": 9242,
      "Ġfascinated": 9243,
      "Ġefficiency": 9244,
      "Ġcustomers": 9245,
      "ĠDelhi": 9246,
      "ĠRepublic": 9247,
      "Ġrecyc": 9248,
      "ĠhÃ£m": 9249,
      "ĠEastern": 9250,
      "Ġoutcomes": 9251,
      "Ġpasseng": 9252,
      "BJ": 9253,
      "ca": 9254,
      "cil": 9255,
      "oing": 9256,
      "rors": 9257,
      "tÃ´": 9258,
      "xin": 9259,
      "ĠtÃª": 9260,
      "Ġtivi": 9261,
      "Ġcards": 9262,
      "ĠlÄĥng": 9263,
      "ĠlÃ©o": 9264,
      "ĠmÃ³ng": 9265,
      "ĠbÃ³c": 9266,
      "Ġhur": 9267,
      "Ġvert": 9268,
      "ĠvÃ²i": 9269,
      "erial": 9270,
      "quare": 9271,
      "isher": 9272,
      "Ġcá»į": 9273,
      "Ġpharm": 9274,
      "Ġphosph": 9275,
      "owered": 9276,
      "usions": 9277,
      "Ġdop": 9278,
      "opath": 9279,
      "struct": 9280,
      "ĠCÆ¡": 9281,
      "ĠColl": 9282,
      "Ġprost": 9283,
      "Ġsection": 9284,
      "Ġshake": 9285,
      "ĠMer": 9286,
      "Ġheaven": 9287,
      "ĠNGO": 9288,
      "ague": 9289,
      "ĠHill": 9290,
      "Ġbutton": 9291,
      "Ġspring": 9292,
      "Ġtheme": 9293,
      "Ġcompl": 9294,
      "ĠEs": 9295,
      "Ġagend": 9296,
      "Ġwhereas": 9297,
      "Ġclub": 9298,
      "ĠWright": 9299,
      "Ġgray": 9300,
      "Ġdiox": 9301,
      "Ġacid": 9302,
      "ewis": 9303,
      "Cha": 9304,
[...]
